#version: 0.2
다 .
다. 

▁ 이
▁ 있
▁ 1
으 로
▁ 그
에 서
▁ 사
▁ 수
▁ 대
▁ 지
▁ 가
▁있 다.

▁ 등
▁ 것
▁ 기
하 는
▁ 전
었 다.

▁ 한
▁ 제
하 고
▁ 시
▁ 정
▁1 9
▁ 자
▁ 일
▁ 중
▁ 2
▁ 주
하 여
이 다.

▁ 보
▁ 아
▁ 

에 는
▁ 경
▁ 다
▁ 유
▁ 위
하 였
▁ 관
▁ 조
▁ 인
며 ,
했 다.

▁ 나
▁ 부
▁ 고
▁ 의
▁ 공
▁ 때
▁ 되
▁ 동
▁ 서
▁ 비
▁ 구
▁ 상
고 ,
▁ 원
▁ 소
▁ 하
▁ 모
▁있 는
▁ 연
▁ 발
) ·
▁ 신
▁ 3
▁ 개
하였 다.

▁ 세
▁ 문
적 인
▁ 생
▁ 국
▁ 여
▁ 내
▁ 도
▁ 성
▁ 영
▁ 해
▁ 교
0 0
으 며,
▁ 작
▁ 만
되 어
▁ 어
▁ 따
▁ 통
▁ 또
▁ 마
▁ 장
▁ 않
▁ 남
되 었다.

▁ 오
적 으로
) 의
▁ 바
▁ 무
한 다.

▁ 강
▁ 미
▁ 거
▁ 선
하 게
▁ 특
▁ 없
▁ 방
▁ 불
▁ 분
▁ 4
이 라
▁ 우
▁ 후
에 게
▁ 말
들 이
▁ 실
▁ 반
) ,
▁ 및
▁ 현
▁ 계
▁ 5
▁ 같
▁ 산
▁ 많
( 1
부 터
면 서
▁ 재
▁ 〈
▁ 결
▁ 노
하 기
데 ,
된 다.

▁ 형
0 년
▁ 종
▁ 설
▁따 라
▁ 당
▁ 단
▁ 양
▁ 받
▁ 진
▁대 한
까 지
▁ 물
▁ 명
▁1 8
▁ ‘
다 는
▁ 두
▁ [
지 만
들 은
▁한 다.

▁사 람
에서 는
▁ 알
▁ 예
▁ 안
▁ 역
이 나
되 었
▁ 행
▁ 각
) 에
학 교
▁ 6
▁ 화
▁ 건
▁ '
▁ 평
으 나
▁ 함
▁그 러
▁것 이
▁ 뒤
▁ 왕
▁ 변
▁ 파
) 이
들 어
▁ 초
▁위 해
▁ 배
▁사 용
) 을
▁ 적
▁ 최
▁되 었다.

▁ 차
▁ 매
▁ 출
다 고
▁ 표
▁ 군
▁ 추
▁ 권
▁그 리
▁ :
들 의
▁등 이
▁ 간
▁ 활
▁ 과
▁ 독
▁ 스
▁ 포
▁ 민
▁ 북
▁ 프
▁ 임
▁ 법
▁때 문
▁ 속
▁같 은
▁ 점
▁ 입
▁ 요
▁것 으로
▁ 감
▁ 학
▁ 약
▁ 7
으 며
▁경 우
▁그러 나
주 의
▁ 근
▁ 8
았 다.

▁ 회
▁ 외
▁것 이다.

▁그 는
▁ 목
▁ 직
들 을
되 는
▁이 루
▁ 증
▁ 저
▁ 편
▁ 더
년 (
▁ 본
▁조 선
▁ 달
지 는
▁ 운
▁ 필
▁ 호
▁등 을
▁ 하는
▁가 장
▁지 역
▁ 데
▁ 농
▁ 새
년 에
▁등 의
▁ 금
▁ 확
는 데,
▁ 처
세 기
▁것 을
) 를
▁1 0
▁ 집
▁그 의
사 이
▁ 광
▁ 크
▁ 태
▁ 삼
▁ 청
▁ 피
(1 9
▁ 9
▁함 께
보 기
▁다 른
하고 ,
▁사 회
) .
▁나 타
▁여 러
▁ 높
기 도
거 나
▁ 돌
라 는
다 가
▁ 합
▁ 토
▁아 니
▁원 본
▁또 한
▁또 는
▁ 김
에 도
▁2 0
▁ 심
하 지
라 고
▁ 음
▁이 후
사 (
사이 즈
▁원본 사이즈
▁원본사이즈 보기
내 용
▁ 할
▁ 참
▁ 살
▁가 지
▁있 어
▁ 창
▁ 「
▁1 5
▁ 천
▁ 체
▁시 작
도 록
▁1 2
▁ 못
▁우 리
▁ 규
▁1 6
로 서
▁때문 에
▁ 열
▁작 품
▁ 백
▁ 들어
▁일 본
니 다.

▁것 은
4 년
5 년
국 의
▁많 은
▁ 길
기 를
▁내 용
시 대
▁ 『
요 한
▁1 7
8 년
나 라
▁ 식
성 을
▁관 한
리 를
▁의 해
) 가
▁ 복
이라 고
▁ 용
▁[ 내용
▁2 00
부 분
▁[내용 ]
▁구 성
▁ 총
사 를
9 년
▁ 죽
▁그리 고
▁ 채
편 ,
리 아
6 년
기 에
2 년
자 의
▁하 나
3 년
하 다.

되 고
▁중 심
▁ 치
▁ 항
리 는
▁ 철
▁ 면
7 년
▁ 병
▁있 었
▁자 신
▁있 었다.

▁연 구
▁있 으며,
▁ 충
▁이 러
▁ 타
▁위 한
▁당 시
▁이러 한
▁ 석
▁한 국
▁다 시
▁되 어
▁ 황
▁통 해
) 과
▁모 두
므 로
1 년
▁사 이
자 가
▁기 록
상 을
지 를
▁ (
▁제 1
▁이루 어
▁ 잘
▁이 용
이라 는
기 는
▁특 히
하 면서
서 는
▁ 책
▁ 쓰
▁19 9
▁ 판
▁ 로
▁ 즉
▁ 올
▁세 계
▁ 큰
▁1 4
로 는
▁19 7
▁생 산
▁ 했다.

▁관 련
▁정 도
이 고
▁ 담
▁ 절
서 ,
▁ 순
▁이 름
▁지 방
▁19 8
▁ 완
) 」
▁ 곳
▁ 승
▁활 동
▁ 에
기 의
▁되 었
▁19 6
▁국 가
▁ 갖
e r
▁ 풍
시 아
▁ 카
이 는
▁현 재
▁고 려
력 을
운 데
▁교 육
기 가
지만 ,
▁ 앞
▁ 된
▁ 취
) 으로
▁1 1
▁ 효
다 

▁ 귀
였 다.

대 로
정 을
▁ 된다.

시 키
▁이 상
하 면
하 며
▁가 운데
▁19 4
▁ 번
▁ 하였다.

▁대 부분
보 다
▁이 르
로 운
으로 써
▁중 국
▁ 환
▁ 박
▁ 존
▁ 손
▁ 언
▁미 국
▁ 봉
c m
▁ 향
졌 다.

▁영 향
▁ 끝
▁ 드
▁다 음
어 나
▁ 베
▁ 걸
▁ ·
▁형 태
▁정 치
▁ 하여
▁일 반
▁1 3
▁ 갈
▁비 롯
▁모 든
o n
▁발 전
이 었다.

▁대 해
▁문 화
▁아니 라
▁경 제
리 에
▁프 랑
▁이 를
사 가
) 로
▁문 제
식 을
▁서 울
▁많 이
k m
▁ 줄
▁19 2
는 다.

회 의
▁ 논
▁ -
▁사 실
대 의
a n
) 와
▁19 5
▁19 3
인 의
( 李
▁ 볼
스 트
처 럼
▁ 잡
▁주 로
. 

▁ 온
( 金
나 무
자 를
▁ 투
부 의
▁동 안
으나 ,
이 며,
▁20 1
▁ 허
▁방 법
▁의 미
자 는
으로 는
서 식
▁나 라
▁설 치
▁이 어
문 화
▁ 검
장 을
▁다 양
▁처 음
i n
▁프랑 스
성 이
▁대 표
▁제 2
계 를
▁일 부
0년 대
▁ 극
▁ ≪
리 가
▁ 글
▁ 맞
▁ 폐
▁ 급
▁ 들
도 를
음 을
▁주 요
▁행 정
▁ 얻
사 의
▁자 연
▁ 질
) 은
지 역
개 의
▁ 묘
도 가
이 며
▁ “
▁ 업
▁표 현
▁중 앙
▁인 간
▁이 것
▁ 뜻
▁도 시
운 동
▁ 암
▁중 요한
▁ 했
▁변 화
▁19 1
진 다.

▁매 우
대 학교
위 를
▁생 각
▁만 들어
▁발 생
이 었
) 에서
▁포 함
▁ 리
▁ 침
▁알 려
) 는
는 데
▁ 누
도 의
대 학
▁ 축
▁ 날
▁ 은
들 과
▁ 하고
▁ 좋
▁형 성
▁부 분
▁조 직
) ’
▁위 치
지 로
▁생 활
해 야
▁ 별
▁영 국
▁있 고,
▁새 로운
위 원
▁ 능
〉 (19
물 을
상 의
▁만 들
▁ 협
▁ 송
▁기 술
▁이 에
▁받 아
▁ 준
리 의
▁ 접
▁특 징
. .
▁발 견
▁ B
▁인 구
▁ 섬
▁ 둘
장 이
▁없 는
쪽 으로
e n
정 한
▁계 속
들 에게
▁ 꽃
▁ 육
인 이
▁역 사
▁ 홍
▁ 힘
▁ <
▁노 동
▁프 로
▁작 성
▁ 친
기 관
▁ 막
▁ 탄
▁자 유
에서 도
▁따라 서
▁지 식
▁ 몸
지 가
하 며,
로 부터
~ 1
▁ 코
권 을
제 를
▁ 찾
▁자신 의
▁ 밀
▁시 행
서 를
▁ 혼
지 의
▁정 부
▁ C
▁등 에
▁돌 아
▁ 라
교 육
▁ 좌
도 로
▁전 체
이 가
▁말 한다.

▁독 립
▁ 머
원 의
▁ 측
인 다.

▁국 제
t i
▁ 난
▁설 립
원 을
▁ A
▁크 게
▁ 몇
자 ,
a l
▁모 양
h e
▁같 이
으로 서
▁ 밝
▁지 금
▁거 의
▁ 먹
▁주 장
▁의 한
시 에
▁수 도
르 는
했 으며,
▁ T
e s
▁아 래
▁ 범
▁영향 을
▁이 는
▁보 여
) 』
스 의
▁평 가
▁않 고
▁결 과
▁ 메
▁관 계
으로 ,
▁필 요
▁개 발
▁ 붙
물 의
지 고
▁남 아
▁나타 나
월 에
▁위 하여
▁ S
▁있 던
▁구 조
▁ 빈
▁기 능
▁발 달
o r
상 이
화 를
▁전 통
하 도록
▁가 능
리 카
자 로
▁ 폭
연 구
▁ 애
▁그 림
무 를
대 를
▁그 것
▁작 은
a r
하 려
회 를
면 ,
기 (
▁결 정
▁유 명
지 에
▁존 재
▁있 을
▁ 눈
▁ 버
▁ 넓
했 던
산 (
▁문 학
▁이 곳
▁민 족
▁만 든
▁ 뿐
▁아 버
밖 에
▁있는 데,
스 는
▁중 요
▁모 습
▁어 떤
▁로 마
▁독 일
사 로
해 서
▁ 악
00 0
▁ 놓
▁그 가
▁이 전
▁ 네
▁실 시
대 에
▁ 벌
▁ 첫
제 의
▁제 작
▁각 각
도 (
▁다양 한
명 을
▁전 쟁
리 고
▁ 잎
▁가지 고
▁국 민
(1 8
왔 다.

▁산 업
▁ 궁
▁ 야
원 이
▁최 초
▁연 결
부 를
▁거 쳐
▁ 윤
하 거나
▁ 넘
명 의
▁ 얼
▁ 견
▁있 으며
). 

레 이
사 는
▁없 다.

어 난
▁19 0
▁운 동
대 한
문 학
▁등 으로
▁중심 으로
간 의
함 으로써
▁서 로
▁ 색
▁역 할
▁유 지
▁ 염
▁ M
▁사 업
기 로
▁ 곧
체 의
▁필 요한
▁ 루
▁유 럽
가 는
▁신 라
▁되 는
사 업
랜 드
▁1 ,
했 고,
▁직 접
▁ 떨
문 을
▁ 페
▁ P
▁않 는
▁관 리
성 (
▁더 욱
▁ 맡
▁그리 스
인 을
시 켰
드 는
제 로
▁임 명
되 지
력 이
주 (
▁ 깊
▁ 느
▁ 낮
▁음 악
▁ 빠
격 을
▁이 때
▁ 널
▁정 보
전 (
성 의
i s
▁ 흐
사 회
하였 고,
하였 으며,
▁증 가
▁ 희
도 는
▁이 야
문 (
머 니
하기 도
▁ 러
지 (
▁기 본
물 이
▁위 에
조 의
▁이 와
▁비 교
이 를
▁종 교
출 처
▁해 당
▁ 흔
났 다.

▁ 옥
군 의
▁등 과
수 의
▁받 았다.

냈 다.

▁운 영
부 에
원 (
▁우리 나라
▁3 0
▁건 설
수 를
▁상 태
렸 다.

습 니다.

으 므로
▁자 료
한 다
▁이 해
▁차 지
▁ 브
▁높 은
적 이
▁원 출처
▁18 9
▁바 로
관 은
수 가
어 진
되었 으며,
활 동
▁ 떠
▁수 행
학 자
으 면
▁양 식
▁제 3
▁12 월
로 ,
. 5
▁종 류
▁형 식
▁있 고
▁ 혹
▁국 내
사 에
▁3 월
과 의
정 (
원 으로
▁기 업
▁4 월
장 (
임 을
▁ 벽
▁지 나
되었 고,
면 에
▁ I
▁ 팔
▁보 고
▁지 배
▁ 패
명 ,
통 령
▁ 늘
치 를
▁ "
니 아
▁ 뛰
▁구 분
정 에
▁ D
체 로
▁오 늘
▁ 곡
제 가
자 (
▁이 미
▁인 정
▁ 녹
치 는
요 .

부 (
종 의
▁기 준
▁마 을
관 리
▁ 품
▁ L
쪽 에
▁1 일
▁ 격
▁요 구
주 는
▁않 은
장 의
▁1 월
▁보 인다.

하 던
▁ 밑
▁ 쓴
▁건 축
▁ 너
관 을
부 는
리 ·
서 (
가 지
생 활
▁나 누
▁참 여
시 켜
▁ 뉴
장 ,
▁10 월
▁길 이
▁사이 에
▁ 커
소 를
원 은
▁ >
계 획
서 

▁초 기
▁노 래
되 면서
상 으로
▁일 어나
▁ 몰
▁5 월
▁않 았다.

▁사 건
▁일 으
▁불 교
) 이다.

하 자
▁ 디
마 다
▁시 간
▁조 각
▁ 게
▁ 잠
구 의
▁지 정
▁전 국
▁상 황
관 계
르 크
체 가
▁보 호
관 (
▁계 획
▁ 압
▁대 통령
▁9 월
▁자 기
▁러 시아
▁과 정
자 와
▁아 들
▁발 표
▁ 넣
학 적
▁ 긴
▁전 문
▁보 통
기 ,
▁ 월
▁이 런
▁있어 서
▁혹 은
우 스
상 (
▁높 이
▁않 았
▁내용 을
▁담 당
▁ 망
▁이 유
▁ 혁
▁법 률
과 를
. 1
체 를
전 을
사 항
▁6 월
조 선
▁그 런
▁어 려
▁ 골
▁ 땅
▁8 월
▁확 인
리 스
▁ 학교
갔 다.

▁정 신
▁개 인
▁7 월
▁물 질
기 술
▁ 먼
▁통 일
장 은
방 법
▁어 느
심 을
▁조선 시대
▁때문 이다.

내 는
▁이 듬
▁한 편
▁공 동
관 이
▁때 는
▁군 사
▁인 물
▁여 기
▁널 리
의 를
· 「
▁걸 쳐
대 가
▁나 무
▁간 행
▁ 응
어 져
자 인
▁수 록
i c
▁특 별
▁사람 이
가 를
▁이 들
군 (
부 가
기 와
▁소 설
▁제 조
▁ →
대 전
▁언 어
수 (
▁분 포
▁이것 은
문 이
사 ·
▁정 확
▁ 옮
어 서
▁추 정
▁ 갑
▁설 명
▁각 종
▁ 키
▁완 전
▁역할 을
적 ·
▁ 옛
금 을
산 업
에서 의
제 는
인 은
지 ,
도 와
학 의
▁ 딸
가 의
도 에
상 에
▁ 헌
▁사 랑
▁서 식
a t
장 에
▁분 야
장 으로
▁대 신
〉 ·
▁ 와
▁ 혈
이 고,
▁최 고
, 000
상 은
▁세 워
▁이듬 해
▁ 레
▁ 엄
▁ o
▁경 상
▁ 겸
〉· 〈
문 과
▁진 행
지 방
성 은
오 는
인 (
▁에 너
▁기 재
▁자 리
▁ 낙
른 다.

물 은
역 을
▁결 국
으로 부터
▁ 풀
▁ 플
신 청
▁있 다는
▁규 모
▁제 공
▁환 경
▁강 조
▁방 향
▁18 8
▁예 술
▁ 움
▁반 대
시키 는
▁ 트
들 에
▁비 슷
리 와
▁가 진
▁오늘 날
위 에
▁주 변
▁등 장
▁역 시
적 을
▁대 하여
사 ,
수 ,
▁세 포
▁장 식
▁ 숙
▁이 동
▁치 료
▁ *
▁ 될
성 과
▁시 대
정 의
▁찾 아
계 의
남 도
라 도
▁ 테
세 의
▁하 지만
위원 회
▁원 래
규 칙
2 5
▁ 졸
▁최초 의
지 와
▁출 판
▁지 도
▁ 덕
법 을
▁성 공
▁학 생
▁바 탕
▁1 .
▁반 응
▁1 00
북 도
등 학교
▁뒤 에
▁ 탈
▁2 5
공 업
▁어 머니
화 의
▁달 리
명 이
▁계 약
▁농 업
▁전 개
▁ 찬
▁국 립
▁현 대
단 을
소 가
▁업 무
시켰 다.

▁ 깨
▁ 흥
▁ 습
▁비롯 한
정 이
▁ 퇴
▁제 품
▁내 려
l e
사 와
정 책
스 로
▁ 왜
선 을
▁ E
▁소 장
▁공 포
▁ 싸
▁인 해
▁동 시에
▁ 훈
리 로
▁교 회
시 설
▁ 삶
▁정 책
이 지
▁강 화
▁미 술
탈 리아
구 려
▁인 도
▁o f
▁가 르
과 는
제 (
비 스
대 는
▁기 초
▁ 휴
▁ 쌓
▁의 하여
렇 게
▁그 녀
▁없 이
단 의
r e
시 킨
▁ 헤
)· 〈
▁상 당
▁현 실
▁역 임
km 2
▁같 다.

화 가
▁ R
▁행 동
▁두 고
▁ t
▁11 월
▁이 론
▁ 탐
▁어 린
경 제
▁출 신
i t
▁과 거
▁ 썼
▁활 용
▁갖 추
▁ 쉽
리 ,
세 를
였 던
▁가 족
구 를
▁자 동
▁나타 난
점 을
▁이름 을
2 0
성 에
▁시작 했다.

m m
▁공 급
▁많 다.

간 에
▁ d
원 에
이 란
없 이
▁ 띠
▁ 핵
군 이
▁등 은
▁발 행
▁사 항
학 과
▁마 련
▁ 울
움 을
째 ,
▁이 들은
▁기 타
▁ 칼
▁따 른
▁18 6
보 다는
▁ 착
형 의
▁경 향
▁규 정
▁2 월
▁ 빛
비 를
▁법 령
▁공 격
▁파 악
▁외 국
▁근 대
▁ 겨
▁명 칭
▁졸 업
▁해 안
▁개 념
▁점 차
▁북 한
▁있 도록
▁자 는
만 을
▁상 대
1 0
▁가 까
▁제 외
▁전 기
▁따 르
▁하나 의
▁이 탈리아
▁ G
▁대표 적인
▁ 클
▁고 구려
▁남 쪽
▁주 민
▁성 격
▁결 합
▁움 직
▁전 해
계 약
도 시
▁작 용
▁있 게
입 니다.

조 를
▁다 르
▁비롯 하여
어 를
학 을
▁만 드는
▁ 하였
물 관
▁드 러
▁알려 져
▁ H
▁그 대로
항 목
▁마 음
▁관련 서식
▁ 촉
1 9
했 으며
▁일반 적으로
리 (
적 은
산 을
세 가
▁있 다고
u s
▁구 체
중 에
▁ 터
면 을
해 를
▁유 래
▁사람 들이
▁보 아
▁이상 의
란 드
▁일 을
▁않 는다.

▁조 사
▁ 익
▁18 7
수 는
▁영 화
▁분 류
▁좋 은
▁경우 에는
세기 에
형 을
▁있 습니다.

▁한 편,
▁ F
조 (
권 의
▁ 0
군 은
▁고 대
호 ,
▁것 도
▁받 은
▁확 대
o l
군 을
? 

조 가
쳤 다.

▁아 이
2 00
적 이고
( 大
▁지 구
▁ 밖
촬 영
▁비 판
▁다음 과
규 모
전 에
면 의
▁통 합
신 (
▁2 .
▁성 장
▁ 잔
▁ 놀
개 발
자 들이
지 에서
식 이
▁개 혁
e l
r a
▁ 흑
인 ,
▁태 양
▁먼 저
번 째
▁건 물
전 쟁
▁유 전
문 의
▁대부분 의
산 의
다. ”
▁그 를
▁부 르
금 의
▁전 시
▁받 았
▁근 무
레 스
ti on
▁ 듯
▁ 믿
▁ 벗
▁대 학
▁2 4
▁제 시
▁남 북
▁ 하고,
했 으나
대 회
라 이
▁작 업
▁거 래
일 에
하 다가
▁부 족
▁ 맺
▁ 짧
▁해 결
▁속 에
관 의
서 에
되 기
▁ 벼
품 을
경 을
▁수 입
▁때 에는
경 (
인 데,
한 다는
수 로
지 막
호 를
▁개 최
▁사실 을
▁둘 러
r o
지 지
▁소 유
▁상 징
▁적 용
▁농 민
▁조 성
▁북 쪽
▁편 집
▁B C
자 료
▁단 순
▁것이 었다.

▁묘 사
▁1 편,
▁보 면
신 을
▁유명 한
c h
조 직
▁지 급
다 (
▁자 본
a s
했 는데,
▁오 래
▁결 혼
)」 ·「
▁ 흘
주 를
▁분 석
불 어
▁ 술
기 ·
▁그 래
▁ 둥
▁ 즐
함 을
▁가 치
▁비 해
무 늬
▁ 촬영
전 의
▁동 쪽
▁ 빌
만 이
▁더 불어
문화 재
프 리카
▁차 례
▁ 균
▁개 정
▁관련 된
▁2 1
▁하 며,
▁사이 의
소 의
호 로
▁처음 으로
▁것 과
▁스 페
린 다.

▁후 에
▁체 계
▁ 뒷
비 아
▁ N
▁지 속
▁전 투
▁ 칠
▁5 0
▁재 배
▁관 할
▁변 경
도 교
▁주 는
.. ..
렀 다.

웠 다.

종 이
▁물 론
질 을
▁있는 데
▁미 국의
화 (
▁파 견
▁ 둔
량 이
▁경 영
수 한
▁동 물
▁마 지막
▁나누 어
현 (
▁또한 ,
cm ,
시 간
▁당시 의
비 가
▁올 라
소 ,
▁제 4
▁T he
했 고
▁아 름
▁도 로
▁예 를
▁넓 은
▁비교 적
되 고,
이 의
▁대 중
▁통 치
1 5
생 산
▁도 입
▁노 력
~ 3
장 에서
▁기 간
▁속 에서
구 가
▁없 어
품 의
▁대 체로
▁ 흰
신 의
▁가 리
▁기 계
체 는
▁전 자
식 으로
▁ 몽
▁추 진
▁민 주
▁판 매
원 ,
준 다.

▁의 하면
이 에
▁사람 의
메 리카
서 관
위 의
▁그 뒤
▁2 3
대 (
점 이
· 사
▁ 납
▁ 뿌
▁연 주
▁이루어 진
▁4 0
▁편 찬
▁구성 항목
e t
다 면
▁개 편
의 (
▁수 출
▁ 흡
▁개 의
들 도
▁활 발
▁스 스로
▁ 돈
▁식 물
특 별
▁시행 규칙
▁ 굴
계 (
▁근 거
▁ 첨
▁처 리
▁ 탑
▁통 하여
▁방 송
부 와
음 악
▁최 근
▁자 주
▁분 리
자 들은
▁상 호
▁귀 족
▁인간 의
회 사
▁없 었다.

시대 의
노 동
선 (
소 설
▁조 건
▁소 재
▁받 고
자 에
선 이
▁과 학
▁직 업
▁목 적으로
▁사회 적
▁바 람
▁작 가
▁구성 되어
▁이르 는
5 0
▁ 씨
도 ,
' (
겼 다.

서 의
이 자
▁일 정한
▁보 다
▁유 형
▁때 까지
▁있었 던
▁ 쇠
시 (
▁죽 은
▁그런 데
구 역
감 을
자 에게
▁경 기도
하려 는
조 는
▁이 렇게
▁ 징
아 가
인 으로
회 (
▁서 쪽
▁바 뀌
문 에
▁경 험
▁나 온
장 ·
▁이루 고
in g
어 의
▁제 정
) 

▁ 히
구 (
명 은
▁ 년
6 0
▁동 일
▁ 밤
▁ 잃
으 면서
▁산 맥
▁점 에서
상 과
▁본 관은
류 의
실 을
▁때 ,
▁ 폴
기 간
인 과
그 램
▁화 학
▁이루어 져
▁출 토
▁들어 가
소 (
▁2 2
. 2
▁있 다.
▁그 곳
물 로
▁이 외
▁그 린
u r
▁지 은
▁여 성
▁약 간
) 에게
▁기 관
▁교 통
나 는
▁되 고
양 의
▁[ 개
▁다 루
▁바 꾸
지 도
▁그 후
▁시 설
▁측 면
▁ 끼
▁대 개
▁경우 가
들 로
스 크
어 로
▁풍 부
▁지금 의
식 의
▁그 룹
이라고 도
▁전 에
) 에는
다 른
장 과
▁서 비스
▁소 비
▁물 리
▁효 과
스 가
위 가
▁기 념
▁갖 고
▁면 적
▁증 명
▁가 로
▁부 여
▁지역 의
기 까지
▁지 원
an d
세 에
▁주 도
▁관 찰
단 이
▁이 끌
▁공 부
▁ 옷
▁세계 대전
▁빈 도
▁ 캐
안 을
▁성 립
▁평 균
정 부
▁즉 ,
▁자동 차
▁ 덮
명 (
문 은
키 는
력 의
▁표 시
▁흔 히
조 합
트 의
▁정 착
▁아 닌
호 에
▁관 직
▁관 심을
)· 이
▁급 제
▁ W
▁ 쌀
▁토 지
예 술
▁서 (
1 8
의 의
하 의
▁원 칙
▁해 석
▁후 반
▁새 로
▁ 곤
내 고
▁아 직
i l
▁ 퍼
조 사
▁중 에서
▁안 에
▁ 쌍
▁모습 을
권 이
제 에
천 (
▁그 들의
▁제2 차
▁ 《
▁근 로
미 술
▁공 업
▁선 거
▁식 민
롭 게
설 ]
▁19 세기
▁배 치
▁완 성
▁[개 설]
이 어
형 (
▁정도 로
인 들이
▁ 읽
주 로
▁수 용
▁하 늘
회 가
▁ 꾸
계 에
명 으로
° C
동 안
원 과
▁바 다
화 된
▁활동 을
리 지
생 을
▁전 라
▁제 한
▁없 었
▁것으로 ,
▁지역 에
당 (
류 를
화 와
▁있 다

▁오 른
▁무 엇
▁이르 러
. 3
아 서
화 는
▁그 려
▁이야 기
원 에서
▁3 1
▁제 도
▁수 상
스 템
▁흘 러
당 의
〉 (18
하여 ,
▁완전 히
낸 다.

▁자신 이
▁되었 고,
색 의
▁작 곡
▁쉽 게
했 을
▁유 사
▁감 소
이었 던
▁ 푸
족 의
▁실 험
▁임 진
· 이
▁사람 은
부 령
형 으로
회 는
교 의
하고 자
성 ,
▁공 간
▁특 정
▁일 어
1 3
▁ ▶
▁폐 지
▁시 민
라고 도
신청 서,
▁ 짓
일 자
1 2
법 은
수 록
▁교 황
과 정
되 며,
▁여 름
▁형태 로
▁좌 우
▁ 칭
▁ 휘
▁주 목
동 의
▁수 준
▁뿐 만
개 월
▁소 속
▁참 가
~ 4
기 업
▁2 8
르 게
부 로
식 은
▁있 기
분 을
▁아 무
▁구 별
0년 에
m ,
▁관 광
(19 9
▁ K
▁ 콘
왕 의
치 고
▁주 의
▁연 합
▁적 극
▁ 낭
▁공 연
▁세 우
u n
▁기 후
▁실 제
동 이
▁유 리
스 터
▁본 래
보 고
6 년(
▁ 억
런 던
▁기 반
▁있 지
▁보 내
▁ 척
르 고
산 ·
행 을
삼 국
▁전 반
▁중 국의
면 은
서 로
▁자 세
▁ 뚜
국 이
▁이 른
▁2 6
▁곳 에
▁옮 겨
종 (
▁지 냈다.

▁세 운
▁얼 굴
▁ 좁
▁소 련
▁하 지
▁명 의
▁ 케
상 ,
▁번 역
▁ 끌
▁내용 은
▁상 업
▁수 가
▁지 닌
▁정 리
▁촬영 

▁책 임
▁지 니
▁영 토
▁2 ,
주 가
▁낮 은
▁않 다.

▁집 단
▁기능 을
법 에
▁일 찍
▁관 계를
▁무 덤
▁작품 은
멤 버
비 의
환 경
▁말 을
00 년
▁살 아
▁뛰 어난
▁ 옆
고 를
과 학
▁안 정
▁알려 진
어 는
호 (
▁전 달
▁아버 지는
▁ 낳
이 트
▁가 져
었 으며,
지 게
호 는
▁해 외
4 년(
▁지 휘
▁배 경
▁ 봄
▁보 이는
▁분 명
▁임 금
법 (
▁경 기
▁사용 하는
도 ·
러 운
▁18 5
▁수록 되어
려 는
비 (
▁이 룬
o m
국 을
▁수 립
▁민 원
▁집 중
개 정
뿐 만
▁ 붉
▁ 티
▁사 망
▁가 는
▁개 칭
▁서울 특별
▁있 으나
▁2 7
~ 6
▁ O
정 보
체 에
▁오 스트
▁프로 그램
▁ 털
▁생 긴
m )·
▁일본 의
식 (
▁일 이
▁못 한
▁기 존
스 (
▁호 는
▁정치 적
▁ 슬
▁1 년
▁건 강
▁ 빼
석 을
▁근 처
시 의
▁대 륙
▁발 굴
로서 의
▁안 전
기 에는
이 ,
적으로 는
0년 (
▁ 맛
량 을
▁위해 서는
▁대해 서는
· 고
적 (
▁가 정
▁제 5
▁나 머
▁갈 라
론 을
▁프로 필
량 의
석 (
▁사 상
▁t he
~ 8
▁ 밖에
▁일 정
▁원 자
▁ 런던
군 에
색 을
▁영 국의
▁ 듣
중 앙
▁반 영
▁위해 서
면 이
▁목 표
▁이용 하여
. 0
합 니다.

▁나타난 다.

▁사람 을
▁충 청
7 5
드 시
왜 란
▁노 출
▁밝 혀
▁ 괴
본 .
▁일 제
▁즉 위
) 인
자 들의
▁한 다는
▁그래 서
▁깊 은
▁ 엘
되 기도
소 는
▁끝 에
었 고,
▁추정 된다.

~ 5
▁남 부
▁편 입
스 를
▁ 묻
책 .
▁18 4
되었 는데,
▁능 력
▁바탕 으로
▁아름 다
가 로
권 은
업 무
▁마 찬
▁선 출
▁저 항
가 지로
연 합
파 의
▁거 주
▁ 뇌
▁이 로
이 로
▁때 에
▁문제 를
▁ 쿠
▁계 승
▁배 우
▁체 결
일 보
▁지 지
관 으로
류 가
▁아 주
▁인 식
▁목 적
▁ 겪
▁제 6
▁나라 의
▁비슷 한
. 8
보 살
▁신 설
▁강 력
▁거 두
▁겨 울
당 한
자 리
1 6
층 의
▁신 앙
▁18 3
▁기록 한
▁훈 련
▁파 괴
▁임진 왜란
▁ 왼
하는 데
▁점 령
톨 릭
▁신 고
▁본 격
▁얼 마
1 년(
하 에
▁모 여
▁실 패
▁채 택
· 대
▁ ,
▁ 죄
가 (
▁보 존
r i
와 의
▁하 기
▁반 드시
시키 고
▁서울특별 시
8 년에
▁않 아
▁설 계
▁금 속
▁국가 의
▁모양 의
▁무 역
▁ 획
▁이 래
▁이 익
▁외 교
▁3 년
▁혁 명
▁ 액
구 에
화 에
▁경 계
많 은
▁ 샤
가 가
▁넘 어
▁ 읍
▁제 거
▁연 안
0년대 에
▁그리스 도교
e d
· 『
구 는
이 기도
조 판
▁참 고
▁ 니
방 송
▁사람 들은
▁확 보
▁2 년
▁부 산
〉 의
인 들의
▁제 출
▁정보 를
별 로
▁공 산
▁되었 으며,
▁과정 에서
2 3
6 년에
▁ 흙
비 는
o s
서 가
정 은
▁요 청
주 고
건 을
설 (
학 ·
▁광 복
나라 의
서식 ,
▁뜻 을
▁ p
국 은
록 (
스 와
약 을
▁일 어난
▁어 떻
▁알 아
▁ 뻗
▁가 격
▁[ 서식
▁변 천
기 능
리 적
위 로
했 다는
▁유 일
▁행 사
a tion
〉 를
▁대 상
▁정 상
) 이라
▁ 블
소 에
컴 퓨
▁경 쟁
▁매 년
종 은
▁건 너
박 물관
▁하 며
▁신 청
〉 에
▁등 에서
▁문 서

령 을
▁위 험
)· 김
2 년에
법 의
▁사 는
▁사 라
▁건 립
니 ,
용 을
▁공 공
▁여 겨
▁종 합
컴퓨 터
1 4
▁ 펼
▁수 많은
고 종
위 는
있 는
▁때 의
▁ J
려 고
수 ·
▁전 환
로서 ,
▁떨 어
▁ 젊
세 는
인 들은
진 (
▁도 덕
되 자
은 행
▁문 서를
거 래
부 ,
상 태
스 탄
슬 람
▁있 음
▁준 비
▁강 의
▁ 섞
개 혁
질 이
▁삼 국
사 에서
▁붉 은
▁것 에
▁재 정
▁백 제
▁ 짐
선 의
▁기 여
▁정도 의
7 0
▁정 의
인 에
재 를
▁어떻 게
a m
단 으로
량 은
리 에서
▁견 해
2 년(
7 년에
단 에
액 을
역 에
▁지 적
▁가 톨릭
▁차 이가
▁이 집
▁등 이다.

되었 던
▁자리 잡
▁만 나
8 년(
▁경 주
경 에
▁중 간
▁반 란
물 에
정 치
한 국
▁부 모
▁벼 슬
▁ 빨
왕 이
▁고 용
▁3 .
▁평 양
▁방법 을
▁대 상으로
▁ 융
하 지만
회 에
▁수 는
▁가 서
▁2 개
▁왕 의
이 다.
▁통 한
계 는
방 의
복 지
용 으로
하 나
▁신 분
되었 으나
▁받아 들
이 스
▁고 전
▁상 품
▁못 했다.

▁ 솟
▁ 콜
다 란
▁사 무
▁열 매
▁갈 등
▁나타나 는
km2 ,
트 로
▁1 )
▁아 시아
▁다 만
▁합 니다.

▁썼 다.

▁ 끊
▁기 원
▁독 특
▁둘러 싸
일 ,
▁소 개
▁실 려
까지 의
▁몇 몇
8 0
랐 다.

▁결 성
▁ 좀
면 ·
소 와
되었 고
9 년에
▁ 춘
▁ 혜
▁ 훨
▁종 사
▁설 정
전 문
화 ,
▁부 근
▁권 1
▁금 융
▁높 아
름 이
리 기
소 로
아 버
▁불 가
▁재 판
부 에서
▁1 개
en t
원 ·
▁시 대의
▁강 한
▁불 구
▁재 료
▁ 잉
▁6 0
운동 을
▁최초 로
▁뉴 욕
공 (
시 는
7 년(
세 포
▁위 원
▁작품 을
▁ 잇
▁대 립
▁부 정
▁지역 을
▁그것 은
대 장
▁뚜 렷
▁ s
▁ 멀
고 (
법 이
▁2 개의
▁이름 이
▁ 웅
동 에
유 의
전 이
직 을
▁그 들은
▁생 겨
부터 는
▁되 고,
▁훨 씬
과 로
학 (
▁저 술
▁의미 를
≫ ·
어 들
▁대 규모
▁감 독
▁만들 었다.

▁주 고
로 를
움 이
▁성 격을
▁복 잡
1 년에
〉 (
〉 ,
어 가
▁선 택
▁확 립
3 0
가 ,
동 을
지 대
▁가 입
▁기 울
▁신 문
▁않 을
▁이름 은
5 년에
차 례
호 .
▁왕 이
나라 에
▁힘 을
≫· ≪
▁전 설
▁서 양
▁실 제로
▁재 직
7 9
사 람
▁이 슬람
▁것 이라고
▁조 정
▁만 큼
▁후 기
) 라는
조 참
▁의 식
▁경우 도
▁창 건
인 데
▁ m
라 마
▁이 주
▁민 간
▁살 펴
▁지방 의
봉 (
▁2 9
▁유 대
▁제1 차
력 은
▁전 후
과 에
단 은
무 덤
이 기
전 은
▁그 밖에
▁보 는
▁마 침
▁간 의
▁항 목
4 년에
t er
산 에
적 이다.

▁주 식
▁실 현
▁받 는
▁고려 시대
사 건
지 ·
▁투 자
] 에
▁아 르
▁데 서
▁이것 을
회 에서
▁의 사
▁오 르
▁이것 이
〉 (1
같 은
▁어 렵
▁거 부
되었 다가
▁ 탁
가 에
▁시 기에
▁관 심
e m
~ 9
성 부
▁나 오는
▁되 면
▁형태 의
~ 2
통 신
▁경우 에
▁중심 지
시 를
인 에게
▁아 프리카
▁농 촌
▁에너 지
류 는
▁그 에
▁생 성
▁장 악
▁선 정
선 거
▁생 물
▁과 정을
▁현재 의
아 시아
a c
▁ c
분 의
했 다고
▁그 렇
▁기 둥
▁시 는
▁인 한
▁무 렵
. 7
영 (
▁중 의
▁달 라
5 년(
업 을
▁새 겨
▁효 율
▁떠 나
군 과
트 는
▁여 기에
▁추 구
▁정 부의
▁물 을
▁유명 하다.

▁ 슈
▁시 험
▁다 소
▁경우 는
〉 는
계 가
▁의 견
▁작성 하는
· 수
▁보 물
▁의 무
▁서 술
▁임 시
▁ 맹
▁ 옹
가 락
▁회 의
▁마찬 가지로
▁시 스템
▁조 금
▁공 사
▁사람 들의
▁필 사
3 년에
로 의
아 의
▁한 국의
▁생 기
▁불 리
▁못 하고
▁처음 에는
▁머 리
▁ V
산 ,
자 기
▁권 한
▁외 에
> ·
’ ,
교 를
▁절 차
당 이
신 이
어 야
▁그것 을
▁흡 수
4 0
B C
위 (
▁유 행
▁젊 은
>· <
보 (
요 

▁개 선
▁귀 국
▁통 과
▁배 출
종 을
해 졌다.

▁아 마
▁천 연
▁좋 아
▁다 스
) 도
▁ 을
관 에
었 던
제 도
▁공 화
▁ 멸
▁ 숭
교 (
령 (
▁유 적
▁ 꼬
▁고 향
▁모 아
▁통 제
▁진 출
▁ 율
동 (
수 와
▁ 맥
단 체
▁전 형
▁시 도
▁중 에
▁인 쇄
▁생 명
▁은 행
▁ 윌
성 으로
▁수 요
▁속 하는
▁내용 이
· 전
함 에
)이 며,
▁저 서
▁충 분
▁업 무를
당 을
생 의
제 품
▁지역 에서
▁가 을
▁주 인
▁회 복
▁20 세기
▁문제 가
▁짧 은
· 가
▁ 워
▁ 칸
〉 을
물 과
▁시 기
▁2 편,
▁공 식
▁하 천
~ 7
병 을
▁있 으므로
▁인 터
▁ 십
우 (
주 식
▁제 주
▁상 세
▁여 행
▁그러 한
. 4
▁ 셋
석 은
학 에
. 6
▁항 상
▁만들어 진
유 한
▁것 ,
활동 을
▁스페 인
센 터
▁지 점
▁대 구
▁대 사
▁바 이
▁ 써
▁책 은
9 년(
보 험
▁유 배
▁나 는
▁반 복
▁금 지
▁아니라 ,
▁ U
해 진
▁불 러
까지 는
· 유
드 의
력 과
론 (
제 와
책 을
해 지
히 려
▁전 혀
▁바 닥
▁비롯 해
▁침 입
▁가까 운
' 라는
름 을
▁ 객
조 에
▁있 음을
▁보 관
▁이르 기까지
▁생활 을
혔 다.

▁수 술
▁합 격
▁창 작
書 )
▁이 처럼
▁시 장
▁개 설
▁특 수
▁15 9
' 을
▁독 자
▁17 9
▁이른 바
u m
▁그 밖
▁고 정
▁죽 음
▁ 앙
명 한
모 양
▁자 라
i d
▁ 숨
라 스
문 으로
재 (
▁있 지만
▁페 르
▁ 욕
래 의
성 ·
질 의
▁제 국
▁보 수
▁대한 민
산 화
우 는
▁시 의
▁경 력
▁의 료
▁남 서
▁뒤 ,
▁8 0
▁회 사
▁이룬 다.

▁불구 하고
’ 을
과 ,
역 의
통 을
하는 데,
▁부 록
▁근 본
▁절 대
▁침 략
' ,
관 계를
산 이
시 가
일 을
▁문 헌
▁하나 로
▁붙 여
론 의
원 도
장 각
정 ,
▁지 난
▁보 급
▁우 선
▁5 년
▁일 상
▁오 히려
▁확 실
가 루
스 럽
업 이
▁한 다고
▁현 상
▁북 부
▁사회 의
▁ 콩
신 라
▁대 동
▁하는 데,
▁나머 지
▁ 냉
▁ 뽑
▁연 극
되었 으며
▁잘 못
▁허 가
▁사 진
교 통
구 나
단 한
더 라도
치 가
▁만 한
▁어머니 는
▁제 목
▁지니 고
% ),
▁ 훌
설 을
▁시 가
▁그러 므로
▁측 정
으로서 의
▁커 다란
▁독특 한
▁ 펴
경 의
구 로
기 계
민 족
서 도
▁늘 어
▁ 쇼
암 (
▁나 오
▁명 확
방 (
▁아 내
· 보
▁세 웠다.

▁화 가
▁사항 을
교 도
생 애
자 원
▁이 중
▁불 과
▁지역 은
3 6
▁유 교
▁많 아
덜 란드
전 히
말 에
산 물
의 가
▁화 려
▁포함 한
평 양
▁출 발
▁청 동
▁프랑스 의
안 의
지 인
편 의
▁1 만
▁비 로
▁후 손
주의 의
어 와
왕 (
증 을
▁18 세기
▁체 포
) 이라는
a d
방 을
색 으로
▁시 집
하였 는데,
▁고 객
▁평가 ]
▁핵 심
▁시 를
▁201 4
▁ 까
석 이
선 조
았 던
▁부 처
▁내 에
▁표 준
) 라고
▁지 하
▁나 가
▁실 천
▁단 계
▁하나 는
▁승 려
▁종류 의
국 (
숙 종
주 었다.

추 어
행 정
▁왕 실
▁벗 어나
▁ 컴퓨터
당 은
· 서
스 ,
▁사 고
▁얻 어
▁보여 준다.

▁우 주
에게 는
▁재 위
▁16 0
% 를
u l
르 트
화 로
· 중
▁해 서
▁명 시
▁18 0
▁증 거
▁나타 내는
▁옛 날
▁ 끓
▁ 춤
받 은
▁신 체
▁3 ,
▁통 신
▁아니 다.

▁ 벨
들 이다.

한 다고
했 지만
▁지 어
▁등 록
▁주 었다.

▁고 분
▁적 절
▁북 서
▁준 다.

▁특징 을
8 3
료 를
시 킬
유 (
▁선 언
▁너 무
일 의
▁발 간
▁내 외
▁건 국
▁확 장
▁검 은
▁마침 내
받 았다.

학 생
▁구 멍
▁장 애
▁단 체
▁학 습
▁글 을
▁변화 를
% ,
▁ 윗
각 을
단 (
전 과
조 로
▁당 사
▁두 었다.

▁이용 한
▁친 구
▁정부 는
민 의
보 는
이 한
▁부 담
▁동 맹
▁역사 적
▁훌 륭
1 7
사 무
세 계
형 이
히 는
▁내 부
학교 로
▁따르 면
▁획 득
국 가
음 이
화 ·
▁주 거
▁경제 적
개 가
부 르크
자 들을
▁위 로
▁방 문
▁계 곡
▁점 이
주의 를
▁황 제
. ”
하였 던
▁계 산
권 ,
자 본
▁[ 의의
▁민 속
▁학 문
2 )
동 은
스 타
판 을
▁정 복
▁자 치
▁하 면
▁영 양
▁201 4년
▁전통 적인
’ 의
선 은
속 도로
스 코
시 기
▁인 사
▁구 릉
▁연 방
▁적 은
▁문화 재
▁[의의 와
▁ 엔
마 을
▁조 약
▁지금 은
i a
▁ 앉
나 다
시 코
▁제 9
▁하 면서
▁어 깨
▁솟 아
▁ 섭
수 에
유 를
했 기
▁인 디
▁오 랜
▁이루 는
▁달 려
▁광 주
▁여기 서
' 의
’ 는
어 ,
하 므로
▁그 중
▁서 부
▁광 고
▁촉 진
▁알 고
▁시작 한
기 념
동 ,
페 라
▁7 0
▁194 5년
p h
되 며
목 (
어 ·
트 를
▁것 처럼
▁제 기
▁평 화
▁떨 어져
▁ 쉬
면 으로
번 호
협 회
화 한
▁정 기
▁신 경
▁무 늬
) 한
스 러운
텔 레
▁가 슴
▁비 율
▁감 염
▁살 고
▁특히 ,
▁이유 로
기 고
니 다.
받 아
부 ·
하 다고
▁있 으나,
▁북 동
▁철 도
▁앞 에
로 가
지 면
현 황
▁하 다.

▁문 서
▁해당 하는
2 7
▁ and
▁조 절
00 m
▁계 급
▁입 학
▁창 조
▁규 장각
생활 을
▁ 겹
▁ 웨
대 사
로 로
자 치
▁한 글
▁보 장
▁해 양
▁쓰 는
▁판 단
▁강력 한
비 ,
제 ,
▁하 루
▁금 강
▁194 6년
하려 고
동 맹
력 에
자 ·
▁영 업
▁방 식
6 3
▁중 세
▁부 른다.

▁만 주
▁오 랫
▁활 약
▁갖 춘
▁형태 를
▁경향 이
1 1
▁ 굽
되 면
받 침
평 균
)」 은
o c
▁ 꿈
▁ 왔
산 은
▁소 득
▁타 원
▁오랫 동안
간 다.

이 지만
평 가
후 (
▁수 집
▁유 물
▁없 고
▁봉 안
▁독일 의
류 와
아 메리카
▁창 설
▁규 칙
▁17 8
사항 ]
N A
▁ 흉
개 를
고 등학교
▁제 7
▁내 의
▁죽 었다.

▁가능 한
▁둥 근
▁식민 지
▁ 찰
디 오
망 을
사 상
중 한
▁대 비
▁전 파
▁중 반
▁어려 운
거 리
관 ,
세 (
일 랜드
해 의
▁마 치
▁( →
▁떨 어진
색 이다.

▁부 동
▁여 전히
▁평 안
▁앞 으로
▁능 력을
▁소장 되어
▁ 꼽
▁주 택
▁저 작
▁백 성
a g
▁ 꼭
▁ 쓸
문 ,
영 조
▁수 학
▁보 편
▁그리 하여
주의 적
▁방법 으로
▁주인 공
▁ 횡
권 에
법 개정
씨 (
▁있 지만,
▁것 인
▁[ 생애
▁크 고
▁위치 한
▁너 비
▁갖추 고
▁ 붕
동 ・
만 의
멕 시코
▁이 사
▁언 제
▁엄 격
▁역임 하였다.

▁ 숲
〉 은
르 의
리 학
문 ·
. 9
2 4
▁ 팽
국 에
▁지 내
▁원 인
▁나타 내
▁아버 지
▁인터 넷
형 태
▁마 르
▁점 점
(19 8
나무 ·
림 픽
부 장
시 행
▁전 략
▁자 극
▁개 인의
까지 도
▁초 기의
▁잡 저
▁머 물
▁놓 고
산 과
서 와
이 (
해 도
▁이 들의
▁대 성
▁비 록
▁200 0년
▁제외 한
6 7
▁ 빙
복 을
양 을
유 럽
이 와
▁한 반
▁나 아가
▁일반 적인
▁네 덜란드
▁ 찍
됨 에
리 오
소 ·
▁동 부
▁물 이
▁넣 어
이 ·
호 ),
▁물 에
▁이곳 에
▁경상 북도
공 산
다 "
▁상 승
▁합 성
▁항 공
6 5
▁ 르
석 기
소 년
에서 부터
▁장 기
▁최 대
구 와
면 에는
사 적
석 의
지 기
▁선 교
문과 에
모 를
소 리
▁수 정
▁초 대
▁사용 한다.

▁권 리
▁경우 ,
시대 에
▁취 임
▁느 낌
▁ 젖
지 면서
▁부 르는
▁소 송
▁표 기
▁이르 렀다.

▁대한민 국
o d
▁ 헨
드 러
비 에
▁파 리
▁속 한다.

거나 ,
▁브 라
▁특별 한
( C
i g
t h
리 엄
문 관
하 다는
▁일 대
▁6 ·
▁돌아 와
인 도
▁사 찰
▁3 5
▁ 쪽
같 이
구 조
민 주
었 는데,
작 용
▁시 대에
▁비 난
▁18 2
▁검 사
▁주장 했다.

6 4
드 로
연 맹
▁3 개
▁200 8년
화 학
▁가 공
하여 야
▁양 반
레 일
범 위
중 의
▁국 토
▁행 위
▁타 고
▁198 0년
▁191 4년
▁ 답
▁느 끼
드 를
마 디
어 도
▁시 인
▁불 리는
▁직 후
▁가장 자
시키 기
▁우리나라 의
2 8
▁ 맨
다 리
독 립
▁이 하
▁공 작
▁후 에는
▁말 았다.

▁양 성
▁작품 이다.

▁혼 란
▁정확 한
▁유형 문화재
구 ,
지 금의
편 이
▁아 우
▁유 통
▁도 서관
▁선 박
▁실 질
학교 를
▁갖 는
▁신라 의
) 이라고
▁ 틀
드 리
양 (
했 다

▁이 제
▁그 때
▁지 냈
▁보 유
▁교 환
▁따 로
▁사용 한
▁태 어
▁흐 르는
▁동 양
▁소 리
▁강 제
6 9
▁ 짜
글 랜드
▁대 항
▁의 존
▁타 법개정
▁ 멤버
▁대 응
▁지 리
▁일 치
(1 5
▁점 을
▁학 술
▁196 3년
▁일찍 이
▁ 왔다.

』 에
명 과
안 (
했 으나,
▁조 지
▁합 병
▁내용 의
▁기록 되어
▁혼 합
▁깊 이
t e
자 나
▁모 래
▁방 사
▁출 생
▁구성 된
▁승 격
▁교육 을
▁방향 으로
▁듣 고
국 민
리 게
법 으로
쟁 을
▁것 이라
▁정 교
▁아 미
▁유 기
▁동 남
▁창 립
▁의해 서
▁올 려
▁변천 ]
▁조 합
▁인 수
▁단 백
▁스 타
▁변화 가
▁풍부 한
▁ 굵
▁ 레이
」 ·「
르 몬
신 은
이 사
▁그 해
▁관 해
▁노 예
▁심 한
▁아름다 운
가 와
법 ,
스 테
조 건
▁평 야
▁충 돌
▁대부분 이
▁접 근
▁결과 를
▁다르 다.

▁이집 트
▁ 깔
연 을
▁불 안
▁5 개
▁정확 히
' 이라는
▁ 값
각 한
동 과
스 키
적 ,
▁만 에
되어 야
▁ ᆞ
주 ·
▁시 절
▁자 란
▁2 )
▁나 와
▁바 깥
▁물 러
▁이전 의
▁그곳 에서
▁ 굳
히 고
▁자 격
▁도 움을
▁거 대한
▁없 을
▁기록 이
▁ 층
▁사회 주의
~1 9
2 1
▁ 솔
과 ·
만 큼
면 (
칸 의
▁내 에서
▁사람 들을
▁들어 서
▁그녀 는
▁오래 된
▁자리잡 고
시 로
워 드
▁이루어 졌다.

▁이름 으로
▁서식 

▁d e
2 ,
3 5
동 으로
소 송
▁기 온
)」 는
▁기존 의
▁ 핀
간 을
이 므로
▁197 0년
▁ l
▁지 붕
▁등 도
▁프 리
▁집 행
〉 에서
』 의
일 (
▁건 조
▁법 칙
▁할 아버
i r
례 를
종 류
▁보 건
▁해 야
▁알 렉
▁목 판
▁그림 을
▁단순 한
대 와
어 (
▁비 중
▁소 관
▁오 페라
▁현 존
▁회 원
▁삼 각
▁박 물관
4 8
o g
▁ 덧
국 으로
분 이
▁5 일
▁활동 사항]
▁하여 금
▁계획 을
▁인디 언
' 를
6 8
곡 (
면 에서
미 를
발 전
스 에
연 (
▁여 자
리아 의
▁있었 고,
▁199 0년
▁승 진
▁들 면
▁범 죄
( 제
▁ f
과 (
방 이
사 학
운 영
하였 으나
▁연 속
▁4 ,
되었 을
▁각 기
▁허 용
와 는
주 에
▁그 에게
▁공 통
▁사이 에서
▁번 째
▁돌아 가
) 라
스 티
으 니
접 한
▁한 때
▁마 케
▁추 측
▁음 식
▁17 세기
▁일부 를
▁부분 을
▁전형 적인
3 3
· ·
▁ 겉
▁ 삭
감 이
관 과
됩 니다.

학 급
▁1 /
▁가 마
▁비 밀
▁합 의
▁극 복
정 과
화 되어
▁고 등
▁둘 째
▁기준 으로
▁ 홀
공 화
관 찰
력 으로
이 오
재 로
프 로
▁나 폴
▁추 가
▁15 0
▁언 급
▁드 라마
됨 으로써
시 험
▁사 냥
▁주 교
▁함 경
▁200 7년
▁보여 주는
▁윌 리엄
련 의
물 ,
부 처
에 만
▁지 름
▁원 시
▁재 산
▁사용 되는
▁농 경
▁언 론
▁이끌 고
] 의
도 서관
조 ·
▁곳 에서
▁꽃 이
▁구체 적인
] ·
i e
▁ 깃
점 으로
졌 으며,
▁기 획
▁제 안
▁아 울
▁때 부터
▁영 역
▁바 라
4 5
▁ 묵
각 (
▁생 태
▁분 위
▁받 지
▁길 을
▁통해 서
▁199 8년
▁질 환
▁임명 되었다.

과 대학
대 ,
도 에서
스 턴
▁이 념
▁경 찰
▁도 착
▁어 떠
▁남 동
▁형성 된
적 의
▁관 측
▁세 웠
▁계 절
▁제1 0
▁만들 고
▁발견 된
▁동일 한
▁뻗 어
▁ 엿
▁ 멕시코
었 다고
▁위 협
▁조 작
▁개 화
▁18 1
▁채 권
대학교 에서
▁관계 가
▁상당 히
( 鄭
2 9
결 과
우 리
▁것이 며,
▁길 이는
▁17 7
▁상당 한
▁아울 러
▁지 키
▁관 장
▁산 출
▁잎 은
▁몽 골
▁펼 쳐
▁유 치
▁책 을
▁13 9
▁그밖 의
▁ 뼈
▁기 생
▁차지 하고
▁최고 의
▁털 이
3 7
청 년
▁대 형
▁정 면
▁발 휘
▁도 움이
▁체 험
▁들어 와
▁접 촉
▁넣 고
▁헌 법
▁혈 액
족 은
주 교
▁200 9년
▁의미 한다.

▁생각 된다.

▁민족 의
▁루 이
▁ 갔
령 이
조 ).
▁대 리
▁보 살
▁서 정
지역 의
▁빼 앗
이 터
▁정 당
▁중 시
▁구 축
▁상 속
▁또 ,
▁계 열
▁저 장
▁현재 는
리 우스
목 을
증 ,
파 (
▁아 카
▁다 섯
▁사용 하여
▁필 리
▁이후 의
▁철 학
▁191 9년
h a
반 응
▁제 8
▁약 속
▁6· 25
▁ 묶
기 온
없 는
위 ,
▁총 독
감 (
류 (
운 (
의 로
중 (
▁화 산
▁16 8
3 9
▁ 늦
끄 는
이 드
작 품
킨 다.

▁분 열
▁적 합
▁쓰 고
▁199 5년
▁194 8년
▁발전 을
▁와 서
▁근무 하는
] ,
강 (
두 에
조 정
▁제 문
00 여
▁재 무
하기 로
▁화 합
▁운 반
▁호 흡
▁철 저
( 200
m )
색 이
▁다 룬
▁해 방
▁사용 되었다.

▁간 주
▁하나 이다.

▁베 네
▁만든 다.

▁ (1
서 에는
졌 고,
확 인
▁남 녀
▁화 폐
▁변 형
▁훌륭 한
· 공
었 을
일 본
자 연
조 와
▁자 가
▁중 단
▁인 적
▁하 게
다가 ,
만 한
산 맥
생 물
치 지
▁대 기
▁주 어
▁나 중에
▁되 자
▁합 류
▁연구 에
▁이루어 진다.

▁194 9년
▁탄 핵
▁이곳 에서
· 부
· 아
▁ 싶
간 (
공 을
포 츠
▁때문에 ,
▁열 린
▁잡 아
▁201 0년
▁특징 이다.

▁빠 져
▁삶 의
▁캐 나다
· 소
· 장
받 고
연 원
후 의
▁가 야
▁성 균
▁광 범위
▁길 이가
▁연구 를
▁199 7년
▁통일 신라
▁유일 한
· 정
선 으로
▁보 조
▁세 종
▁외 부
▁크 기는
▁피 해
▁197 3년
▁197 0년대
▁색 깔
▁폴 란드
s t
연 한
제 도를
▁일 시
▁일 종의
▁위 의
▁어 디
▁남 한
▁받 게
▁이전 에
▁이유 는
▁곤 충
山 ,
강 의
교 회
동 물
주 [
포 (
▁주 관
▁보 이고
▁방 어
▁단 편
)이 고,
▁스 트
▁맡 았다.

니 는
스 카
이 게
하 에서
하 자,
▁권 2
▁속 의
▁발생 하는
▁뛰 어나
≫ 에
▁ 족
기 준
방 향
베 르
소 에서
체 (
▁관 하여
▁신 의
▁3 2
' 는
’ 를
고 려
목 으로
▁한 자
▁3 편,
▁말 이
▁청 년
▁196 0년대
▁가능 성이
▁제외 하고
경 영
석 으로
실 ,
쟁 이
해 져
했 는데
▁자 녀
▁비 용
)』 ·『
▁구체 적으로
락 을
통 의
▁정 비
▁자 금
▁인 천
▁오 염
▁반 면에
▁단 지
▁15 일
▁축 조
시킨 다.

4 6
’ 라는
대 상
명 에
여 자
치 의
해 안
▁사 마
▁지 표
▁공 을
▁개 별
▁[ 연원
▁시작 하여
▁걸 친
▁그것 이
까 ?

음 의
자 로서
질 은
▁마 음을
▁무 너
▁분 해
선 에
▁기 대
▁시 각
▁자 리를
▁경 작
▁동 북
▁방 언
▁받 을
보 를
소 한
신 문
이 크
치 게
해 군
▁동 서
▁세 부
▁방 지
▁우 승
▁포 기
▁그녀 의
4 9
o p
▁이 른다.

▁제 도를
▁동 원
▁기술 을
무 (
쪽 의
▁대 체
▁원 형
▁소 금
▁문 인
▁생 기는
▁말 했다.

▁탄 생
▁밑 에
례 (
스 토
이 면
틀 랜드
파 는
▁이 온
▁부 속
)· 정
▁선 수
▁작품 으로
▁효 과를
▁질 병
▁정부 가
▁모양 으로
세 와
▁원 산
▁4 년
▁달 러
▁시작 되었다.

▁일본 에
▁자신 을
▁석 유
▁199 2년
▁카 르
▁딸 이다.

▁ 숫
듯 이
율 을
이 상
인 조
하 를
호 가
▁3 8
▁초 상
▁돌 려
▁이용 해
▁논 의
▁섬 유
▁이곳 은
▁경상 남도
.... ..
내 의
인 지
▁사 적
▁구 매
▁내 륙
▁두 어
▁뒤 에는
▁활 성
▁199 6년
▁벌 어
▁운동 을
곡 을
당 에
란 이
시 장
자 루
▁끝 나
▁192 0년
▁설치 되어
▁혼 인
▁구조 를
▁자료 가
▁깨 끗
▁ 쫓
놓 은
선 ,
식 과
체 와
▁4 5
▁말 은
▁16 3
▁식 품
▁200 6년
▁뛰 어
· 오
學 校
공 학
량 ,
식 품
왕 은
▁9 0
▁글 씨
▁어떠 한
▁ a
조 례
집 (
화 되었다.

▁않 으면
▁강 원도
▁초 기에
▁스 승
▁기업 의
▁잉 글랜드
령 으로
론 은
식 물
액 ,
일 이
▁보 험
▁단 일
▁출 현
▁스 코
▁책 의
▁검 토
) 이나
7 3
▁ 덴
갈 색
류 ,
면 과
석 탑
하 다

▁수 리
▁대 상이
▁교 수
▁외 에도
하면서 도
▁195 0년
▁들 고
▁알렉 산
e c
o t
▁ 궤
차 를
▁사 육
▁지 켜
▁가 난
▁않 게
▁반 면
▁뒤 를
▁참 석
▁국민 의
▁멀 리
( 朴
m 의
목 은
신 으로
▁공 장
▁특 정한
▁사용 된다.

▁매 장
▁『 삼국
▁끝 난
▁별 지
▁ 쳐
동 ·
요 ?

▁조 리
▁두 루
▁두 드러
▁사람 에게
▁태 어나
▁이후 에는
▁작품 의
법 과
사 기
조 약
했 지만,
▁수 필
▁저 지
▁비로 소
느 님
등 록
양 이
▁가 지는
▁인 용
▁반 도
▁살 해
▁창 간
▁쓰 인다.

▁끝 이
▁붙 어
▁잠 시
▁짐 작
( A
요 ,
자 들
천 의
켰 다.

▁기 사
▁배 열
▁권 리를
▁편 리
▁이후 에
▁있었 는데,
▁베 르
▁ 덩
▁ 띤
▁ 팀
세 종
트 가
혁 명
▁위 에서
▁3 4
▁최 종
▁복 원
▁담 고
▁ b
▁ 던
보 통
시 와
치 아
▁계 기로
▁있었 으며,
▁취 급
▁가치 가
▁의하면 ,
건 축
겠 다는
받 는
소 득
자 유
훈 련
▁관 념
▁3 3
▁예 방
학교 (
▁취 득
▁일부 가
▁부분 이
로 (
속 의
예 )
족 이
▁인 공
▁도 모
▁우 수
▁설 득
▁회 전
▁돈 을
2 2
5 9
니 가
산 군
종 ,
▁1 0년
▁제 수
▁3 6
▁세 력
▁우리 의
▁얻 을
▁1, 000
▁상황 을
· 제
대 문
본 (
실 록
크 리
파 를
편 을
▁이 기
▁수 송
▁수 밖에
▁시 에는
▁3 ·
▁않 도록
▁특 성
▁심 리
▁못 하는
▁198 0년대
▁라 틴
▁퇴 적
▁좁 은
▁ 껍
점 은
힌 다.

▁채 무
▁서비스 를
▁세우 고
4 3
▁ in
계 급
었 고
절 을
차 가
▁삼 아
▁31 일
5 3
▁ 밭
층 이
표 ,
하 (
▁동 생
▁내 지
▁현 황
▁예 상
▁추 천
▁16 세기
is t
▁증명 서

▁부록 으로
스럽 게
7 8
내 역
느 냐
독 교
평 (
하 지만,
▁지 형
▁전 사
▁신 성
▁무 기
▁당 나라
▁민 중
▁조선 의
▁10 일
▁내용 으로
▁일어나 는
▁일으 키
▁소관 부처
단 과
종 교
▁동 쪽으로
▁비 행
▁재 능
▁[ 시행
▁감 각
▁시작 하였다.

▁복 합
서식 

▁행정 서식,
▁행정 서식

▁시행 일자
ti c
▁양식 입니다.

▁서식 명
▁규모 가
▁국립 중앙
▁공포 일자
▁공포 번호
▁법령 명
▁법령 종류
▁개정 방법
▁민원 신청서,
▁민원 서식,
▁신고 서,
▁허가 신청서,
▁붕 괴
▁별지 서식
개 ,
거 운
고 는
총 독
했 다.
▁가 담
▁정 토
▁나 서
▁의 병
▁공 정
▁역 사를
▁포 도
▁카 를
보다 도
▁다음 해
▁베 이
▁급 격
▁했 던
▁살펴 보
상 에서
았 고,
▁가 치를
▁아 일랜드
▁거 듭
▁길 게
▁쓰 이는
▁올 랐다.

▁얻 은
▁ 씻
고 의
해 (
▁대 전
▁유 입
▁생 애
▁만 족
▁요 소
▁I I
텔레 비
' 로
2 6
군 사
선 과
표 를
▁인 하여
▁명 예
▁스 위
▁집 안
▁14 6
▁196 2년
▁행정 구역
지역 에
▁ 홈
본 으로
사 지
심 이
았 으며,
직 한
▁일 련의
▁나 뉘
▁해 도
▁15 8
▁사업 을
결 을
기 에서
임 이
체 육
▁동 지
▁구 입
▁국 회의
▁성 직
▁안 에서
▁매 매
▁필 수
▁확 산
▁197 5년
▁되었 고
▁196 0년
▁서( 書)
▁ 택
만 으로
법 인
이 아
▁있 으면
▁시 조
▁경 성
▁되 지
▁연 한
▁세 력을
▁내 세
▁장 비
▁명 성을
▁석 탄
▁연결 되어
▁뿌 리
’ 로
▁ 앨
▁ 얇
▁ 읊
초 에
▁그 와
▁시 호는
▁부 인
▁권 력을
▁편 성
▁있어 야
▁분포 한다.

▁방향 을
연 히
주 와
▁사 유
▁소 멸
▁신 학
▁변 호
▁사용 할
▁편 이다.

▁흐 름
▁제조 업
▁ 갔다.

금 융
디 아
밀 한
사 회의
식 에
패 를
▁대 장
▁공 기
▁서 쪽으로
▁소 작
▁남 쪽으로
▁삶 을
▁ 맑
관 ·
번 호,
시 ,
점 ,
▁시 에
▁상 실
▁하 이
▁타 이
운동 의
▁위치 를
▁쇠 퇴
5 8
▁ 뚫
공 사
무 역
불 교
프 랑
▁제 국의
▁다 녀
▁관 상
▁상 하
▁국 방
▁둘 째,
▁첫 째,
▁정확 하게
▁정책 을
) 에서는
’ 은
광 역
권 과
리 자
재 의
정 으로
천 ·
회 와
▁전 한다.

▁서 서
▁선 호
▁반 면,
▁합 쳐
▁시작 된
▁17 6
▁세워 진
▁ 웃
記 )
직 (
▁권 3
▁나타 낸다.

▁16 4
▁이어 서
▁급 속
▁받아 들이
▁맡 아
▁받아들 여
간 이
서 란
점 에서
진 을
티 아
희 (
▁제 대로
▁교 훈
▁피 아
▁14 0
▁앞 서
▁191 0년
소 재
피 아
▁후 보
▁진 단
▁16 2
▁198 9년
er s
▁풍 속
▁늘 어나
朝 鮮
구 ·
데 미
서 ·
작 업
함 과
▁이 들을
▁지 향
▁한 정
▁중 엽
▁내 는
▁사람 들
▁점 이다.

▁입 고
▁책 임을
▁갖 게
▁망 명
▁스코 틀랜드
7 7
속 (
인 ·
행 (
▁중 에는
▁때 로는
▁연 장
▁4 .
▁열 대
▁199 1년
▁대부분 은
▁전라 남도
q u
프 트
▁있 으면서
▁전 승
▁구 름
▁국 어
▁미 리
▁포 르
▁편 의
▁교육 기관
▁발생 한
군 으로
내 에
분 야
위 와
창 (
▁1 책.
▁그 들이
▁지 낸
)· 사
▁차 별
▁북 쪽으로
▁간행 하였다.

▁유래 되었다.

▁복잡 한
렬 한
료 로
청 (
▁보 낸
▁인 기를
▁발 원
▁영 어
▁거 느
▁종 종
▁화 강
▁부분 은
▁잇 는
1 ,
4 4
만 은
익 을
▁아 들이
▁부 임
▁3 일
▁미 루
▁말 하는
▁일부 는
▁했 으나
▁패 배
▁오스트 리아
▁자란 다.

문 제
역 (
였 으며,
통 일
▁가 득
▁전 공
▁부 드
▁세 균
▁국 왕
▁교 과
▁선 진
면서 도
▁형 식을
▁물 고
▁7 5
▁회 계
되는 데,
▁197 7년
▁전체 적으로
▁지금 까지
▁어린 이
음 (
인 트
▁방 출
▁채 용
▁발전 에
▁전쟁 을
▁둥 글
/ 멤버
▁ 꾀
덕 왕
리 나
마 루
▁사 례
▁하 느님
▁강 을
▁특 성을
▁노 르
▁사실 상
▁둘 레
▁뿐 이다.

▁그룹 /멤버
u t
▁ 씌
금 은
액 은
테 네
퍼 드
▁이 룩
▁일 자리
▁2 차
▁연 대
▁명 을
▁사람 들에게
▁달 성
▁도시 의
▁유사 한
▁이로 써
▁까 닭
≫ 의
▁ 끈
▁ 혐
경 이
증 명
▁남 겼다.

▁강 과
▁물 품
▁근 육
▁새 롭게
▁( 예)
▁특징 은
▁몸 을
▁S t
▁유럽 의
비 로
재 판
침 을
호 의
▁보 이지
▁비 극
▁발 레
▁발 문이
▁남 자
▁4 개
▁빠 른
▁이야 기를
과 정을
론 이
▁제 임
▁보 면,
▁모 스크
▁3 )
▁곳 으로
▁앞 에서
▁201 5년
▁나라 를
▁중앙 에
▁흐 르
▁디 자인
▁시행규칙 에
▁페르 시아
6 6
v e
▁ 뜨
강 을
권 으로
세 한
정 조
▁유 역
▁연 간
▁미 래
▁명 령
되었 으나,
▁적 응
▁태 어난
▁199 9년
▁포함 되어
▁땅 을
▁ 붓
」 ,
담 을
류 ·
연 의
증 이
태 종
해 가
▁1 차
▁대 외
▁주 제
▁아 랍
▁연 관
▁성 을
▁해 체
▁물 건
▁크 다.

▁토 양
▁198 8년
▁대해 서
강 점
분 에
브 리
트 라
▁제 자
▁세 로
▁없 다는
▁실 용
▁진 주
▁두 께
▁지역 으로
▁크 기가
▁있었 으나
▁얻 었다.

▁초기 에는
el l
▁ 든
▁ 쟁
각 주[
물 질
색 ,
선 생
진 흥
함 이
▁3 9
▁생 존
▁실 행
▁스 포츠
▁백 작
▁194 7년
▁향 후
~1 0
▁넘 는
▁규모 의
▁듯 하다.

▁자세 히
▁ 삽
▁ 튀
무 원
방 에
산 에서
었 으며
자 .

초 (
▁기 억
하였 다고
▁서 구
▁3 7
되어 ,
▁바 르
▁드 물
▁탄 압
▁필요 가
▁눈 에
▁띠 고
▁J .
c e
』 ·『
장 애
조 ,
▁3 개의
▁개 척
▁도 와
▁안 동
▁군 사를
▁달 린
▁197 2년
▁특별 히
B S
경 찰
국 제
다 ,
리 포
스 피
학 은
▁이 행
▁이 끄는
▁일 은
▁따 서
▁행 위를
▁북 아메리카
▁죽 자
▁201 2년
▁필요 로
▁낮 아
▁노출 되는
▁서울특별시 조례
▁ ~
▁ 헬
레 옹
류 에
지 붕
포 를
프 는
▁사 막
▁후 ,
▁군 대를
▁점 검
▁요 새
▁못 하였다.

▁16 6
▁198 5년
▁이상 이
▁불교 의
· 2
공 동
묘 (
바 닥
집 을
처 리
치 로
하 라
▁보 이
▁연 기
▁높 이는
▁홍 보
▁응 용
▁만드는 법
▁최근 에는
▁이익 을
주식 회
레일 리아
▁ n
량 (
보 호
신 앙
여 래
음 은
현 종
▁기 회를
▁행 해
▁이용 된다.

▁형태 는
▁모양 을
▁보여 주고
▁서( 序
▁일제 강점
▁왼 쪽
▁좀 더
· 인
書 院
농 업
대 표
언 (
제 한
▁수 직
▁않 고,
▁200 4년
▁좋 다.

▁차지 하는
▁드러 나
▁불가 능
▁멸 망
▁ 셰
▁ 촌
각 형
계 로
관 광
교 가
랑 이
전 시
층 석탑
치 (
▁보 았다.

▁양 식을
▁면 역
▁에 드
▁날 짜
▁협 력
▁설립 되었다.

▁본격 적인
구 성
됐 다.

승 (
장 비
평 야
▁이 상을
▁전 주
▁중 추
▁오 는
▁특 허
▁계 층
▁명 이
▁17 5
▁각각 의
▁희 곡
▁일어나 자
i on
▁ 냄
▁ 똑
▁ 흩
경 은
바 로
었 다는
지 이다.

회 ,
▁가 늘
▁경 계를
▁원 리
▁소 리를
에게 서
▁노 란
▁사람 과
▁약 간의
▁17 0
▁있었 기
▁순 환
▁195 5년
▁했 으며,
▁찾아 볼
· 김
말 로
물 (
용 (
천 이
토 기
▁자 체
▁불 렀다.

▁현 상을
▁단 위
▁포 괄
▁임 대
▁200 5년
▁벽 돌
국 과
당 했다.

라 비아
수 도
실 로
중 추
채 를
해 ,
▁수 령
▁보 냈다.

▁아 메리카
▁관 습
▁개 성
▁통 상
▁마 주
▁장 군
▁지역 이
▁관련 이
▁꽃 은
▁자료 를
▁쌓 아
6 1
▁ 돋
길 이
론 에
▁시 기의
▁되 면서
▁소 규모
▁모 방
▁진 보
되었 다고
▁군 의
▁세계 의
▁번 식
▁봉 건
운동 에
▁시간 이
▁충분 히
계 ,
기 록
색 이고
영 화
▁동 의
▁서 북
▁또 다른
▁출 전
▁독 점
▁피 부
▁일어 났다.

▁화려 한
▁나폴 레옹
▁ 탕
▁ 쪽으로
각 의
머 리
모 가
사 인
세 로
▁이 웃
▁도 망
▁교 역
▁5 )
▁물 건을
▁출 입
▁피 해를
▁16 5
▁198 1년
▁곳 곳
▁곳 이
정책 을
▁밖 으로
) 로서
· 상
▁ 빚
▁ 짙
박 한
투 자
▁자 리에
▁일 제의
▁인 근
▁영 웅
▁종 이
▁조선 총독
▁10 여
▁합 리
▁토 지를
▁199 4년
▁올 림픽
in e
▁변화 에
( 趙
문 에서
이 프
▁일 에
▁주 지
▁원 주
▁개 방
▁진 압
▁출 간
▁이루어 지는
▁행동 을
▁빛 을
▁헨 리
▁ 돕
▁ 텔레비
러 미
림 의
송 (
전 ·
▁수 십
▁주 기
▁공 개
▁연 평균
▁바 위
▁선 발
▁차 이를
▁회 화
▁17 2
▁준 공
▁놓 은
▁첫 번째
▁이외 에
文 )
가 인
나 ,
산 으로
술 을
였 고,
장 한
▁대 량
하였 고
하였 다는
▁공 헌
▁비 타
▁하 겠
▁모 델
▁표 면
▁민 요
▁달 아
▁확 정
▁문제 는
▁형식 으로
▁I n
▁오른 쪽
▁둘러싸 고
' 라고
a p
’ 이
▁ 득
당 과
반 을
인 가
크 의
▁자 손
▁자 원
▁인 민
▁성 벽
▁따 뜻
▁없 애
▁재 건
▁적 이
▁이루 었다.

▁가지 가
▁있어 서는
▁이루어 지고
▁198 2년
▁줄 어들
▁첫 째
▁지정 되어
▁아무 런
▁ 닦
법 >
석 과
설 은
씨 의
해 방
▁기 상
▁전 망
▁소 년
▁하는 데
▁폭 발
▁상태 를
▁분야 에서
▁써 서
생 이
안 에
청 의
▁이 성
▁비 가
▁무 용
▁5 ,
이나 ,
▁처 벌
▁방법 은
▁형식 의
▁플 라
▁규정 하고
▁밖 에도
) 나
) 나라
심 의
지 고,
토 (
트 (
호 와
▁한 쪽
▁관 료
▁연 꽃
▁교 회의
▁16 7
▁중심 의
▁석 탑
▁협 의
▁필요 하다.

사업 을
▁몰 아
▁주변 의
▁현존 하는
5 5
경 기
계 와
란 을
지 원
향 을
▁2 번째
▁나 눌
▁방 식으로
▁올 리
▁고려 의
지역 을
▁표현 한
4 7
山 )
구 에서
성 종
하 지는
▁2 만
▁다 리
▁유 도
하였 을
▁세 상을
▁해 발
▁나타 났다.

▁15 6
▁내용 이다.

▁199 3년
▁놓 여
조참 판
고 가
베 이
통 ,
▁지 시
▁중 부
▁어 긋
▁증 상
▁14 5
▁198 4년
▁196 8년
▁196 1년
▁연결 하는
▁팽 창
a y
∼ 19
권 (
복 (
어 요.

음 

정 신
학 ,
▁이 들이
)· 박
▁문 장
▁197 9년
▁198 7년
▁발견 되었다.

▁문학 의
▁기본 적인
▁배경 으로
▁적절 한
▁ 멜
국 ·
▁가 축
▁목 적을
▁집 권
▁존재 하는
지방 의
▁따르 면,
▁전라 북도
▁의견 을
▁객 관
▁ 돼
고 등
본 은
▁대 도시
▁지 출
▁주 된
▁신 용
00 만
▁산 화
▁종 로
▁16 9
학자 들은
▁갑 자기
▁에너 지를
▁ 밥
들 ,
업 체
지 어
표 는
품 이
▁사 전
▁나 이
▁도 달
▁효과 가
▁할아버 지는
▁마케 팅
▁아카 데미
▁ 빗
▁ 컨
고 자
속 에
적 이며
풍 을
▁수 백
▁다 니
▁동 작
▁발 명
▁성 행
▁없 게
▁초 래
▁권 력
▁197 4년
▁언 덕
▁베 를
▁여기 에서
▁르 네
감 독
동 국
물 ·
민 왕
사 유
지 자
칸 ,
▁매 출
▁권 두에
▁증 손
▁200 2년
▁충 실
▁석 회
▁순 수
▁문화 의
▁위치 에
교육 을
▁눈 을
▁성공 을
’ 이라는
▁ 하였으며,
금 ,
림 프
목 이
웨 덴
처 를
▁수 의
▁기 단
▁자 기의
▁개 교
▁영 남
▁해 산
▁선 전
▁학 력
▁김 정
▁길 고
▁풍 자
▁줄 어
▁전쟁 이
▁6·25 전쟁
▁ v
▁ 뾰
느 러미
드 가
미 터
이 너
지 며
진 의
층 은
했 다가
▁수 컷
▁부 과
▁미 치는
▁사용 하고
▁사용 되고
▁높 다.

▁죽 을
▁정도 이다.

▁귀 중한
▁품 질
▁반란 을
) :
3 8
a b
m 2
· 신
▁ 톱
니 즘
디 어
라 미
스 ·
율 이
체 적
치 에
▁그 렇게
▁유 학
▁되 며,
▁서 사
▁소 화
▁국 무
▁권 말에
▁본 질
▁15 5
▁완 공
▁문제 에
▁누 구
▁돌아 온
▁로마 의
▁완전 한
( 崔
▁ 곽
▁ 긍
▁ 멋
불 (
아 리
▁전 신
▁소 요
▁성 리
▁왕 조의
▁작품 이
▁항 일
▁병 합
▁아버 지의
▁제작 된
▁일으 켜
▁담당 하는
신청 서
i m
▁ 얹
▁ 캘
계 에서
단 히
라 의
사 용
시 절
투 갈
▁사 대
▁때 마다
▁소 나무
)· 조
▁당 선
▁호 남
▁처 형
▁태 평양
▁청 구
▁미국 에서
▁문화 를
▁193 6년
▁찾 는
▁전체 를
▁짓 고
▁본격 적으로
▁상세 히
' 이
국 립
분 은
암 은
전 으로
종 으로
풍 의
▁지 주
▁원 인이
▁분 비
▁후 원
▁형 제
▁6 ,
▁평 생
▁입 장을
로서 는
▁198 3년
▁향 해
▁193 0년
)』 에
▁종교 적
▁성격 이
▁듯 한
▁꾸 준
놓 고
버 트
치 ,
▁이 황
▁사 상을
▁한 다(
▁공 유
▁소 수
▁신 비
▁도 쿄
▁말 라
▁재 산을
▁[ 현황
▁최 대의
▁집 을
▁심 장
▁이루어 졌
▁밀 접한
▁D NA
▁바뀌 었다.

▁적극 적으로
i f
▁ 엮
▁전 제
▁주 재
▁다 수의
▁국 경
▁양 쪽
▁예 배
▁아니 었다.

▁용 어
▁하나 인
km ,
▁193 0년대
▁나라 에서
▁맞 이
▁아래 에
.1 2
▁정신 적
▁끊 임
· 지
나 라는
네 시아
락 이
류 인
미 (
섰 다.

역 사
제 1
▁그 릇
▁지 구의
▁것 이라는
▁한 강
▁일 단
▁보 충
▁아 테네
▁경 사
▁고 안
)· 신
▁실 업
▁결 의
▁병 과로
▁향 상
▁잡 고
▁글 이다.

교육 의
▁아직 도
▁찰 스
▁뾰 족
▁[현황 ]
▁ ◇
로 스
발 을
전 ,
해 주
현 의
▁말 로
▁두 려
주의 에
▁C h
▁갑 오
▁제임 스
까 요?

부 인
액 의
이 센
자 들에게
져 서
파 가
▁지 불
▁기 슭
▁유 아
▁구 실을
▁불 상
▁우 편
▁반 대로
▁차 이
▁임 신
▁법 인
▁밝 은
▁애 국
▁분야 의
▁흥 미
▁부동 산
( 宋
o w
▁ 띄
曰 ,
서 울
순 조
의 정
태 조
▁제 일
하였 으나,
▁신 도
▁해 에
▁별 로
▁인구 가
▁착 용
▁가리 키는
▁끌 어
▁아미 타
· 동
대 에서
루 스
안 전
언 을
절 차
제 도의
▁기 (
▁2 가지
▁다 듬
▁비 유
▁구 역
▁4 편,
▁17 4
cm 이다.

▁형태 가
▁시간 을
▁가까 이
( M
건 설
놀 이
비 와
화 하는
▁지 위를
▁전 라도
▁고 등학교
)· 유
▁영 혼
▁분 자
▁4 )
▁독 창
▁삼국 시대
▁저서 로는
갈 명
누 스
보 물
심 (
학 이
)· 장
▁생 식
▁형 상
▁예 이다.

▁이용 하는
▁올 린
▁곳 이다.

▁중요 하다.

▁염 색
▁30 일
▁러시아 의
▁풀 려
▁올라 가
▁이외 에도
1 ).

3 4
가 격
각 이
개 로
기 구
나 의
니 의
우 고
인 들에게
▁있 다가
▁부 설
▁비 하여
▁하 지만,
▁영 조
▁4 8
▁많 았다.

▁추 상
▁15 세기
▁백 제의
▁석 가
▁지속 적으로
▁성균 관
· 우
’ 으로
▁ 몬
공 의
수 준
음 에
작 가
중 에는
▁기 독교
▁중 등
▁바 닷
▁무 시
▁예 산
▁초 등학교
주의 와
▁운 송
▁청 소년
▁생산 된다.

▁가능 하다.

▁이야 기는
▁지정 되었다.

리스 토
▁고구려 의
▁가리 킨다.

▁억 제
' 은
9 0
나 가
르 가
보 증
정 부의
족 과
추 는
트 리
▁관 여
▁나 왔다.

▁세 속
▁저 자의
▁지방 에
▁196 7년
▁맞 아
▁깨 달
▁주식 회사
▁독자 적인
광역 시
' 에
▁ X
▁ 싫
▁ 쥐
〉 가
교 는
법 」
▁대 회
▁동 경
▁서 남
▁개 입
▁성 과를
▁남 성
▁토 대로
▁체 육
▁서울 대학교
▁192 4년
▁설립 된
▁아래 로
▁오늘날 의
▁타원 형
i v
· 도
▁ 셀
국 사
또 는
랑 (
바 르
숙 한
제 국
찬 (
트 워
▁자 라는
▁주 름
▁다 수
▁모 순
▁없 고,
▁왕 은
▁왕 위에
▁192 5년
▁빠 르게
▁상대 적으로
▁바꾸 어
▁청동 기
생 은
스 러
유 사
초 의
▁수 확
▁보 기
▁나 뉜
▁의 회
▁소 실
▁예 측
▁입 증
▁16 1
▁200 3년
▁손 을
지역 에서
▁나온 다.

▁일어 났
▁벼슬 을
▁3· 1
7 6
’ 가
▁ g
▁ 셈
▁ 하였고,
금 강
루 (
모 의
업 무를
전 망
족 (
현 대
▁1 세
▁수 업
▁지 질
▁기 름
▁것이 고,
▁사용 된
▁점 은
▁192 1년
▁암 컷
▁상황 에
▁파악 할
▁유전 자
· 하
’ 라고
▁ 험
되 거나
려 서
마 의
부 사
었 으나
재 가
재 는
친 다.

▁대 의
▁지 진
▁기 법
▁한 다
▁한 번
▁정 통
▁주 요한
▁동 료
▁상 주
▁만 약
▁특 수한
▁것이 다.
▁법 정
▁태 도를
▁15 4
▁병 원
▁인간 이
▁육 군
리포 니아
▁ Y
▁ 센
수 산
인 민
한 (
▁대 조
▁부 활
▁고 종
▁당 대의
▁우리 는
▁영향 력을
▁줄 기
▁만들 기
▁자료 이다.

▁사건 을
▁느낌 을
▁제외하고 는
▁비타 민
4 1
능 력
씨 가
인 사
▁대 원
▁일 명
▁없 다고
▁많 고
▁출 연
▁증 상이
▁호 소
▁있어 ,
▁197 1년
▁맞 추어
▁급 여
▁희 망
▁게 임
관계 에
▁발표 했다.

▁땅 에
▁출신 의
▁필사 본.
% 의
( S
▁ 떼
공 립
말 을
불 을
서 원(
자 동
품 으로
호 )·
▁수 신
▁지 명
▁등 )
▁보 증
하였 으며
▁부 서
▁구 부
▁거 행
▁예 외
▁196 6년
▁르네 상
· 조
고 속도로
금 속
는 지
류 로
머 스
실 (
정 리
주 ,
주 름
투 스
형 은
▁보 완
▁고 무
▁작 고
▁무 릎
▁강 이
▁특 이한
(1 ,
▁18 일
주의 는
▁196 9년
▁도시 는
▁힘 이
▁작업 을
i p
▁ 쏟
〉 이
난 다.

본 을
분 석
싱 턴
점 에
▁사 후
▁인 상
▁되 기
▁양 의
▁왕 조
▁심 각한
▁194 0년
▁의미 가
▁푸 른
▁셋 째,
' 으로
’ 과
▁ 펜
겠 다고
노 래
바 다
신 고
영 을
이 션
프 의
▁사 직
▁정 식
▁인 도의
▁비 정
▁증 권
▁197 8년
▁194 3년
▁195 8년
▁얻 기
▁얻 는
▁포함 된다.

)’ ,
▁먹 고
▁전통 을
▁지나 지
▁기재 하도록
▁북한 의
▁어렵 다.

· 무
▁ 넷
▁ 훼
로 도
사 나
시 열
제 2
졌 던
테 르
판 (
▁그 렸다.

▁자 를
▁일 환
▁상 상
▁5 ,000
▁대부분 을
▁방법 이
▁암 살
▁주장 하였다.

▁궁 중
▁양식 의
▁조선시대 에는
▁피아 노
u c
▁ 됩니다.

농 민
병 (
섬 유
우 스는
족 을
풍 이
프 가
호 )
▁주 력
▁위 대한
▁고 유
▁서 원
▁오 직
▁거 절
▁스 웨덴
▁삼 았다.

▁높 고
▁중국 에서
▁192 2년
▁쓴 다.

▁엄 청
9 9
▁ 솜
광 (
기 둥
당 ,
덕 (
명 세
베 리아
실 의
인 들을
청 구
평 을
▁한 성부
▁정 지
하기 를
▁알 게
▁호 르몬
▁197 6년
▁부분 에
▁폭 넓
▁골 짜
▁반응 을
▁출신 .
▁얼마 나
· 구
▁ 힌
과 가
명 종
슈 타
우 가
▁이 의
▁보 였다.

하기 에
▁물 려
▁7 일
▁집 에
▁15 7
▁하나 가
▁195 1년
▁이어 지는
▁전체 의
▁지금 도
▁조선시대 에
▁기반 을
▁프로그램 을
▁모스크 바
m 이다.

▁ 곱
▁ 얕
功 臣
든 지
부 에는
색 이며
율 은
▁사 료
▁대 두
▁조 상
▁공 주
▁원 하는
▁3 00
▁강 하게
주의 자
▁토 기
▁올 랐
▁승 리
▁196 4년
▁192 6년
▁뜻 으로
▁축 소
▁모양 이
▁아버 지가
▁상태 로
▁경향 을
▁단순 히
▁뚜렷 한
▁포르 투갈
大 夫
되 던
론 적
마 (
실 이
▁이 민
▁1 인
▁대 가
▁도 서
▁무 리
▁노 벨
▁되었 는데,
▁13 6
▁갈 래
▁사실 은
▁자유 롭게
▁관계 에
관계 가
▁사랑 을
▁타법개정 

r an
· 경
· 군
니 스
론 과
마 저
상 황
신 에
조 차
편 으로
▁그 들
▁일 컫
▁유 용
▁선 포
▁산 악
▁차 량
▁간 접
▁회 사의
▁난 다.

▁제공 하는
▁기원 전
3 1
4 2
5 7
· 시
· 영
▁ 굿
▁ 댐
중 학교
▁대 변
▁2 세
▁인 류
▁의 원
▁비 스
▁오 스
▁불 렀
▁양 이
▁받 침
▁진 화
▁함 락
▁사용 했다.

▁규 범
▁198 6년
▁되었 으며
▁서울 의
▁192 3년
▁193 8년
▁투 쟁
▁방법 에
▁다양 하다.

▁노동 조합
▁잎 이
▁확인 할
▁싸 움
▁탐 험
▁태어 났다.

▁ 앤
림 이
베 르크
청 을
프 라
협 의
▁이 산화
▁전 래
▁없 으며,
▁6 개
▁우리 가
▁17 1
▁193 5년
▁밖 의
▁근처 에
’ 에
바 이
세 조
예 를
용 의
지 리
지 며,
천 군
트 와
하 가
▁이 승
▁어 울
▁마 디
▁4 개의
▁말 에
▁양 도
▁행 복
▁15 3
▁항 복
▁195 4년
▁193 7년
▁201 3
▁201 3년
▁의미 의
▁폐 쇄
▁포함 하는
▁먹 는
▁버 리고
▁넓 게
계약 서,
▁출토 된
▁충청 남도
▁지점 에
) 하여
▁ 덜
▁ 햇
목 에
사 소송
제 도가
지 구
▁이 스
▁보 인
▁위 임
▁상 소
▁남 은
▁간 에
▁죽 음을
▁채 색
▁중심 이
▁195 3년
▁견 해를
▁기재 해야
▁퍼 져
▁낭 만
▁단백 질
3 )
」 는
릉 (
방 은
보 건
부 사(
색 ·
암 의
전 에서
▁이 하의
▁시 기는
▁주 (
▁보 안
▁조 립
▁고 통
▁공 격을
▁서 기
▁교 차
▁방 해
▁실 린
되었 다는
▁평 면
▁나타 낸
▁음 성
▁연구 가
▁존 속
▁칼 리
▁개념 을
▁탁 월
▁새겨 져
▁나뉜 다.

' 가
5 6
o v
미 가
염 ,
우 를
지 나
▁지 원을
▁모 음
▁세 금
▁내 역을
▁않 으며,
▁남 편
▁안 의
▁농 산
▁20 일
▁200 1년
▁면 의
▁195 2년
▁193 2년
문화 의
▁190 7년
▁효율 적으로
▁당사 자
( 이
? ”
] 

· ‘
· 의
계 산
곡 의
년 을
드 와
레 오
본 이
있 다.

전 에는
중 심
차 (
토 의
해 지고
▁사 헌
▁대 로
▁자 체가
▁모 시
)· 전
▁특 이
▁건 의
▁운 행
세기 의
)」 ,
▁승 인
▁서울 시
▁195 9년
▁195 7년
이었 으나
▁계속 해서
▁해당 한다.

▁묘사 한
▁술 을
사학 위를
▁미루 어
7 1
궁 (
단 ,
바 라
사 랑
▁수 사
▁일 자
▁성 명,
▁무 신
▁예 로부터
▁간 단한
▁법 을
▁때문 이었다.

▁입 은
▁세계 를
시키 고,
▁192 7년
▁설치 된
▁뜻 하는
▁붙 인
▁맛 이
▁캘 리포니아
) 하는
) 까지
· 마
▁ 곁
두 (
우 스의
점 의
헝 가
형 문화재
▁대 웅
▁의 학
▁세 련
▁해 군
▁선 임
▁진 동
▁돌 로
▁연구 하는
▁중요 도
▁경험 을
) 〉
5 4
e a
k g
· 미
· 15
▁ 빅
다 ”
에 너
제 조
▁서 명
▁영 원
▁불 린다.

▁분 할
하면서 ,
▁맞 는
▁은 퇴
▁기능 이
연구 소
▁옥 개
▁조선시대 의
▁권한 을
5 2
고 에
그 룹
때 로
신 과
자 금
▁이 별
▁수 여
▁전 화
▁비 잔
▁소 집
▁신 속
▁신 흥
▁선 조
▁사람 으로
▁감 사
▁제1 회
▁곳 은
▁이르 고
▁이곳 을
▁구분 된다.

▁상황 에서
▁기재 한
▁영토 를
o u
들 인
르 타
림 을
작 은
▁중 소
▁비 상
▁산 성
▁따라 서,
▁명 나라
▁뒤 로
▁승 리를
▁사실 이
▁암 석
▁191 1년
▁색 채
▁여기 에는
다.” 고
▁균 형
▁샤 를
6 2
h t
고 한
려 가
문 제를
민 속
바 지
일 으
책 임
치 와
타 이
학 회
▁사 임
▁지 식을
▁가 스
▁가 죽
▁등 지에서
▁전 하는
▁자 살
▁중 수
▁고 급
▁여 성의
▁분 배
▁추 방
▁12 0
▁들 여
▁생각 했다.

▁힘 썼
▁제품 을
▁첨 가
▁거두 었다.

간 은
대 원
리 어
생 (
시 스템
이 던
지 털
트 륨
▁그 렸
▁조 화
▁상 류
▁하 거나
▁문 을
▁4 2
▁들어 갔다.

▁위치 하고
▁라 디오
es s
▁네 트워
▁190 6년
▁과거 에
▁외국 인
▁마음 이
▁아름 답
3 2
g e
▁ Q
將 軍
리 이다.

애 를
편 (
품 은
행 위
▁수 호
▁대 출
▁신 선
▁국 보
▁무 게
▁없 으나
▁말 이다.

▁결 코
▁받 는다.

▁8 ,
es t
▁보여 주
▁190 5년
▁경상 도
▁탈 출
▁이탈리아 의
▁옹 호
▁셋 째
▁하겠 다.

· 비
’ 와
先 生
국 에서
란 의
란 히
책 으로
환 (
▁사 령
▁수 익
▁가 수
▁주 둔
▁되 는데,
▁작 동
▁선 사
▁계 몽
▁명 명
▁사람 들과
▁화 엄
▁데 이터
▁항 해
▁기록 을
▁판 결
▁베 풀
▁192 9년
▁설치 되었다.

▁했 고,
기관 의
▁코 르
▁나타나 고
▁모습 이
▁윤 리
▁종류 가
▁아들 로
▁첨 부
▁26 일
▁불러 일으
% 가
8 8
널 무덤
발 (
성 한
장 관
책 은
치 료
▁것 의
▁기 도
▁제 사
▁주 석
▁의 식을
▁때 때로
▁상 담
▁개 체
▁장 편
▁후 기의
▁물 은
▁왕 위
▁나타 내고
▁황 해도
▁192 8년
▁논 쟁
▁193 3년
▁역임 했다.

생산 시기
▁이외 의
(199 0
▁권1 에
▁ 깎
寺 )
국 어
설 이
파 와
▁지 상
▁시 청
▁자 루
▁일 했다.

▁고 양
▁비 옥
이라 도
▁역 대
▁역 사가
되었 는데
▁프 레
▁일본 인
▁면 에서
▁절 반
▁195 6년
▁193 1년
▁나라 에
으므로 ,
▁명칭 은
▁명칭 을
▁ 틈
경 과
다 시
민 (
으 니,
한 의
협 력
▁기 와
▁시 골
▁주 체
▁아 랫
▁고 위
▁고 인
▁생 겼
▁교 향
▁단 독
▁감 옥
▁목 숨
▁달 하는
▁일본 은
▁17 일
▁13 0
▁갈 수록
▁발전 했다.

▁맞 게
▁전체 가
▁쌓 은
▁이론 을
▁과거 의
▁빨 리
▁국립중앙 도서관
( P
▁ 얽
〉 와
경 으로
다 니
버 섯
번 지
유 적
지 정
▁사 법
▁지 혜
▁기 하
▁되 돌
▁동 굴
▁무 관
▁후 계
▁말 미
▁단 행
▁6 5
▁6 년
▁감 상
▁청 나라
▁살 았다.

▁15 1
▁황 금
▁된 다는
cm 의
▁온 도
▁생각 을
▁송 시열
▁차지 한다.

▁밑 에서
▁측면 에서
▁기념 물
▁오스트 레일리아
▁관심 이
」 은
간 지
어 버
으 려
크 라
편 에
▁대 학교
▁전 념
)· 서
▁개 통
▁마 리아
▁평 등
▁권 4
▁본 다.

▁김 일
▁들어 온
▁사이 에는
▁193 9년
▁다양 하게
▁폐 기
▁인구 의
▁막 아
▁몸 에
▁제품 의
▁움직 이는
▁관직 을
▁여겨 진다.

▁싫 어
' s
8 1
▁ 밴
기 획
돌 이
르 기
트 남
▁수 소
▁제 갈
▁2 ,000
▁동 반
▁비 평
)· 대
▁내 린
▁교 명을
▁노 력을
▁함 유
▁그러 자
주의 가
▁식 용
▁자신 들의
▁지방 에서
▁지방 자치
▁곳 을
▁이르 렀
▁대표 적
▁뜻 한다.

▁평가 를
▁차례 로
▁23 일
▁바이 러
▁베를 린
▁ 벤
각 은
소 유
여 서
영 의
해 로
▁가 깝
▁연 출
▁성 질
▁미 사
▁4 9
▁예 로
▁안 채
▁표 면에
▁음 식을
▁구성 하는
▁항 구
▁혼 자
▁맺 고
▁즐 겨
▁서(序 )
3 ,
검 사
락 의
로 마
업 에
치 기
화 하고
▁그 만
▁고 쳐
▁동 물의
▁교 류
▁거 친
▁선 구
▁함 으로써
▁왕 을
▁적 지
▁8 일
▁새 끼
▁크 기
▁창 의
▁중국 에
기관 으로
▁버 섯
▁직접 적인
▁놀 이
▁ 딱
마 크
무 는
석 ,
조 ),
주 택
출 판
키 아
훈 장
▁가 속
▁때 도
▁모 집
▁선 비
▁진 술
▁학 자
▁규 격
▁세계 에서
▁196 5년
대학 으로
▁맡 은
한다 면
▁기초 를
▁일찍 부터
) 이라고도
7 2
] 을
· 성
· 양
· 화
▁ 잊
로 와
리 즘
면 적
안 이
작 으로
지 에는
▁기 다
▁마 루
▁말 해
▁당 대
▁진 정한
▁뒤 의
▁간 략
▁17 3
▁책 봉
▁생산 하는
en s
▁꾸준 히
1 ]
4 ,
8 9
▁ 컬
광 해군
사 령
서 비스
씨 는
일 은
▁유 발
▁조 항
▁인 조
▁하 사
▁문 자
▁장 수
▁현 장
▁산 림
되었 음을
▁왕 에게
▁담 배
cm 로
▁13 8
▁얻 게
▁찾 을
▁궁 정
▁운영 하고
학자 인
▁물질 의
▁5년 간
▁『삼국 지
공 항
과 도
범 한
서 양
액 이
역 에서
였 으나
질 환
편 찬
▁기 체
▁시 카
▁중 기
▁중 학교
▁중 에서도
▁나 왔
▁여 부를
▁실 록
▁종 의
▁종 래의
▁화 성
▁삼 고
▁순 수한
▁놀 라
▁엄격 한
▁화강 암
▁긍 정
▁ 썰
』 을
념 을
도 감
라 (
력 ,
식 ,
실 은
종 과
중 종
취 를
▁기 구
▁정 규
▁중 건
▁상 품의
▁신 축
▁불 법
▁5 5
▁재 임
▁간 섭
▁과 도
▁지역 에서는
▁피 고
▁있어 요.

▁있었 다고
▁국가 가
▁일으 키는
▁덮 여
▁ 며
담 (
률 이
모 (
선 수
실 한
약 한
판 은
학 적인
▁사 립
▁지 칭
▁등 용
▁일 하는
▁되 찾
)· 성
▁내 어
▁어 휘
▁오 리
▁경우 를
▁호 수
▁15 2
▁194 1년
▁193 4년
▁독립 된
al l
▁추측 된다.

· 연
▁ 폰
교 ,
빛 이
작 을
쪽 은
함 .
▁대 나무
▁가 진다.

▁아 파
▁원 료
▁용 이
▁영향 으로
▁다음 ,
▁195 0년대
▁날 카
▁자유 를
▁돌아 왔다.

▁모습 으로
▁몰 두
▁압 록
▁받았 으며,
▁티 베
▁워 싱턴
▁뽑 아
b er
경 ,
량 과
목 의
미 는
받 았
우 수
철 도
통 상
함 

▁제 사를
▁관 청
▁의 거
▁의 심
▁동 방
▁서 민
▁신 화
▁법 적
▁아니 면
▁정도 가
▁카 이사
▁190 8년
▁희 생
▁D e
생활 에
사항 을
▁물질 을
▁계약 을
▁조건 을
▁다루 고
▁증손 으로,
▁비잔 틴
▁네트워 크
4 )
▁ 낸
길 을
변 의
전 자
초 를
행 이
▁수 평
▁주 위
▁보 상
▁문 집
▁매 달
▁매 입
▁증 대
▁달 걀
▁14 4
▁손 가락
▁자연 의
지역 으로
운동 이
대학교 의
▁작성 한
▁잎 자루
▁유지 하고
▁사건 이
▁물질 이
▁낙 동
▁전투 에서
▁아우 구
▁베네 치아
" 

▁ 꺼
▁ 싱
공 이
령 에
승 을
아 프리카
음 과
▁사 로
▁해 마다
▁장 려
▁선 고
▁우 수한
▁매 일
▁포 위
▁201 1년
▁극 히
이었 으며,
▁C .
▁분야 에
▁25 일
it y
▁명칭 이
▁효과 적으로
▁작곡 가
과정 에서
기념 물
▁조리 방법
▁끊임 없이
강 이
그 림
들 로부터
조 좌
현 악
▁이 밖에
▁개 시
▁개 항
▁문 예
▁방 식을
▁불 어
▁것이 므로
▁추 증
▁스 테
▁목 록
▁부분 적으로
▁독립 을
▁밝 히고
▁전통 적
▁오늘 에
▁노래 를
▁바탕 을
▁해결 하기
) 라고도
n e
· 경제
’ 이라고
▁ 낱
大 學
나 와
사 전
설 명
▁이 바지
▁사 태
▁대 답
▁가 졌다.

▁전 (
▁3 ,000
▁여 섯
▁어 두
▁마 찰
▁4 1
▁5 .
▁태 조
▁돌 출
▁담 은
▁문화 적
▁알려 졌다.

▁눈 이
▁디 지털
at e
조판 서
ation al
▁건너 가
▁텔레비 전
( s
] 를
o ur
다 면,
모 는
반 의
분 ,
시 킴
음 으로
이 다

전 한
제 도는
진 이
▁시 와
▁정 한
▁조 카
▁부 착
▁의 지
▁의 무를
▁개 관
▁국 한
▁장 치
▁단 위로
▁열 어
▁허 락
▁일부 개정
▁리 얼
▁노동 자
ar d
▁야 생
문학 의
▁몰 락
▁전국 적으로
▁반대 하는
' 이라고
간 으로
공 은
그 리스
령 의
마 가
미 의
부 대
수 수·
순 (
습 니다.
시 오
었 는데
이 거나
풀 이
해 왔다.

▁등 급
▁일 원
▁발 족
▁신 뢰
▁실 내
▁예 컨
▁채 취
▁13 5
▁온 도가
▁투 르크
지역 은
▁별 도로
▁몸 의
▁머 리를
▁중요 성을
▁체계 적인
▁마지막 으로
▁거느 리고
▁일환 으로
· 남
· 석
▁ 캠
使 )로
분 과
수 리
우 의
웨 이
현 이
▁대 략
▁19 일
▁주 제로
▁아 가
▁비 례
▁구 제
▁미 군
▁말 할
▁두 꺼
▁역 설
▁6 6
▁임 무를
▁감 리
▁7 ,
▁환 원
an t
▁의미 하는
▁설치 하여
▁국내 외
▁일으 켰다.

▁간행 된
▁바꾸 었다.

▁ᆞ 생산시기
· 기
▁ 칙
두 고
밖 에도
새 로운
업 과
체 ,
항 공
▁인 기
▁모 임
▁신 장
▁건 물의
▁목 적은
▁복 지
▁총 리
▁기록 하고
▁포함 하여
▁특징 이
▁먹 는다.

한다 (
▁혁 신
▁급제 하여
il l
▁28 일
▁보유 하고
▁덧 붙
8 7
· 백
▁ 뮤
기 보다는
변 에
자 호
통 (
▁수 반
▁아 동
▁설 탕
▁초 에
▁북 쪽에
▁8 ·15
▁죽 고
▁모두 가
▁존 중
▁의미 에서
▁맞 서
이었 고,
▁날 개
▁범 위
▁어려 서
대회 에서
▁빌 려
▁21 일
un d
▁가장자 리에
] -
금 (
리 에는
바 른
직 에
토 를
허 가
호 -
▁지 각
▁지 중
▁전 세
▁주 문
▁인 종
▁발 효
)· 상
▁도 는
▁해 수
▁무 사
▁무 장
(1 7
▁초 과
▁이루 며
▁치 열
▁14 9
▁활동 했다.

▁갈 색
▁이어 져
▁축 적
▁조직 을
▁꽃 잎
~1 5
▁주장 한
▁발달 한
▁루 터
▁다르 게
▁타법개정 ]에
▁읊 은
▁힌 두
% 로
▁ +
공 원
공 신(
기 지
대 회를
판 에
해 에
화 되고
▁내 리
▁내 부의
▁장 점이
▁거 치
▁4 일
▁후 기에
▁현 상이
▁명 에
▁군 주
▁광 물
▁삼 성
▁복 구
▁당시 에
▁뜻 이
▁섬 의
▁밝 혔다.

▁연결 된다.

▁190 9년
▁지정 된
▁열매 는
▁한반 도
▁냄 새
공 급
적 에
천 을
프 링
▁그 들을
▁수 양
▁관 개
▁성 인
▁불 을
▁계 기가
▁6 )
▁화 학적
▁추 모
▁입 장에서
▁금 동
▁크 기의
▁피 렌
▁사회 를
▁이용 할
▁뜻 의
▁191 2년
▁육 성
▁결정 하는
▁상태 에서
▁L a
▁H .
▁척 추
▁분명 히
▁앉 아
▁언제 나
· 사회
▁ e
▁ 윈
경 국
공 예
기 인
렬 왕
미 아
방 과
변 (
병 이
부 문
살 이
습 니
증 (
집 』
학 습
▁인 물의
▁고 리
▁하 더라도
▁연 락
▁행 하는
▁왕 위를
▁학 문을
▁집 에서
▁9 일
▁천 황
▁못 하게
부분 은
▁올 렸다.

▁봉 사
▁192 0년대
▁191 7년
▁막 기
▁법령 정보
무늬 가
▁기반 으로
▁광범위 한
변 을
사 리
성 도
아 이
았 는데,
재 료
플 레이
행 의
현 을
▁가 구
▁제 후
▁위 반
▁모 서
▁연 화
▁국 악
▁마 르크
▁5 00
▁5 편,
▁〈 신
▁변 동
▁배 를
▁감 정
▁8 )
▁20 여
▁완 벽
▁갖 는다.

▁대표 하는
▁프로 이센
▁요구 하는
▁원래 의
▁휴 대
▁현실 을
▁둘러 싼
▁니 콜
▁도덕 적
공 장
구 멍
군 ,
근 (
내 어
동 에서
드 라
드 르
배 가
보 의
시 스
악 (
욕 을
천 과
▁대 처
▁가 사
▁2 일
▁위 에는
▁관 세
▁조 달
▁연 료
▁신 하
▁초 월
▁삼 림
▁즉 시
▁풍 습
하면 ,
▁글 로
▁뜻 이다.

▁막 대한
▁먹 을
▁이곳 의
▁공동 으로
▁주변 에
▁22 일
▁르네상 스
▁엄청 난
▁ 쾌
〉 과
드 (
리 노
의 와
준 (
▁가 벼
▁전 면
▁자 랑
▁일 컬
▁중 서
▁부 각
▁공 항
▁상 을
▁소 매
▁연 중
▁성 질을
▁분 쟁
▁산 소
▁물 의
▁파 라
▁최 소
▁9 9
▁창 출
▁쓰 인
▁교육 의
▁나라 에서는
▁암 술
▁네 모
▁염 불
▁지나 치게
▁세워 졌다.

▁탈 퇴
] 에서
▁ 곰
미 한
방 으로
상 품
재 ,
중 을
증 은
지 적
트 ,
트 에
틀 러
판 이
▁사 원
▁시 공
▁보 내는
▁3 만
▁반 발
▁음 운
▁가지 게
▁14 2
▁14 3
▁미국 과
▁질 서
▁주장 하는
▁음악 을
▁트 로
▁겨 우
▁상징 하는
▁바람 에
▁관광 객
▁서서 히
u d
· 청
▁ 걷
▁ 펠
력 (
무 리
밀 하게
으 리
타 령
판 매
현 으로
▁지 었다.

▁가 문의
▁전 도
▁전 에는
▁시 적
▁자 아
▁고 을
▁구 리
▁문 양
▁미 륵
▁단 어
▁6 4
▁화 장
▁심 사
▁14 8
▁처음 에
▁했 지만
▁A .
▁붙 잡
▁발표 한
▁편집 ,
▁콘 스탄
▁소련 의
▁편입 되었다.

▁부처 의
s s
u re
▁ 닮
▁ 헝가
》 에
교 와
놓 았다.

도 르
들 에서
라 엘
색 과
씨 를
왕 을
좌 (
체 제를
층 에
층 으로
▁이 리
▁이 밖에도
▁그 결과
▁가 열
▁조 화를
▁하 던
▁하 기도
▁성 숙
▁남 쪽에
▁강 요
▁재 고
▁진 흥
▁속 담
▁직 무
▁천 문학
▁규 제
▁충 주
▁되었 으나
▁된 다고
▁194 2년
▁손 으로
▁힘 입
▁실제 로는
▁목표 를
▁짙 은
) -
5 00
▁ 옳
▁ 튼
가 에서
강 과
계 열
기 나
는 가
능 한
랑 을
안 은
오 고
일 지
지 급
책 이
층 을
크 로
판 의
화 하여
회 로
▁사 신
▁정 하는
▁위 패를
▁부 조
▁신 석기
▁말 레이
▁현 저
▁산 수
▁예 언
▁일본 으로
▁식 년
▁쓰 여
▁14 7
▁순 회
▁활동 이
▁설치 한
계획 을
▁깨 닫
▁활발 한
▁적극 적인
▁슬 픔
▁목판 본.
' 과
( 文
. )」
> 의
▁ 싣
▁ 림프
나 게
드 ,
롭 고
말 의
의 료
종 합
지 기도
한 을
▁고 문
▁동 명은
▁서 문이
▁서 문과
▁구 속
▁원 효
▁여 의
▁해 설
▁장 비를
▁않 지만
▁남 긴
cm .
▁비롯 된
나무 는
▁발생 한다.

▁탄 소
▁정신 을
▁주목 할
oc i
▁엿 볼
▁가난 한
▁ 늙
▁ 첩
▁ 턱
광 을
내 기
목 ,
용 ,
▁대 대
▁중 화
▁나 라는
▁6 개월
▁추 서
▁10 개
▁16 일
부분 에
▁취 하고
▁다음 에
▁형성 되어
▁영국 과
▁키 가
▁탐 구
▁목표 로
▁충청 북도
▁죄 를
▁다만 ,
주식 회사
▁적합 한
m 로
· 3
▁ 눌
등 한
받 을
어 링
유 가
절 도
조 각
▁1 .5
▁사 천
▁지 지를
▁가 려
▁정 립
▁보 니
▁아 들을
▁말 의
▁행 장
▁적 어도
▁편 평
▁작품 들은
부분 이
▁연구 는
▁이상 으로
▁급 진
▁묘 지
▁인물 로
▁레 오
▁지도 자
다.” 라고
▁춘 추
▁아마 도
▁급격 히
▁급속 히
m 에
결 정
그 네
금 이
나 이
력 발전
반 (
번 지에
선 언
설 에
심 은
업 ,
환 을
▁대 화
▁19 00년
▁일 관
▁나 란히
▁원 통
▁원 활
▁세 력이
▁해 상
▁약 탈
▁작품 에
▁식 량
▁14 1
▁현재 까지
▁베 트남
▁A n
▁기본 적으로
▁189 5년
▁지배 를
▁L e
경국 대전
( B
▁ 갓
』 은
구 조를
로 에
리 히
무 지
박 물
수 수
약 품
인 물
▁그 동안
▁수 축
▁일 이다.

▁아 침
▁경 과
▁고 속도로
▁공 사를
▁문 법
▁문 하
▁도 전
▁계 통
▁6 일
▁뒤 에도
▁스 케
▁편 지
▁새 긴
▁태 백
▁피 라미
(19 0
▁국가 를
▁정부 에
▁관계 없이
▁거쳐 ,
▁마을 의
▁원래 는
▁새겨 진
▁문화재 자료
▁핀 다.

리자 베
- 1
▁ 닭
▁ 닿
▁ 으
▁ 짝
가 공
고 객
되 므로
든 다.

분 으로
세 력
수 요
음 에도
제 ·
지 느러미
▁가 질
▁정 서
▁되 며
▁소 형
)· 최
▁불 렸다.

▁물 품을
되었 지만
▁건 물은
▁입 장
▁입 지
▁피 난
▁아니 고
▁당시 에는
▁투 입
▁극 단
▁중앙 의
▁리 듬
계약 서
▁24 일
▁균 형을
▁옆 으로
▁융 합
▁숭 배
고려 사
7 4
· 예
▁ /
▁ 뱀
』 는
결 합
공 신
관 련
글 로
률 을
마 는
망 이
방 식
산 리
업 의
졌 고
페 이
▁이 같은
▁1 인,
▁수 습
▁수 원
▁가 락
▁한 성
▁한 양
▁자 의
▁인 접
▁공 으로
▁되 기도
▁동 래
▁성 [
▁교 정
▁통 화
▁장 소
▁안 에는
되었 다.
▁속 한
▁농 산물
▁가지 로
▁중심 지로
▁걸 어
▁만들어 졌다.

위원 회의
ar t
▁운동 의
▁느 껴
▁이해 하는
▁어려 움을
▁등장 하는
▁기초 로
▁착 공
▁근대 적
▁부르 고
▁출토 되었다.

▁옷 을
▁그려 져
▁일어 날
▁일어난 다.

▁쉬 운
공산 당
▁선교 사
▁일자리 전망
(1990 ).

e )
~ 0
고 로
단 계
레 타
리 스트
용 ·
우 며
재 정
절 의
지 배
쪽 에는
투 쟁
티 오
▁것 임을
▁것 인데,
▁전 부
▁주 제를
▁주 위에
▁고 유의
▁상 설
▁3 월에
▁개 국
▁교 사
▁장 례
▁특 유의
▁설 화
▁들어 간
▁손 에
▁대해 서도
▁나라 가
▁업 체
▁도시 를
▁발견 된다.

▁전체 에
▁구조 는
▁더욱 이
▁개혁 을
▁신청 서
▁국토 교통
e 〉(19
▁ 꺾
가 요

거 (
거 리는
동 아
된 다는
등 에
등 이
수 지
수 행
숙 (
암 이
었 다가
왕 후
포 르
헌 (
▁그 다
▁그 루
▁대 청
▁가 시
▁시 로
▁시 대를
▁인 명
▁동 쪽에
▁서 쪽에
▁구 사
▁발 급
▁여 진
▁영 구
▁해 주
▁현 금
▁산 란
▁사람 이다.

▁적 도
▁군 대
▁태 극
▁9 )
▁들어 갔
▁석 방
▁정치 를
▁논 문
▁설치 하고
▁맞 추
▁했 는데,
▁협 조
▁돌아 오
▁라 이
▁189 6년
▁보호 하기
▁숙 종
▁찬 양
▁흰 색
▁섞 어
전문 학교
▁붙여 진
▁실질 적인
▁(1 )
) 하고
▁ 텍
州 )
마 르
분 (
요 (
인 들과
차 는
▁전 의
▁전 국의
▁한 문
▁자 전
▁고 고
▁공 무
▁비 늘
▁비 단
▁세 인트
▁내 가
▁성 취
▁어 음
▁어 찌
▁마 리
▁장 방
▁거 란
▁우 아
▁파 직
▁돌 을
▁담 겨
▁영국 에서
▁그것 이다.

▁이전 에는
▁상태 에
▁189 4년
▁기준 은
▁납 부
▁소재 로
▁정교 한
· 호
· 문화
▁ 됨
▁ 샌
▁ 컸
事 )
감 ,
교 로
벌 레
손 은
역 은
점 과
집 단
향 (
▁사 제
▁수 를
▁지 대
▁아 리스토
▁인 격
▁부 상
▁부 피
▁발 라
▁마 시
▁4 7
▁그리 스의
▁7 개
▁집 필
▁9 ,
▁중국 과
▁잡 혀
▁남아 메리카
▁30 여
▁양식 은
▁수록 된
% 에
▁ 샘
▁ 탱
공 민왕
규 정
드 리아
모 와
벌 을
병 의
성 기
에 르
열 을
유 지
자 형
자 본.
절 로
졌 으며
주 인
하 자는
해 진다.

▁수 천
▁시 에서
▁정 권을
▁자 율
▁주 조
▁주 장을
▁관 점에서
▁조 세
▁내 렸다.

▁교 외
▁통 계
▁반 사
▁권 5
▁요 약
▁요 소를
▁사회 복지
▁백 두
▁충 당
▁기록 은
▁앞 의
▁중요 성
▁궁 극
하거나 ,
▁일으 킨
▁대통령 의
사항 ,
▁공동 체
▁등장 한
▁치료 를
▁명시 한
▁맑 은
▁목숨 을
8 6
9 5
▁ 떡
人 )
관 에서
국 ,
나 마
률 은
벽 에
산 성
스 에서
였 는데,
영 이
재 산
체 계를
초 등학교
터 가
트 럼
포 의
▁정 원
▁위 성
▁하 자
▁내 리는
▁성 은
▁없 으며
▁차 츰
▁간 격
▁입 법
▁일본 에서
▁병 자호
▁있었 으나,
▁사이 를
▁서울 에서
▁잡 지
▁표현 하는
▁191 8년
▁응 시
▁전해 진다.

▁체계 적으로
▁물론 ,
▁둘러싸 여
▁있으므로 ,
' 와
8 5
▁ 닫
▁ 델
▁ 캄
근 로
도 서
명 이다.

신 경
운 이
제 작
해 온
▁기 간에
▁관 음
▁나 중에는
▁하 다가
▁따 르는
▁예 비
▁차 가
▁간 결
▁7 )
▁데 는
▁식 물의
▁정도 를
▁완 료
▁취 업
▁발생 할
)’ 의
▁국제 연합
▁궁 궐
▁기업 이
▁풀 어
▁움직 임
▁시행규칙 -
▁섭 취
▁추서 되었다.

u b
▁ 링
경 상
내 에서
되 게
매 의
시 문과에
차 의
창 한
▁이 자
▁이 혼
▁정 해진
▁일 종
▁아 는
▁동 성
▁구 현
▁발 사
▁3 대
▁세 자
▁세 상에
▁내 각
▁무 한
▁미 쳤다.

▁4 월에
▁권 위
▁스 펙
▁프 란
▁체 제를
▁백 색
▁내용 과
▁관련 하여
▁194 4년
▁홍 문관
▁중요 시
▁임명 되어
▁떠 났다.

▁강조 하는
▁참고 내용
방향 으로
▁흩 어져
( 南
i b
s 〉(19
▁ 캔
州 ).
고 시
년 의
노 의
돌 을
라 크
법 률
부 -
술 ,
슨 은
어 졌다.

이 [
진 ,
질 로
질 랜드
집 이
파 에
▁이 가
▁보 았
하였 다가
▁관 리를
▁인 생
▁구 석기
▁교 섭
▁장 관
▁예 수
▁건 물을
▁과 학적
▁속 도
▁속 도로
▁운 용
▁나타 날
▁토 머스
▁들어 가는
▁고려 시대의
)으로 서
▁업 적을
▁조직 의
▁습 격
▁싸 우
▁남쪽 의
▁관할 하였다.

▁베이 징
▁씻 어
▁석가 모
▁ 낸다.

대 부(
등 의
병 마
부 

야 의
재 해
진 에
회 사의
▁1 개의
▁사 설
▁가 옥
▁아 시
▁나 아
▁고 통을
▁동 아시아
)· 오
▁개 량
▁국 왕의
▁노 인
▁물 과
▁예 가
▁변 환
▁적 을
▁천 문
▁체 제
▁용 산
▁200 9
▁충 적
나무 ,
▁생각 해
▁밝 힌
or y
▁이야 기가
계획 서
▁아들 인
▁겸 임
▁가르 침
▁착 수
▁구멍 을
소재 지는
▁따뜻 한
▁ ○
나 고
수 아
었 기
올 림픽
의 에
질 병
책 에
티 노
포 는
▁수 단으로
▁지 극
▁지 내고
▁자 산
▁2 권
▁주 를
▁유 엔
▁공 신
▁비 는
▁원 나라
▁연 루
▁연 못
▁국 도가
▁거 리
▁실 무
▁따라 서는
▁명 나라에
▁스 미
▁점 토
▁8 개
▁10 월에
▁( 2)
▁세계 적인
▁담 아
▁설치 하였다.

▁몸 이
▁증가 하고
▁흔 적이
▁오늘날 에는
▁북쪽 의
▁징 수
▁전달 하는
▁블 랙
▁가을 에
▁곳곳 에
) ”
C A
t a
· 4
▁ 짚
기 기
수 입
실 과
원 인
절 이
카 르
필 (
회 담
▁있 겠
▁수 산
▁등 ,
▁전 부터
▁제 도는
▁유 력
▁부 흥
▁발 해
▁무 력
▁불 규칙
▁4 4
▁4 6
▁말 한
▁안 치
▁저 녁
▁운 전
▁지역 과
▁9 개
▁체 계를
▁12 월에
▁백 성을
▁있었 을
▁황 제의
▁기록 에
▁걸 려
▁형성 하고
▁인구 는
▁발달 했다.

▁윤 곽
▁100 여
▁조성 된
▁필리 핀
▁ 밟
리 즈
묘 한
받 지
소 리를
이 면서
임 시
자 이다.

작 물
장 인
질 러
체 제
춘 추
통 제
포 가
형 에
▁1 )에
▁유 생
하였 다.
▁고 추
▁공 예
▁상 관
)· 제
▁내 포
▁성 종
▁5 3
▁단 단
▁6 세기
▁군 인
▁심 각
▁병 사
▁국가 에
▁일반 적
▁극 락
▁형성 한다.

▁자유 로운
▁밝 히
▁빠 짐
▁우리나라 에서는
▁상태 가
▁건축 물
▁활발 하게
▁그곳 에
부령 -
(199 1).

▁27 일
▁부드 럽
▁에드 워드
▁이스 라엘
▁고인 돌
▁사로 잡
9 8
> 는
> (19
」 (
使 )
담 배
대 장,
룡 (
무 가
민 을
변 이
시 ·
었 지만
조 ).

집 의
책 (
택 을
토 니
하 되
▁한 계
▁시 베리아
▁자 궁
▁의 도
)· 수
▁만 성
▁4 3
▁5 8
주의 적인
▁광 산
▁청 주
▁들어 오
~1 8
▁기능 은
▁학교 를
▁서( 書
▁콘 크리
▁선출 되었다.

▁공산 주의
子 )
官 )
감 에
계 ·
교 에
단 지
등 을
방 정
성 서
슬 러
시 에는
전 략
▁수 단
▁기 법을
▁제 어
▁중 성
▁중 종
▁유 역에
▁원 정
▁해 협
▁거 기에
▁5 6
▁안 으로
되었 다

▁적 어
▁요 리
▁데 이
▁규 정에
▁병 을
▁한국 에서는
▁황 제가
▁13 일
위원 회를
▁제작 한
▁흐 른다.

니아 의
▁녹 색
▁디 자
▁잠 재
▁플 랑
▁징 역
▁가로 지
▁후반 에
▁엘 리자베
▁굵 은
▁띤 다.

] 과
r y
▁ =
▁ h
▁ 들은
군 에게
달 을
인 간
전 도
절 (
▁대 법
▁한 인
▁제 반
▁정 월
▁자 라고
▁중 재
▁보 성
▁나 선
▁원 소
▁소 식을
▁모 은
)· 진
▁노 비
▁6 편,
▁호 텔
▁처 녀
▁못 해
▁열 었다.

▁내용 에
▁철 도가
▁로 버트
▁14 일
▁되었 을
▁양식 으로
▁기준 ,
생활 의
▁R e
▁받았 고,
▁부족 한
▁스페 인의
▁나머 지는
▁수요 가
] 가
i an
』 ,
규 (
긴 다.

단 위
림 (
마 를
모 양의
벽 을
었 다.
운 을
이 지만,
졌 는데,
진 은
집 으로
크 는
편 은
프 레
현 실
호 

▁자 격을
▁부 수
▁부 채
▁연 희
)· 「
▁생 생
▁분 노
▁당 의
▁명 령을
▁예 정
▁평 행
▁적 혀
▁그리 는
▁학 자들은
▁경우 에도
▁되었 다가
▁침 해
▁밀 려
▁넓 고
▁악 기
▁유지 하기
▁흔 들
▁사랑 채
▁비슷 하다.

▁근거 로
▁탑 신
▁세계대전 이
▁새로 이
▁없었 던
▁억 압
▁임금 이
▁스펙 트럼
3 년(
그 라
디 자인
라 니
멘 트
선 에서
아 야
여 지
전 기
창 의
측 의
파 로
훈 (
▁대 공
▁지 름이
▁제 향
▁경 전
▁나 눈
▁고 도
▁도 구
▁무 대
▁현 대의
▁알 을
▁역 사의
▁배 제
▁요 한
▁토 지의
▁못 한다.

▁쓰 지
▁문제 로
▁동안 에
▁포함 하고
▁부분 으로
▁종류 는
▁몰 려
정책 의
▁근거 를
▁하늘 의
▁가늘 고
▁두려 워
( T
- 2
5 1
a e
· 한
▁ 센터
고 리
끼 리
남 (
독 일
려 면
병 원
불 이
사 상을
석 에
수 출
심 한
업 은
엽 수
였 으며
올 린
의 사
중 이
충 청
폴 리
형 과
▁이 관
에서 만
▁수 수
▁대 칭
▁지 류인
▁가 루
▁제 도의
▁자 세를
▁동 학
▁해 를
▁산 다.

▁배 웠다.

▁차 단
▁북 방
▁속 으로
▁목 재
▁살 던
▁창 시
▁12 일
▁작품 으로는
▁면 적은
▁로 렌
▁논 리
나무 가
▁변화 는
▁침 공
▁축 구
▁역사 적으로
▁친 족
▁막 을
▁잎 의
▁곧 바로
▁느 낀
▁이때 부터
▁옥 스
▁않았 던
.1 1
▁규모 는
시설 을
▁G .
▁지속 적인
▁폴 리
▁섞 여
▁힘썼 다.

≫ 을
▁ 찌
곡 이
기 압
대 왕
된 다고
라 인
리 며
문 제에
보 가
용 이
준 비
집 에
▁대 좌
▁자 금을
▁일 대의
▁관 현악
▁인 물이
▁부 (
▁비 용을
▁소 (
▁내 고
▁작 가의
▁남 산
▁거 짓
▁없 기
▁방 대한
▁현 지
▁5 2
▁진 료
▁배 향
▁간 선
▁요 시
▁학 문에
▁활동 하였다.

▁카 드
▁리 그
▁좋 지
▁전체 적인
▁빈 번
▁그림 은
▁가르 쳤
▁히 틀러
▁전반 적인
▁생긴 다.

▁조금 씩
프랑 스
▁오스 만
▁리얼 리즘
( BC
] 이
▁ 앵
결 의
막 을
보 면
오 리
전 설
졌 을
종 에
중 인
크 를
터 는
▁있 거나
▁전 세계
▁주 류를
▁아 기
▁되 도록
▁소 를
▁연 계
▁해 요.

▁바 른
▁강 남
▁알 맞
▁함 흥
▁직 원
▁토 착
▁김 해
▁심 하게
▁살 았
▁있었 고
▁자신 은
▁받아 야
기관 이
▁차지 했다.

▁수행 하는
▁양식 이
▁형식 은
▁길이 의
▁어려 움
▁플 로
▁졸업 한
▁작용 을
▁뒷 받침
▁과학 기술
▁다루 는
▁공간 을
▁29 일
▁십 자
▁펼쳐 져
▁교육기관 으로는
▁중소 기업
( I
1 00
▁ 켈
강 수
건 이
금 으로
두 는
르 만
보 로
양 성
역 으로
일 기
증 권
지 대에
▁대 상을
▁것 들이
▁인 삼
▁부 딪
▁고 령
▁영 산
▁후 에도
▁설 비
▁진 사
▁명 백
▁군 수
▁스 프링
▁임 금의
▁것으로 서
▁본 존
▁데 리고
▁높 이가
▁총 괄
▁손 상
en d
▁전쟁 의
▁군사 적
▁옮 겼다.

▁W .
▁옆 에
▁추구 하는
▁명확 히
▁재능 을
) ᆞ
▁ 엽
寺 )의
山 城
각 형의
동 조합
리 트
목 적
부 승
있 게
총 (
▁이 이
▁가 문
▁전 임
▁보 자.

▁다 리를
▁유 가
▁부 유한
▁되 므로
▁상 의
▁소 방
▁여 객
하기 가
되었 기
▁적 의
▁군 대가
▁추 대
▁운 항
▁광 배
▁용 어는
▁석 굴
▁14 )
)』 ,
관리 ,
▁개인 적인
위원회 가
▁가리 키
▁이끌 어
▁관직 에
보통 학교
o b
o k
가 치
락 은
민 정
바 람
역 이
윤 (
프 를
▁그 럼
▁한 다.
▁제 재
▁경 위
▁조 형
▁동 아
▁남 겨
▁재 현
▁표 면은
▁입 체
▁감 정을
▁약 화
▁7 년
▁천 주교
▁일본 이
▁정도 에
▁끝 내
▁기술 이
▁실시 된
▁벌 였다.

▁넘 겨
▁맡 고
▁바로 잡
▁나누 어져
▁뿌 리를
▁시설 을
▁읽 고
▁전반 에
▁근처 의
▁빅 토
0 ,
9 7
> ,
▁ 大
단 에서
번 에
보 장
상 

서 원
석 ·
아 (
암 으로
야 말로
인 인
정 원
집 행
쿠 스
해 주는
▁대 여
▁자 재
▁유 성
▁고 립
▁구 덩
▁개 요
▁영 주
▁교 체
▁선 을
0년 경
▁학 문과
▁7 월에
▁이루 며,
▁복 귀
▁석 조
▁생산 되는
▁드 문
▁서울 에
▁온 갖
▁프랑스 와
▁인간 은
들과 의
▁폭 이
지방 에서
▁퇴 직
▁왜 냐
▁끼 고
▁있음 

▁충분 한
( c
a v
▁ 잦
데 스
어 지는
자 도
집 권
청 이
형 이다.

▁정 조
▁자 발
▁주 어진
▁아 라
▁유 인
▁유 효
▁조 종
▁동 해
▁신 부
▁해 소
▁강 [
▁강 은
▁불 만을
▁후 퇴
▁행 성
▁6 8
▁뒤 이어
▁초 반
▁배 웠
▁점 ,
▁달 리는
▁못 할
▁면 을
▁병 이
▁앞 뒤
▁가운데 는
▁정치 가
▁의미 로
▁전통 적으로
▁가능 하게
▁1, 0
▁흐 름을
▁이해 할
▁대통령 이
▁흥 선
▁자본 주의
▁수상 했다.

▁유리 한
▁짐 승
▁앙 리
· 주
會 )를
금 과
대 손
사 도
이 론
일 과
코 올
토 가
향 의
▁시 달
▁일 로
▁2 ~3
▁경 의
▁유 동
▁조 치
▁부 문
▁고 딕
▁모 르
▁세 월
▁거 칠
▁5 4
하기 는
▁왕 국의
▁포 유
▁규 정을
3년 에는
▁199 0년대
▁독립 운동
활동 이
▁설명 하고
▁가르 쳤다.

▁그녀 가
▁터 키
▁남북 으로
▁납 작
▁권2 에
시킴 으로써
▁튼 튼
▁빠짐 없이
% )
( 2
) 하였다.

] 와
· 강
· 산
▁ 쏘
령 은
리 브
민 법
사 범
술 (
악 의
영 은
측 에
품 ,
하 라는
▁그 보다
▁대 가로
▁한 일
▁부 를
▁고 승
▁상 량
▁상 품을
▁3 세
▁성 (
▁남 해
▁강 릉
▁5 월에
▁6 월에
▁그러 다가
▁배 가
▁점 유
▁요 소가
▁외 곽
▁데 에
▁9 5
▁가지 를
▁기록 된
)」 에서는
▁환 자의
스트 라
▁역사 상
▁친 일
~1 2
▁관계 는
▁남아 프리카
▁뚜 껑
▁상세 하게
▁꼽 힌다.

▁분위 기를
▁철저 히
· 광
· 목
▁ 멈
王 后
각 으로
당 에서
로 써
병 에
아 를
었 다

열 이
으 려고
재 배
절 한
증 의
직 업
짐 에
집 은
철 학
청 은
▁이 인
▁그 레이
▁정 유
▁조 치를
▁인 류의
▁모 르는
▁장 착
▁남 부의
▁4 00
▁5 세기
▁재 미
▁종 업
▁안 내
▁왕 립
▁최 소한
▁목 적이
▁태 평
▁12 5
▁12 7
▁있었 으며
▁있었 음을
▁되었 다고
▁향 토
▁역사 는
▁몸 길
▁결과 로
▁전쟁 에
▁희 극
▁압 력을
▁소설 의
▁보내 어
▁부근 에
▁태어 났
▁비중 이
』 를
근 무
맥 을
버 그
언 어
주 자
태 를
▁이 은
▁대 다
▁제 약
▁보 지
▁원 로
▁발 발
▁신 중
▁3 가지
▁도 미
▁않 기
▁거 북
(1 0
▁화 석
▁금 액
▁천 거
▁타 당
▁순 간
▁11 )
▁인간 을
▁했 으며
▁누 구나
▁M .
▁유럽 에서
▁D .
▁분포 되어
▁흑 인
▁동쪽 의
▁변경 하였다.

▁보건 복지
▁비중 을
▁쫓 겨
▁살펴보 면
▁힘입 어
e w
m ent
▁ 뭉
東 京
감 과
들 여
루 는
문 서
바 위
병 으로
양 ,
언 이
일 러
일 로
축 을
▁1 편
에서 ,
▁정 해
▁주 에
▁나 이가
▁나 무를
▁나 갔다.

▁공 의
▁서 유럽
▁소 리가
▁연 맹
)· 고
▁교 리
▁어 른
▁오 고
▁사용 하였다.

▁최 우수
▁추 종
▁8 월에
▁회 장
▁회 사는
▁태 종
▁토 벌
▁이름 이다.

▁활동 들을
▁귀 양
on d
▁위치 로
▁가능 성을
▁결정 적인
▁팔 작
▁참여 하였다.

▁압 도
시설 이
▁구체 적
200 8년
▁믿 고
~3 0
▁산맥 의
▁주목 된다.

▁그렇 지
▁체포 되어
▁꼭 대
드리 히
▁부드 러운
▁갑오 개혁
▁기( 記)
▁비옥 한
( N
’ 이라
▁ w
▁ 낚
▁ 렌
使 )가
고 분
민 들이
실 에서
아 ,
어 에
어 지고
옥 (
음 으로써
저 우
전 투
지 식
창 을
▁그 레
▁대 지
▁전 기를
▁자 체의
▁일 체
▁조 그
▁고 속
▁서 대문
▁5 7
▁5 만
▁종 속
▁평 평
▁출 가
▁등이 었다.

▁법 의
▁외 무
▁사회 에
▁이용 되고
▁손 해
▁문화 유
km 의
ti s
▁설립 했다.

▁연결 된
사업 에
▁우리나라 에서
▁내려 가
▁E .
박물관 에
▁벨 기에
▁이산화 탄
I I
l y
· 감
· 금
· 북
▁ 낼
事 )를
네 스
노 바
더 니
도 덕
렸 던
린 의
법 칙
스 페
오 염
이 익
점 (
지 요.

질 과
촌 (
▁수 량,
▁자 생
▁일 곱
▁일 기
▁관 객
▁고 취
▁원 리를
▁소 프트
▁모 자
▁연 상
▁3 차
▁국 문
▁결 함을
▁진 (
▁두 는
▁평 정
▁적 대
되는 데
▁10 )
▁크 리스
▁철 학자
▁연구 의
▁쓰 기
▁줄 기는
운동 은
▁위치 한다.

▁정부 를
▁머 무
▁참여 했다.

계획 서,
▁전국 에
▁클 럽
▁하였 는데,
▁흙 을
▁갈등 을
▁U n
▁내외 의
각주[ 1]
▁시카 고
( H
( U
) 》
9 3
a )
a k
▁ 뿔
개 는
공 연
다 운
루 미
사 한
산 시
술 이
익 스피
천 은
품 에
호 르몬
▁이 수
▁그 로
▁시 켜
▁자 문
▁주 간
▁유 목
▁부 적
▁고 찰
▁의 결
▁동 리가
▁모 색
)· 관
▁여 왕
▁바 퀴
▁많 았
▁명 승
▁안 쪽
▁파 고
▁배 척
▁것으로 는
▁9 월에
▁심 의
▁살 았던
▁우리 나라는
▁복 무
▁황 해
▁생산 한다.

)으로 ,
▁다음 으로
km 에
▁산업 의
▁벽 화
▁바탕 에
▁E n
▁나누어 진다.

▁본래 의
▁깨끗 이
( p
m .
· 노
▁ 갇
가 족
년 도
단 체의
드 에
량 에
반 이
불 의
여 성
였 을
조 )
직 으로
진 과
철 종
테 스탄
통 치
호 인
효 종
▁1 명,
▁대 승
▁지 리적
▁중 생
▁보 냈
▁위 주로
▁신 생
▁세 조
▁성 과
▁영 광
▁만 일
▁않 으나
▁않 으며
▁불 편
▁말 기에
▁산 문
▁안 정을
▁저 수
▁저 하
▁집 으로
▁김 포
▁이후 로
▁시작 해
▁채 굴
▁치 우
▁있었 는데
▁11 0
▁문화 에
▁자연 스럽게
▁발견 한
▁발견 했다.

▁힘 쓰
▁발달 해
▁문학 적
▁놓 았다.

▁뉴 질랜드
▁일으 켰
▁주민 의
ol og
▁아이 디
▁바람 이
▁정리 한
▁개칭 되었다.

기능 을
▁춤 을
▁덴 마크
▁교훈 은
▁지중 해
( 道
건 물
말 라
메 르
야 (
였 다고
왕 조
음 ,
인 들
정 ·
판 ,
행 은
▁사 상의
▁대 단히
▁2 .5
▁주 자
하였 는데
▁인 지
▁나 일
▁하 층
▁모 호
▁연 금
▁문 과에
▁생 길
▁교 수로
▁없 지만
▁현 행
▁5 1
▁〈 시
▁초 청
▁적 고
▁출 범
8년 에는
▁충 족
▁풍 경
▁영향 이
▁동안 의
▁능 력이
▁꽃 받침
▁C o
▁평가 된다.

▁놓 아
▁해당 된다.

▁게 다가
▁반응 이
▁짧 고
▁활발 히
▁최근 에
▁잃 고
▁왕실 의
▁화합 물
▁탄핵 을
▁톱 니가
f f
~ 20
▁ 맏
」 의
감 으로
궁 의
례 의
름 에
물 리
민 이
병 은
상 으로는
세 ,
스 파
습 을
아 들
오 르
원 칙
자 격
잡 이
철 (
체 인
하 니
학 연구
항 ).
했 음을
▁이 데
▁사 리
▁대 서양
▁전 역에
▁한 가
▁정 수
▁주 위의
▁조 용
▁상 환
▁국 유
▁마 늘
▁장 대
▁오 토
▁강 수
▁강 원
▁우 주의
▁5 ·
▁받 기
▁진 한
▁6 .
▁최 대한
▁스 티
▁속 해
▁약 한
▁본 문
▁10 만
▁김 영
▁내용 ,
▁쓰 이고
▁문화 가
▁투 표
▁존재 한다.

▁실시 하는
▁환경 에
▁도로 가
▁묻 혀
▁훼 손
▁ 흠
也 .
가 들이
대 신
라 우
묘 갈명
성 장
속 을
심 경
아 는
올 로
적 한
정 도
제 안
질 (
현 은
형 ,
▁사 림
▁지 장
▁등 지에
▁전 력
▁2 층
▁유 연
▁서 양의
)· 송
▁신 규
▁국 회
▁어 릴
▁마 친
▁마 무리
▁양 주
▁진 격
▁간 단
▁약 으로
▁9 4
▁토 목
▁12 개
▁있었 다는
▁타 협
▁앞 장
▁13 )
▁경제 적인
나무 의
▁검 사를
▁부분 의
)’ 이라
)’ 이라는
▁영국 은
▁육 상
▁설립 한
▁T V
▁연결 되는
▁운동 은
활동 에
▁담당 하고
▁출판 되었다.

▁가르 침을
▁빛 의
▁K BS
▁지닌 다.

다" 고
중추 부
▁탁월 한
▁가벼 운
구 마
담 당
러 진
로 드
열 (
인 가를
적 과
중 용
통 과
표 (
▁이 원
▁지 위
▁가 끔
▁정 벌
▁주 ,
▁고 발
▁의 정부
▁공 이
▁구 원
▁원 ,
)· 동
▁3 개월
▁세 분
▁생 물의
▁도 서에
▁또 다시
▁재 학
▁노 사
▁‘ 이
▁화 물
)이 었다.

▁출 고
▁과 세
▁직 전
▁조선 에
▁사회 에서
▁작품 에서
▁잡 은
문화 를
▁글 자를
▁도시 가
▁리 처
▁은 거
▁기술 의
▁친 척
하려 면
▁모습 은
▁요구 에
▁188 4년
▁트 리
▁헤 이
▁F .
▁태양 의
▁그려 진
▁흘러 내
▁견해 가
▁부근 의
라스 틱
▁방사 선
▁프리 드리히
▁종로 구
▁싫어 하는
) 들이
8 4
m er
건 (
되 자,
라 디
만 (
메 이
하 겠다는
▁가 동
▁제 도가
▁시 사
▁중 립
▁고 조
▁동 화
▁상 처
▁바 가
▁거 리를
에게 도
▁5 )에
▁재 발
▁물 결
▁차 원에서
▁북 극
▁시작 으로
▁일본 경찰
▁구성 원
▁활동 에
▁활동 은
▁교육 과
▁대부분 이다.

▁미국 에
▁질 서를
▁표현 을
▁생활 의
▁밀 집
▁보여 준
▁190 4년
▁종교 의
▁격 렬한
▁언어 의
▁덕 분에
▁인도 네시아
▁하였 으나
자료 로
▁활발 하다.

▁제정 된
▁소비 자
▁실험 을
▁좁 고
▁낳 은
▁알아 보기
가루 를
조좌 랑
9 6
· 박
강 에
년 이
라 노
마 토
상 업
순 환
심 사
왕 릉
정 부는
청 에
▁시 ,
▁유 적이
▁관 절
▁나 뭇
▁부 사
▁부 엌
▁구 두
▁연 설
)· 한
▁개 구
▁개 인이
▁세 르
▁생 리
▁성 의
▁무 거운
▁방 위
▁분 산
▁〈 아
▁적 당한
▁추 출
▁임 금을
▁점 에
▁감 수
▁약 정
▁피 신
▁9 3
▁12 9
시대 에는
▁구성 되었다.

▁총 애를
▁하나 를
▁올 바른
▁취 소
▁11 일
▁귀 속
▁손 자
▁투 옥
▁작성 하여
▁국내 의
▁격 파
위원회 는
▁전개 하였다.

18 년(
보고 서,
▁밝혀 졌다.

ter n
▁그렇 지만
▁묶 어
▁말미 암
▁옥스 퍼드
( 지금의
c he
d er
m an
p er
▁ y
▁ 東
가 들은
감 은
공 양
님 의
등 급
르 를
복 이
불 좌
색 은
신 보
엄 경
자 문
체 계
체 에서
▁이 북
▁사 간
▁사 우
▁수 레
▁전 수
▁한 층
▁일 방
▁일 이었다.

▁일 대에
▁경 비
▁경 성부
▁다 이
▁인 가
▁인 기가
▁나 의
▁의 뢰
▁공 중
▁하 인
▁하 므로
▁발 음
▁세 상
▁문 명
▁없 으나,
▁불 꽃
▁말 하며,
▁단 기
▁왕 과
▁파 리에서
▁독 서
▁스 탈
▁법 제
▁감 싸
▁중심 을
▁생산 이
▁교육 적
▁효 소
▁글 자
▁형성 하는
▁생활 에
▁계속 되었다.

▁P ro
▁담당 하였다.

▁이론 에
as s
▁몽 고
▁급제 하였다.

▁주목 을
▁광범위 하게
▁어두 운
5 )
> 은
m ),
· 교
갔 다가
구 역을
그 래
급 여
도 끼
라 브
린 은
본 의
연 대
연 이
연 대는
였 고
피 는
하 다.
해 왔
현 상에
▁사 (
▁지 평
▁전 염
▁정 밀
하였 기
▁조 약을
▁부 탁
▁부 패
▁의 지를
▁동 기
▁연 작
▁문 무
▁장 단
▁무 슨
▁계 면
▁예 속
▁6 7
▁화 살
▁사용 하지
▁스 튜
▁점 으로
▁경우 와
▁합 창
부분 을
▁면 제
▁( 법
▁세계 에
▁리 더
▁꽃 을
▁꽃 차례
▁작성 하도록
기관 에
▁밀 양
▁라 인
▁국제 적
▁보여 주었다.

)』 을
▁발달 되어
▁야 기
▁구분 하여
▁있어서 도
▁망 원
▁설명 한
▁세포 의
▁울 산
▁상호 작용
▁않아 도
▁제출 하는
▁정상 적인
▁이집 트의
▁절차 를
공화 국
▁드물 게
▁똑 같은
▁폭넓 은
▁그다 지
▁흥선 대원
( G
▁ 팬
」 (19
가 ?

경 쟁
길 에
대 륙
대 중
러 시아
마 스
발 간
봉 을
사 대
산 염
운 송
워 서
인 한
작 용을
직 하고
투 아
풍 (
프 스
▁사 당
▁사 도
▁가 라
▁전 원
▁정 하고
▁자 ,
▁자 기가
▁경 부
▁때 로
▁동 요
▁구 상
▁상 대로
▁원 인은
▁연 수
▁개 간
▁문 종
▁생 육
▁성 분
▁성 서
▁마 라
▁장 면
적으로 도
▁거 문
▁반 포
▁현 무
▁종 은
▁진 입
▁명 문
▁6 3
▁화 랑
▁스 토
▁8 8
▁편 안
▁김 종
▁이후 에도
7년 에는
▁쓰 기도
▁완 화
▁미국 으로
▁형태 이다.

▁서울 로
▁C on
▁관계 로
▁노래 한
▁근로 자의
▁배치 되어
▁아무 리
▁공식 적으로
▁깃 털
▁얇 은
▁쏟 아
▁예컨 대
▁식년 문과에
( L
· 파
· 해
君 )에
감 한
능 을
사 상의
심 과
에 ,
해 지는
화 수
▁사 서
▁등 기
▁한 의
▁2 0년
▁주 와
▁주 소,
▁아 세
▁인 상을
▁인 물을
▁서 경
▁서 류
)· 군
▁도 움
▁도 자
▁영 등
▁해 가
▁바 그
▁많 고,
▁알 레
▁왕 세
▁매 수
▁과 학자
▁입 을
▁학 부
▁목 조
▁심 지어
▁제1 2
▁책 이
▁순 으로
이었 다고
▁벌 어진
▁상황 이
▁간행 되었다.

▁가로 질러
▁칭 호를
▁기후 는
▁공산 당
▁위험 한
▁견해 에
▁유대 인
▁웨 일
▁왜냐 하면
· 외
〉 에는
례 가
리 한
삼 존
상 이다.

중 국
▁1 ~2
▁전 까지
▁주 가
▁위 탁
▁인 권
▁인 가를
▁하 위
▁모 셨
▁발 송
▁신 이
▁장 로
▁재 생
▁종 래
되었 지만,
▁6 9
▁' 이
▁왕 릉
▁변 하는
▁초 등
▁간 을
▁과 일
▁프 라
▁증 광
▁높 게
▁제1 1
▁쓰 였다.

▁절 을
▁박 탈
▁끝 까지
▁201 1
▁처음 부터
▁포함 한다.

▁침 식
대학 에서
▁송 나라
▁몸 은
▁국제 적인
▁난 을
▁색 을
▁사건 의
▁결합 하여
다.” 는
▁농민 의
▁편찬 된
▁다루 었다.

▁급제 ,
▁폐지 되었다.

▁칭 찬
조참 의
▁제주 도
▁그밖 에도
▁압록 강
· 개
∼ 3
▁ 꽂
▁ 롤
▁ 펄
기 름
는 지는
답 니다.

당 하였다.

덕 을
드 레
량 수
백 (
버 드
보 유
복 의
승 람
옵 션
제 3
쳐 서
터 를
▁1 주
▁아 이를
▁나 비
▁나 치
▁부 장
▁고 대의
▁발 을
▁발 탁
▁개 종
▁성 장을
▁거 둔
▁우 물
▁5 9
▁산 간
▁산 을
▁결 정을
▁당 초
▁양 념
▁사람 도
▁예 문관
▁권 6
▁독 재
▁나타 났
▁살 면서
▁열 리는
▁지방 을
▁자연 을
▁표현 되어
▁191 5년
▁수도 원
▁유지 하는
▁마을 에
▁보호 를
▁압 축
방법 을
▁추정 되는
▁소장 하고
경제 적
▁갖추 어
▁파악 하고
▁촉 매
▁도로 를
▁브라 질
▁지냈 으며,
▁삽 입
▁촌 락
동국 여지
▁말미암 아
8 2
c t
d e
i re
’ ·‘
≫ 를
▁ 걱
▁ 쇄
▁ 엉
▁ 쪼
▁ 켄
〉 로
공 학과
국 악
누 스는
니 와
대 성
되 도록
렸 을
론 ,
리 거나
발 이
산 면
송 이
스 런
위 험
정 부가
지 로서
총 리
통 이
함 은
해 서는
행 에
▁사 양
▁가 맹
▁제 의
▁시 정
▁정 체
▁중 인
▁2 세의
▁유 역의
▁위 축
▁나 가는
▁고 원
▁문 신
▁작 아
▁어 귀
▁말 하고
▁진 공
▁진 흙
▁건 물이
▁왕 으로
▁최 저
▁추 적
▁권 위를
▁요 인
▁직 선
▁저 서로
▁용 암
▁향 한
▁영향 력
▁정치 적·
▁잡 는
▁201 2
▁변화 와
▁프로 테스탄
▁작성 할
▁메 디
▁실시 하고
사회 에서
▁어머니 의
▁마음 의
°C ,
상태 를
▁바닥 에
▁일제강점 기
( R
o y
r ic
· 진
· 홍
▁ 록
▁ 볶
▁ 웹
傳 )
렸 으며,
리 코
린 이
머 리에
버 러
부 원
산 성(
상 적인
소 비
실 에
아 미
안 정
잎 은
학 으로
후 에
▁이 남
▁이 보다
▁대 치
▁가 요

▁등 

▁시 상
▁정 자
▁보 도
▁다 를
▁부 친
▁비 고
▁연 세
▁개 가
▁내 무
▁영 상
▁영 역을
▁마 이
▁강 연
▁거 슬러
▁불 린
▁말 린
▁산 의
▁설 문
▁단 군
학교 에서
▁파 르
▁출 혈
▁과 정에
▁법 은
▁더 이상
▁확 충
▁시작 되어
▁복 사
▁철 수
▁국가 에서
▁11 월에
▁박 정
)’ 라는
▁L G
▁풀 이
▁강조 한
▁원칙 적으로
▁무엇 보다도
▁갈라 진다.

이아 몬
▁교향 곡
▁되돌 아
▁(법 정리
7 ,
D P
▁ ▲
▁ 몫
▁ 탓
▁ on
時 代
門 )
개 ).
결 (
무 로
문 하
방 무덤
보 에
봉 사
색 (
성 에서
역 사적
▁1 세기
▁기 용
▁중 구
▁경 북
▁부 부
▁의 회의
▁상 임
)· 윤
▁신 인
▁신 탁
▁통 찰
▁남 의
▁없 지만,
▁우 려
▁후 의
▁산 지를
▁파 리의
▁간 호
▁약 물
▁항 아
▁황 태
▁14 세기
▁B .
▁민족 주의
▁P C
▁흔 한
▁우리나라 에
▁국내 에서
▁한편 으로는
▁나무 로
▁딸 을
▁빛 이
▁제시 한
▁빌 딩
▁차례 의
▁시행규칙 

▁전반 적으로
▁마찬 가지
▁목적 에
▁실패 했다.

▁생겨 난
▁대규모 의
▁고려시대 에
▁냉 각
▁2014 .8
▁철저 한
▁셰 익스피
/ 발간
· 은
」 를
』 (19
공 간
그 릇
눈 에
님 을
대 비
라 를
라 면
량 으로
르 와
성 인
었 으나,
온 다.

조 1
족 에
줄 기는
지 대를
초 가
표 준
품 과
프 란
학 술
학 적으로
회 ·
▁수 로
▁대 접
▁가 면
▁중 간에
▁2 )에
▁2 칸의
▁아 나
▁다 녔
▁관 리에
▁나 트륨
▁상 해
▁원 천
▁3 번째
▁성 리학
▁장 면을
▁거 울
▁산 지
(1 4
▁〈 이
▁출 장
▁표 방
▁북 위
▁속 도가
▁12 )
▁식 물을
9년 에는
▁있었 지만,
▁카 메
▁향 하여
▁하여 ,
▁13 세기
▁이어 졌다.

▁이어 진다.

▁행정 리
지역 이
▁특징 으로
▁힘 들
▁않는 다는
▁느 낄
▁기준 을
▁참여 하여
▁개인 적
▁대신 에
▁에너 지의
▁R .
▁촉 구
부령 

▁봄 에
▁충청 도
▁경계 로
▁유일 하게
상태 에
▁대사 헌
▁조선총독 부령
▁ 류
귀 한
대 에는
리 면
마 리
맞 춤
보 상
상 선
설 의
속 에서
야 만
유 물
토 록
평 의
훗 날
흥 (
▁제 도와
▁시 기를
▁정 식으로
▁2 책.
▁경 복
▁부 의
▁의 병을
▁구 비
▁하 류
▁연 예
▁세 습
▁문 답
▁거 리가
▁방 정
▁실 정
▁많 으며,
0년 에는
▁당 해
▁양 상을
)이 며
▁8 편,
▁달 의
▁금 액을
▁처 분
▁청 나라에
▁천 장
▁『 조선
▁면 모를
▁한국 인
cm 이고
나무 를
▁들 었다.

▁형성 되었다.

▁역사 에
▁머 리에
▁범 위를
▁빈 곤
▁관리 하는
관리 법
▁커 피
관계 의
산업 의
▁이듬해 에는
▁자리 에서
▁강조 하고
▁띠 는
▁즐 거
▁잃 은
▁웅 진
▁잘못 된
▁획득 하게
▁마케 도
▁그럼 에도
동국여지 승람
: 1
r is
· 어
· 원
∼ 4
∼ 5
≫ ,
▁ x
▁ 멘
菩 薩
가 슴
당 하고
대 동
러 져
묘 지
방 울
배 우
법 상
수 필
슬 로
연 하게
유 는
전 선
학 년(
▁이 렇
▁사 무를
▁사 신을
▁수 렴
▁대 폭
▁전 압
▁중 동
▁주 주
▁보 게
▁조 명
▁부 른
▁동 맥
▁구 경
▁있는 지
▁신 원
▁세 금을
▁오 목
▁강 경
▁미 친
▁없 으면
▁4 대
▁산 타
▁당 연히
▁예 금
)에 도
▁' 아
▁군 데
▁임 상
▁학 원
▁높 여
▁참 전
▁12 6
▁치 는
▁11 개
▁≪ 삼국
기관 을
기관 인
es 〉(19
▁유지 할
▁증가 할
▁참여 한
▁세워 져
km2 로
▁졸업 하고
레스 타
▁공부 했다.

미술 관
▁을 사
다" 라고
( E
( F
( 영
( 또는
. )
a 〉(19
· 관
· 옥
· 토
▁ 혀
개 (
난 을
님 이
도 서에
등 은
라 가
례 에
로 이
마 한
목 과
불 은
산 동
상 담
시 스코
심 리
어 리
적 이었다.

처 ,
철 폐
초 는
충 렬왕
크 가
턴 의
프 리
헨 티
후 가
▁사 자
▁수 영
▁지 내는
▁가 볍
▁전 송
▁주 사
▁보 이며,
▁인 력
▁고 유한
)· 지
▁신 전
▁생 략
▁도 중에
▁해 저
▁만 나는
▁방 식이
▁분 출
▁현 상은
▁요 충
▁목 활
▁저 자가
▁달 린다.

▁지역 에는
▁삼 았
▁20 세기에
▁음 력
▁살 짝
▁열 을
▁길 에
▁구성 된다.

▁병 행
▁순 천
▁미국 에서는
▁사실 에
▁역사 와
▁T h
▁이미 지를
▁인물 이다.

▁습 득
▁거주 하는
차례 에
▁비율 이
▁기온 이
▁현황 을
▁소프트 웨
( D
a ti
o us
· 삼
的 )
고 용
국 인
당 시
마 르크
부 도
새 김
설 화
일 전쟁
작 (
쾌 한
판 과
프 와
한 이
해 양
행 위를
헌 종
▁시 위
▁자 체를
▁2 월에
▁아 닐
▁고 루
▁고 지
▁공 로로
▁교 부
▁어 리
▁남 극
▁불 이
▁결 심
▁군 대의
▁임 차
▁7 2
▁호 칭
▁12 8
▁열 거
▁채 집
6년 에는
▁승 인을
▁발전 과
an g
▁대표 작
▁축 하
해야 만
▁발견 되는
들에게 는
▁S .
▁야 외
▁확인 되었다.

▁간행 한
▁환경 을
▁탐 사
▁개념 으로
▁주민 등록
▁터 널
▁부르 기도
▁맺 었다.

▁분리 되어
▁수준 의
▁뚜렷 이
▁횡 단
▁어려서 부터
플레이 션
3 품
6 )
· 간
· 선
▁ 뱃
▁ 퀘
〉 이라는
고 기
고 도
다 /
당 으로
랍 니다.

렸 고,
마 자
만 에
브 라
장 군
즈 의
책 ,
춘 향
키 스탄
태 평양
택 이
함 ,
행 사
▁이 내
▁1 세의
▁지 녔
▁전 하고
▁보 좌
▁유 형의
▁관 람
▁부 가
▁때 에도
)· 도
▁생 명을
▁도 심
▁교 양
▁남 원
▁오 를
▁오 이
▁바 에
▁불 균
▁분 홍
(1 6
▁단 단한
▁안 팎
▁매 사
▁과 장
▁임 야
▁입 각
▁8 세기
▁9 2
). ”
▁연구 와
▁타 격을
▁손 꼽
▁경제 의
▁검 수
▁축 제
▁영국 에
위원 으로
▁실시 한
▁시간 에
▁넣 은
▁장식 이
▁그녀 를
▁전해 지고
▁즐 기
▁완성 된
▁갈라 져
▁배출 하였다.

▁다스 리는
▁꿈 을
▁보편 적인
▁인명 .
l ic
s e
건 강
나 물
달 러
데 타
바 퀴
부 상
수 용
시 인
실 험
약 의
우 며,
주 목
지 거나
쪽 에서
한 다.
화 나
▁수 렵
▁기 자
▁기 호
▁아 라비아
▁다 진
▁위 를
▁인 재
▁고 성
▁구 성을
▁상 층
▁원 인을
)· 강
)· 안
▁개 를
▁내 면
▁장 안
▁바 늘
▁바 빌
▁말 기
▁계 통의
▁결 제
▁노 력이
▁두 껍
▁사용 해
▁크 레
2년 에는
▁철 학적
1년 에는
▁잘 라
▁되었 던
er n
▁표현 이
▁암 시
▁191 3년
▁포함 된
▁조직 하여
▁섬 에
▁구조 가
▁폭 은
▁아버 지를
▁운영 을
▁제공 하고
▁클 레
▁작용 하는
▁비판 을
as t
▁전투 를
▁원칙 을
▁선거 에서
▁구별 된다.

▁자세 한
▁살아 가는
▁재료 로
▁숨 어
▁학문 적
▁찍 어
▁나뉘 어
▁둥글 게
▁사대 부
▁떼 어
▁일컫 는
▁텍 사
( 三
6 ,
l d
▁ 갚
▁ 앓
〉 라는
담 한
랑 은
료 의
막 이
문 예
미 로
으 려는
지 휘
▁대 주교
▁지 어진
▁2 세가
▁유 물은
▁유 교의
▁인 문
▁나 름
▁고 산
▁공 립
▁공 원
▁상 서
▁소 수의
▁신 사
▁여 덟
▁여 신
▁영 의
▁무 산
▁선 보
▁선 율
이라 면
▁양 을
▁양 호
▁물 체의
▁파 생
▁필 라
▁가지 의
▁채 워
▁면 적이
▁기록 했다.

▁제1 4
▁세계 적으로
▁중국 을
▁미국 은
▁13 7
▁허 리
▁뜻 에서
▁섬 세
▁존재 를
▁중요 하게
▁운영 하는
▁이해 하기
▁사건 에
▁대통령 은
▁어려 워
▁기초 가
▁현실 에
▁따르 고
▁동쪽 은
▁증명 하는
▁옷 주름
▁원칙 으로
▁하늘 을
▁얼굴 은
기능 과
▁고려시대 에는
▁끓 는
▁방사 성
▁국회의 원
▁날짜 ,
▁영등 포
" 라고
( 元
2 ]
2 가
8 ,
· 철
’ 이다.

≫ 에는
▁ 갱
▁ 싹
▁ 폼
▁ 헐
경 주
규 범
나 리
로 나
로 지
매 를
맥 이
문 헌
물 인
액 에
오 의
장 치
장 군(
책 의
첩 (
판 으로
회 계
▁1 세가
▁전 인
▁한 탄
▁시 문
▁자 갈
▁다 름
▁다 투
▁부 대
▁비 평가
▁구 슬
▁소 백
▁발 (
▁무 선
▁4 세기
▁양 자
▁진 전
▁6 2
)이 란
▁프 레스
▁7 세기
▁저 자는
▁편 지를
▁본 토
▁달 한다.

▁농 사
▁사회 가
▁토 론
사( 知
▁열 고
▁작품 들을
5년 에는
▁구성 은
▁면 소재지는
▁박 물
▁끝 을
▁투 명
▁날 이
▁특징 적인
▁A r
▁붙 은
▁이해 하고
지방 에
▁휴 양
▁개최 된
▁서쪽 의
▁덮 고
▁바다 에
▁좌우 에
▁즉위 하자
▁둘러싸 인
▁유배 되었다.

▁일상 생활
▁구멍 이
▁도서관 에
▁건조 한
▁셈 이다.

▁세련 된
동아 일보
▁팔작 지붕
T V
a u
· 자
▁ 밸
▁ 썬
官 )으로
곡 은
근 대
되 지만
망 의
면 적은
문 인
브 레
산 (1,
소 포
소 리가
신 도
약 성서
오 던
움 과
일 자,
임 새
주 에서
층 과
표 

화 합
▁이 란
▁것 보다
▁기 증
▁전 기의
▁전 자는
▁한 데
▁19 세기에
▁중 지
▁관 제
▁부 당
▁고 시
▁고 온
▁고 도의
▁공 기가
▁상 (
▁어 지
▁마 포
▁선 물
▁산 이
▁당 한
▁스 키
▁임 용
▁직 면
▁광 해
▁합 하여
▁「 상
▁구성 ,
▁번 성
▁검 거
▁생각 할
▁조직 이
▁주장 한다.

▁나타나 지
▁떠 난
정책 에
▁미술 관
▁분류 된다.

▁0 .5
▁믿 었다.

▁편찬 한
▁케 임
▁즉위 한
▁건립 된
▁시스템 을
▁공화 국
▁확실 한
▁확실 히
▁일대 에서
▁들어서 면서
▁f or
▁활성 화
▁씌 어진
▁얕 은
▁두꺼 운
▁싣 고
루미 늄
7 ).

9 4
] 로
≫ 에서
土 器
山 )·
跋 )
가 들의
계 몽
기 서
기 자
능 력을
되 지는
두 를
방 식을
악 을
연 금
열 ,
열 에
였 기
채 권
체 험
표 로
▁사 장
▁사 정
▁대 수
▁기 쁨
▁주 장이
▁보 컬
▁위 기를
▁조 광
▁인 재를
▁인 접한
▁고 수
▁고 조선
▁의 사를
▁원 리에
)· 부
▁따 위를
▁장 군이
▁거 대
▁선 도
▁선 천
▁불 평
▁5 개의
▁형 사
▁종 묘
▁받 기도
▁군 대는
▁법 무
▁집 안의
▁청 원
▁김 창
시대 부터
▁병 으로
▁이용 한다.

▁문제 의
▁접 해
▁189 8년
▁수행 할
▁구분 할
▁대통령 령
▁소설 은
▁강조 하였다.

▁시대 에는
▁찾아 가
▁t o
▁명칭 으로
▁개념 은
▁개념 이
▁북한 은
▁하였 으나,
▁소재 지는
▁공연 을
▁런던 에서
▁견해 도
▁생겨 났다.

▁느끼 게
▁지름 은
▁번식 한다.

▁넷 째,
' 에서
( 漢
u e
· 포
관 인
민 들의
블 로
빛 을
서 야
악 한
영 어
절 에
정 권
조 사를
주 도
중 에서
통 합
페 르
형 성
후 는
▁그 외
▁사 우스
▁지 탱
▁한 눈에
▁시 범
▁시 기에는
▁정 권
▁일 도
▁중 점을
▁주 파
▁관 원
▁나 쁜
▁의 의가
▁공 고
▁비 를
▁구 미
▁상 반
▁하 부
)· 홍
▁3 0년
▁내 내
▁영 위
▁어 우
▁강 제로
▁미 칠
▁없 으므로
▁받 으며
▁알 코올
▁6 00
▁권 장
▁간 혹
▁북 부의
▁목 을
▁직 책을
▁이루 지
▁호 를
▁김 성
▁김 유
▁16 )
▁기록 하는
▁( 3)
▁로 스
▁올 리는
▁되었 다.
▁이상 적인
▁했 으나,
▁축 성
▁실시 되었다.

▁잎 을
▁빠 진
▁30 명의
▁자료 로
활동 은
▁녹 아
▁불교 를
▁않았 고,
▁설명 하는
▁업무 에
▁상대 방
▁유래 한
▁관할 구역
▁민주 주의
▁케 이
▁겪 은
▁보존 되어
▁연안 에
▁종사 하는
▁천연 기념물
▁웨 스트
ig ht
▁뜨 거운
▁기슭 에
▁일부개정 ]에
▁늙 은
( K
1 ),
i z
· 송
▁ 휩
▁ 훗날
공 장이
기 사
말 ,
본 부
시 티
자 들과
철 의
포 ,
헬 름
희 의
▁이 종
▁사 전에
▁대 학의
▁지 능
▁전 자의
▁시 계
▁시 장의
▁정 약
▁일 과
▁중 대한
▁주 최
▁주 위를
▁유 니
▁유 방
▁나 이로
▁모 범
▁신 상
▁3 칸,
▁교 회를
▁마 애
▁분 동
▁우 세
▁재 편
▁진 지
▁각 자
학교 에
▁6 개의
▁평 론
▁차 이는
▁추 기
▁권 유
▁감 시
▁시작 한다.

▁절 제
▁효 력을
시키 려는
▁다음 의
▁사실 이다.

▁투 여
▁질 소
▁묘 갈명
▁표현 하고
▁날 아
)’ 라고
▁위치 해
▁만들 고,
로부터 의
▁머 리가
▁결과 에
▁메 리
or d
▁모습 이다.

▁실시 하였다.

▁P o
▁정보 통신
▁국내 에
▁밑 으로
▁게 재
시설 의
▁칠 레
▁연안 의
▁기여 했다.

▁부근 에서
▁귀국 하여
▁고객 의
▁건국 훈장
▁물러 나
▁스위 스
층석탑 (
▁낙동 강
▁거치 면서
[ 大
m e
· 모
▁ 들이
國 師
大 師
文 )·
감 의
공 정
대 리
령 ,
비 행
살 렘
술 은
숭 아
신 ,
언 의
염 이
오 (
용 품
입 니다.
절 제
표 의
하 리
▁이 순
▁있 다면
▁사 상은
▁수 공업
▁지 키는
▁것 .
▁기 부
▁기 성
▁기 점으로
▁시 칠
▁일 제는
▁주 식을
▁유 물이
▁서 방
▁소 의
▁모 으
▁모 험
▁연 소
▁세 대
▁문 체
▁도 읍
▁성 곽
▁어 미
▁어 업
▁마 치고
▁특 기
▁불 상의
▁우 의
▁반 환
▁많 지
▁재 개
학교 의
▁출 산
▁입 는
▁광 업
▁9 세기
▁12 세기
▁책 에
▁완 만한
▁중국 에서는
▁미국 이
▁걸 린
▁제2 0
▁알려 지지
▁별 다른
▁운동 이
▁어머니 가
▁찬 성
▁가르 치는
▁가족 의
▁전해 지는
▁납 품
▁평균 기온
▁좌우 로
om p
▁집중 적으로
▁지지 하는
▁떨어 지는
▁지난 다.

▁동맹 을
▁무늬 가
▁평야 가
▁덩 굴
▁라틴 어
▁3·1 운동
▁날카 로운
▁엘리자베 스
r on
· 배
· 안
· 일
▁ Z
▁ ※
▁ 랭
寺 )에
法 )을
王 )
理 氣
내 를
랑 의
래 에
루 살렘
르 지
무 의
상 인
선 택
신 용
암 을
약 이
왕 후(
차 에
카 드
타 고
통 지
티 우스
향 과
혹 한
▁이 정
▁1 권
▁것 (
▁기 행
▁의 식이
▁공 직
▁구 획
▁하 원의
▁신 임
▁3 ~4
▁통 용
▁않 지만,
▁미 주
▁후 인
▁후 진
▁산 정
▁재 단
▁형 이상
까지 를
▁알 기
▁예 는
학교 가
▁평 소
▁함 양
▁스 파
▁포 자
▁입 양
▁감 동
▁피 는
▁토 지와
▁김 홍
▁창 업
▁식 물이
▁복 용
▁관련 되어
▁활동 의
▁드 리
▁방법 이다.

▁글 이
▁암 모
▁접 어들
▁노동 의
시켰 으며,
▁팔 레스타
▁지배 하는
▁이유 가
▁시대 적
▁칼 슘
▁대학 에서
▁밤 에
▁짓 는
▁가격 이
▁적절 히
▁스트 레스
▁두드러 진
▁권3 에
▁사헌 부
에너 지
▁8·15 해방
] 으로
· 병
▁ 헛
使 )를
春 秋
그 러
도 호
련 을
리 크
말 이
모 에
신 정
없 음
에 까지
역 ,
음 .
자 였다.

정 부를
조 림
조 한
철 에
학 원
해 질
향 이
▁이 윤
▁사 슴
▁수 에
▁등 산
▁것 일
▁기 어
▁조 산
▁의 례
▁의 장
▁공 부를
▁소 지
▁문 란
▁여 인
▁영 동
▁불 완
▁말 에서
▁〈 오
▁안 토니
▁변 모
▁포 장
▁회 색
▁농 사를
▁삼 는
▁열 렸다.

4년 에는
▁철 기
▁곳 의
▁201 0
▁대표 로
▁급 증
▁191 6년
▁침 범
▁막 는
~1 7
▁설립 하였다.

▁문학 을
▁독일 에서
▁운동 에
▁음악 의
▁비교 해
▁189 9년
▁수행 을
▁품 고
▁시간 과
▁조각 은
▁언어 를
▁남쪽 은
▁통합 하여
▁차례 에
▁둔 다.

▁개편 되었다.

▁이르러 서는
▁여름 에
보고 서
▁아르 헨티
▁남서 쪽으로
▁유교 적
▁내외 ,
▁홀 로
▁일시 적으로
▁쳐 들어
▁짐작 할
▁껍 질을
▁이데 올로
· 용
▁ 홑
▁ 리가
寺 )에서
과 정에
권 대회
등 (
러 스
모 로
반 도
브 리지
성 적
손 (
손 으로
암 과
양 식
역 할
조 치
참 찬
천 ,
테 스
통 은
파 인
풍 은
▁이 광
▁수 조
▁지 고
▁한 라
▁자 립
▁경 사가
▁유 출
▁인 플레이션
▁공 익
▁공 무원
▁상 인
▁신 기
▁생 겼다.

▁교 수가
▁통 하는
▁무 리를
▁명 으로
▁‘ -
▁[ 편찬
▁사람 에
▁각 국
▁평 범한
▁왕 비
▁매 개
▁매 도
▁입 사
▁감 추
▁외 국의
▁농 가
▁참 된
▁15 개
▁충 성
▁카 사
▁박 사
▁프랑스 에서
▁대표 적이다.

▁맞 배
대학교 에
이었 으나,
▁침 투
▁힘 든
▁T .
▁아래 에서
▁결과 ,
▁페 이
사회 적
▁브 루
▁인정 하고
▁요구 를
▁않았 으며,
▁혁 파
▁혁 명의
at h
▁플 라스틱
▁강조 했다.

▁어머니 를
무늬 를
노동 자
명( 2008년
▁좁 아
▁살아 남
4년( 고종
▁근처 에서
▁엘 리
▁실패 로
▁중심지 이다.

▁을 과로
▁늘어 남
▁봉안 되어
▁비난 을
▁l a
▁다녀 왔다.

▁모시 고
▁콘스탄 티노
▁빅토 리아
▁[편찬 /발간
▁ 꿀
▁ 돔
▁ 뺀
」 을
書 )를
的 )인
교 부
극 을
날 의
라 ,
방 사
벽 의
선 사
스 톤
시 경
심 히
암 ,
우 와
정 부에
지 니아
직 은
추 세
턴 은
텐 츠
통 에
학 사
후 를
▁1 년에
▁그 만큼
▁사 단
▁사 물
▁전 성
▁전 적으로
▁보 전
▁다 이아몬
▁조 율
▁동 네
▁소 극
▁개 신
▁개 원
▁생 김
▁내 부에
▁도 를
▁성 실
▁영 월
▁장 치를
▁무 의
▁미 시
▁불 분
▁분 화
▁반 해
▁산 하
▁것이 기
▁적 당
▁군 현
▁7 7
▁집 합
▁나타 낼
▁천 도교
▁죽 이고
▁풍 요
▁교육 에
▁환 자
▁형태 와
▁정치 의
스트 로
▁급 성
▁인간 과
▁은 혜
▁작성 한다.

▁먹 이
ar y
▁존재 하지
사업 의
▁임명 했다.

적이 거나
▁일으 킬
▁과정 은
기술 을
▁응 급
이에 른
▁분명 하지
▁확실 하지
▁평안 북도
▁함경 도
▁사마 시에
▁초상 화
▁소규모 의
▁치열 한
C O
· 복
· 재
▁ 굶
▁ 꿩
▁ 딴
門 下
까 .

꽃 이
나 갔다.

리 안
매 기
목 록
발 생
배 를
부 사로
서 각
술 의
안 으로
어 진다.

였 다는
운 다.

자 금을
전 화
채 는
탄 을
포 로
호 선
▁전 용
▁전 하지
▁자 서
▁위 기
하였 음을
▁의 의를
▁연 재
▁발 자
)· 소
)· 영
▁국 외
▁여 행을
▁성 당
▁마 드리
▁4 ,000
▁말 고
▁실 존
▁〈 고
▁결 정한
▁따라 ,
▁명 사
▁것이 며
▁왕 궁
▁초 창
▁감 찰
▁학 문의
▁외 래
▁호 응
▁높 이고
▁심 화
▁음 양
나라 를
▁용 인
▁병 력을
▁정치 적인
▁13 4
▁발전 한
)로 부터
▁맞 춤
▁행정 동
지역 과
▁생각 하는
▁자유 주의
▁결과 가
or e
or t
▁페 루
▁브 랜드
▁종류 와
▁격 퇴
▁이유 를
.1 0
▁학교 의
▁학생 들의
▁대학 원
▁꾸 며
▁반영 하고
▁신앙 의
▁액 체
조판 서에
▁필사 본
고등학교 로
▁느끼 는
▁아미 노
·· ··
▁1/ 3
▁II I
▁홍보 대사
▁간선 도로
M F
〉 에서는
制 度
會 )
都 監
高 麗
강 한
거 리를
견 (
국 토
대 부
동 물의
라 와
말 과
물 질의
미 )
시 장의
여 (
예 가
임 

지 라도
질 에
코 스
형 식
호 분
황 을
▁있 듯이
▁수 석
▁가 고
▁것 입니다.

▁전 면에
▁한 계를
▁정 답
▁자 작
▁중 창
▁경 유
▁공 적
▁소 녀
)· 공
▁생 동
▁도 봉
▁도 중
▁영 의정
▁만 사
▁만 화
▁만 하다.

▁오 후
▁바 꿀
▁불 타
▁불 행
▁말 과
▁재 해
▁설 이
▁단 양
▁단 체는
▁명 (
▁명 륜
▁평 탄
▁입 각한
▁8 5
▁가장 자리
▁천 체
▁중심 지가
▁치 고
▁있었 지만
▁생산 하고
▁이상 인
▁논 한
지역 에서는
이었 을
▁포함 해
▁누 에
▁접 수
▁홍 문
~1 6
▁난 이
▁견 제
▁형식 이
▁사건 은
▁전문 가의
▁성공 했다.

▁성격 의
us t
▁전시 되어
▁노력 했다.

▁40 여
▁안정 된
▁맥 락
▁갔 다가
내역 서,
▁돋 보
▁깎 아
▁며 느
▁경위 ]
▁리처 드
9 1
a h
· 천
· 일본
경 제의
고 속
금 에
기 구(
데 르
부 동
상 도
세 이
졌 다고
출 장
클 레
클 리
탑 (
합 병
형 이며
▁수 료
▁가 곡
▁정 당한
▁중 산
▁2 칸
▁주 머니
▁관 통
▁부 어
▁공 양
▁소 모
▁내 리고
▁성 적
▁교 리를
▁방 식은
▁4 ·
면서 ,
▁종 결
▁명 월
▁두 만
▁행 하여
▁학 회
▁필 연
▁확 고
▁규 정한
▁채 소
▁충 격
▁충 격을
▁쓰 고,
▁판 소리
▁담 긴
▁되었 다는
▁드 는
▁역사 적인
▁프로 젝
▁돌아 갔다.

▁좌 절
▁구조 로
▁그림 의
레이 크
사업 이
▁깊 게
▁떠 올
▁지나 는
▁곡 물
▁물질 은
▁소설 을
▁교회 는
▁출신 으로
ra ph
▁씨 를
으면서 도
▁공부 한
13 년(
▁맛 을
▁춘 천
▁승격 되었다.

▁깨끗 한
▁가라 앉
( m
2 ),
o ph
p e
≫ (
』 에서
時 烈
가 스
감 사
경 부터
기 

나 를
남 북
다 ’
란 한
모 음
방 에서
사 카
사 태
속 으로
시 집
애 가
역 과
예 종
예 프
원 정
지 대의
체 스터
충 은
퍼 센
항 의
헌 법
회 사가
▁이 내에
으로 도
▁기 구를
▁시 ·
▁2 인,
▁경 연
▁조 기
▁인 위
▁때 가
▁비 틀
▁구 할
▁하 버드
▁연 대는
)· <
▁국 사
▁성 명
▁오 존
▁바 이에른
▁무 효
▁예 루살렘
학교 육
▁왕 래
▁매 듭
▁간 부
▁7 3
▁7 편,
▁직 물
▁크 로
▁총 무
▁하나 씩
▁생산 에
▁에 이
▁카 라
▁손 실을
▁봉 해졌다.

▁끝 으로
▁온 건
▁온 돌
▁맞 지
▁도시 로
▁도시 에
▁했 을
▁조직 은
▁섬 을
▁밝 히는
▁놓 인
▁사업 의
▁루 스
▁인정 하는
▁참여 하는
▁성공 적으로
▁업무 의
정책 은
▁보아 ,
▁제시 했다.

조직 을
▁서쪽 은
▁바뀌 어
▁수준 을
▁임진왜란 이
▁떨어 뜨
▁의사 결
▁저작 권
▁백성 들의
▁연평균 기온
▁이승 만
▁왕위 계
▁연세 대학교
추세 츠
8 )
> (
i k
i es
t on
× 0
개 념
국 도
급 한
기 게
덧 널무덤
드 에서
등 기
라 늄
라 리
리 던
문 답
반 은
배 (
섭 (
속 은
스 투
이 념
쟁 의
전 람
주 머니
터 의
하 러
으로 서,
▁사 은
▁대 관
▁지 도를
▁가 게
▁보 고,
▁조 사를
▁고 체
▁발 광
)· 양
)· 하
▁신 (
▁3 칸
▁내 보
▁만 난
▁만 세
▁노 스
▁종 양
▁단 층
까지 ,
▁알 파
▁알 리는
▁예 로는
▁6 1
▁뒤 인
▁스 탠
▁입 구
▁증 기
▁조선 인
▁집 단의
▁천 천
▁일본 과
▁용 해
▁용 어를
▁200 여
▁면 에
▁면 이
▁절 정에
▁정치 에
▁얻 지
▁표현 된
▁누 가
▁위치 는
▁준 수
▁먹 이를
▁필요 에
▁나타나 게
▁구조 와
▁기능 과
▁중요 성이
▁역할 ]
▁종교 개혁
▁브 리
▁곡 식을
▁잠 깐
관계 는
▁에너 지가
▁플 루
▁치료 하는
▁기초 한
▁사항 ,
▁믿 는
▁남북 전쟁
▁거래 처
▁묘사 하고
▁50 여
▁첨 단
▁증명 하기
▁집중 되어
▁가정 에서
▁임시 정부
▁생기 게
▁꼬 리
▁근본 적인
▁동남 아시아
▁급격 한
▁병자호 란
7 )
T A
u p
y s
· 불
· 교육
▁ 댓
▁ 람
▁ 컵
▁ 킹
大 君
과 와
교 사
도 상
독 한
동 사
락 (
랴 오
렌 지
리 고,
마 케
막 의
매 매
법 원
분 해
소 스
아 래
자 였던
정 신을
집 ,
충 (
테 는
포 에
협 동조합
▁등 에게
▁기 병
▁기 회
▁전 지
▁시 대가
▁보 라
▁조 정에
▁되 는데
▁동 서로
▁상 고
▁상 륙
▁소 외
▁소 용
▁모 신
)· 주
▁성 질이
▁해 임
▁무 척
▁후 기에는
▁말 기의
▁〈 성
▁물 ,
▁‘ 한
▁초 연
▁사용 하기
▁요 즘
▁8 3
▁운 하
▁집 의
▁삼 은
▁청 량
▁복 제
▁이루어 지지
▁활동 하고
(李 滉
▁의미 는
▁“ 이
이었 는데,
▁조직 된
▁지식 (
▁범 람
연구 에
▁이곳 에는
▁브 레
▁분포 하고
▁사랑 하는
▁예술 의
▁대하여 는
▁100 만
▁국립 공
▁정책 에
▁주민 들은
▁성격 은
▁받았 으며
▁북쪽 은
▁술 탄
▁잃 어버
▁낳 았다.

▁건강 한
▁런던 의
▁쿠 데타
▁빨 간
하나 ,
▁공식 적인
▁비로 자나
▁엔 진
▁평안 도
▁잡아 먹
▁장편 소설
▁규격 ,
소포 타
9 ,
> 에
c o
· 농
· 반
· 발
▁ r
▁ 샀
寺 )·
금 지
기 성
끄 러
독 (
벽 이
성 군
수 송
아 르
채 (
채 무
체 계의
파 ,
품 )
호 )이
화 도
▁사 르
▁사 면
▁사 위
▁수 온
▁제 휴
▁일 할
▁유 신
▁위 생
▁부 하
▁공 인
▁공 해
)· 남
▁3 세기
▁내 놓
▁도 둑
▁도 의
▁어 워드
▁장 의
▁바 뀐
▁불 량
▁우 두
▁산 재
▁산 소를
▁행 성의
▁각 국의
▁파 손
▁사용 한다
▁8 년
▁목 사
▁10 대
▁살 은
▁있어 도
▁일본 을
▁철 거
▁병 마
▁순 례
▁갖 지
▁고려 하여
)으로 부터
▁13 개
회의 에서
▁극 장
▁생각 하고
▁막 대
▁머 리는
▁전쟁 에서
문학 을
▁이때 의
사회 에
활동 의
▁품 목
▁법률 에
▁통일 을
▁언어 로
▁이론 은
▁드러 내
▁개최 하고
▁대중 의
▁끼 워
▁급제 한
▁번역 한
▁겨울 에는
▁고용 은
▁열매 가
▁제목 으로
▁활약 하였다.

평균 기온
▁깔 려
▁짐작 된다.

▁31일 -
▁타이 완
▁혐 의로
▁서원 철폐
5 ,
> 를
’ 라
▁ k
▁ 꿰
尙 書
文 學
강 은
경 덕왕
고 추
교 섭
구 조는
극 (
극 의
박 을
부 담
산 수
서 인
세 대
슨 의
영 양
원 사
재 와
졌 으나
지 사
창 ,
틀 을
하 늘
하 수
행 으로
행 장·
회 사는
▁이 번
▁이 시
▁이 화
▁수 탈
▁것 들이다.

▁기 저
▁정 하여
▁중 대
▁다 년
▁조 정의
▁고 기
▁때 인
▁국 경을
▁국 어의
▁해 제
▁없 다.
▁분 기
▁〈 미
▁〈 삼국
▁형 벌
▁단 계에
▁‘ 사
▁[ 기능과
▁사람 ,
▁알 지
▁파 는
▁파 리에
▁초 점을
▁배 려
▁권 7
▁것으로 서,
▁7 8
▁회 로
▁호 랑
▁광 역
▁크 기로
▁9 6
▁이후 부터
▁할 머니
▁규 합
▁『 신
▁용 어가
▁철 폐
▁사이 버
▁( 제
▁올 리고
▁이름 의
▁가운데 에
▁존 경
▁비롯 되었다.

▁발전 시켰다.

▁온 대
▁맞 춰
▁폐 단을
▁했 다는
이었 으며
▁축 출
▁날 로
▁영국 이
위원 ,
▁악 화
▁산업 이
▁정보 가
▁사건 으로
▁발표 하였다.

▁땅 이
▁분포 는
▁현대 적
▁교회 와
▁쌓 고
▁이론 적
▁빌 헬름
▁물리 적
▁쌀 을
▁무엇 을
▁계승 한
▁이슬람 교도
▁의사 소
▁오르 내
ac k
▁효율 적인
▁늘어 났다.

▁출생 .
▁관해 서는
▁인적 자원
▁싶 은
▁글씨 를
▁궤 도
▁하느님 의
(宋 時烈
▁독창 적인
자동 차
▁인조 반
mer ic
( 주
· 후
∼ 7
▁ 괘
▁ 얀
▁ 펀
귀 를
노 스
들 고
롤 라
무 형문화재
문 종
법 상의
병 과
속 이
수 상
시 피
이 용
주 년
줄 을
중 학교로
찹 쌀
품 (
한 ,
혈 ,
▁이 븐
▁대 문
▁지 눌
▁가 중
▁정 형
▁자 제
▁다 가
▁유 언
▁나 이에
▁고 장
▁공 민
▁상 여
▁원 자가
▁하 급
)· 봉
▁영 문
▁미 치지
▁4 만
▁우 울
▁실 증
▁종 (
▁당 뇨
▁당 나라의
▁양 국
▁양 산
▁행 한
▁차 용
▁추 세
▁요 양
▁본 떠
▁농 장
▁삼 척
▁피 로
▁돌 무지
▁천 안
▁길 은
▁용 도
▁채 로
▁담 가
▁절 충
▁순 조
▁곳 에서는
시키 지
▁드 나
▁정치 ·경제
▁논 란이
▁중앙 집권
▁발견 되어
▁섬 세한
en ce
▁정부 와
▁설립 하여
▁나타나 기
▁종교 에
▁수행 하고
▁가르 치
▁갖추 어져
▁기간 을
▁기계 ,
▁바람 직
▁칭 송
▁강력 히
▁뻗 은
▁블 루
▁부모 의
▁콜 로
〉(1 7
▁일상 적인
▁명확 하게
▁방지 하기
▁어긋 나
▁으 뜸
▁상량 문
투아 니아
) 였다.

a in
g l
y n
· 세
▁ 不
▁ 갯
▁ 숯
寺 址
說 )
겸 (
구 조의
그 리
내 가
다 ’는
달 아
도 리
민 은
박 이
스 부르크
야 마
엽 (
왔 으며,
직 물
카 의
통 화
푸 르
학 년
해 준다.

▁이 규
▁1 월에
▁그 들에게
▁대 금
▁대 대로
▁기 소
▁기 의
▁시 리아
▁일 의
▁중 계
▁2 번
▁주 에서
▁위 기에
▁상 원의
▁하 와
▁연 대를
)· 기
▁성 악
▁않 으므로
▁오 케
▁무 성
▁단 축
▁물 가
▁행 위가
▁파 티
▁사용 을
▁표 출
▁등이 며,
▁프 린
▁때문 이라고
▁8 2
▁외 의
▁목 축
▁데 뷔
▁태 도
▁합 법
▁심 리적
▁못 하여
▁백 성의
▁일본 ,
▁연구 개발
▁한국 에
▁기록 으로
▁이용 되었다.

▁책 으로
▁절 의
▁되었 다

▁문화 와
▁온 난
▁프랑스 가
▁프랑스 는
▁누 정
▁형성 되는
〉(19 0
▁협 상
▁협 정
▁붙 였다.

▁로마 에
▁벌 인
▁기본 적
▁이해 와
▁마을 을
▁담당 했다.

▁학교 법인
▁혈 관
▁에너 지는
▁성공 한
▁25 0
▁마련 하여
▁건물 로는
▁결혼 했다.

▁교통 은
▁교통 의
▁유사 하다.

▁얼굴 을
▁지니 는
▁생물 학적
▁좋아 하는
▁잘못 을
·보 리·
▁정기 적으로
스테 르
여래 좌
▁서기 전
▁권4 에
▁눌 러
▁연루 되어
▁설문 조사
1 )
9 2
T he
c i
m )이
· 방
· 황
▁ 댄
경 에는
기 상
네 디
노 (
백 을
서 이다.

시 에서
위 생
지 니
채 가
채 의
초 로
층 에서
트 르
희 는
▁1 번
▁1 쌍
▁사 사
▁사 상이
▁수 장
▁수 증
▁지 위에
▁가 설
▁한 옥
▁한 동안
▁일 대는
▁일 생을
▁유 산
▁유 적은
▁조 심
▁부 합
▁서 해
▁하 에
)· 구
)· 인
▁신 을
▁3 칸의
▁도 승
▁남 겼
▁오 대
▁무 려
▁무 대에
▁미 생
▁선 생
▁실 재
▁실 었다.

▁산 과
▁재 상
▁물 었다.

▁18 세기에
▁화 를
▁파 란
▁초 록
▁사용 하게
▁법 에
▁8 1
▁회 사에
▁회 의를
▁데 도
▁농 림
▁김 씨
▁심 고
▁들어 오는
▁복 직
▁200 0
▁200 8
▁철 광
▁타 인의
▁정도 였다.

▁11 7
▁효 능
▁끝 에는
▁발전 하였다.

▁온 천
▁중앙 을
▁했 지만,
대학 (
▁위치 가
)』 의
▁메 소포타
▁발달 로
▁문학 과
▁로마 에서
▁넘 어서
▁M an
▁않는 다고
▁일어나 지
▁불교 가
▁아들 이다.

▁확인 하는
▁이듬해 에
it h
▁활용 할
▁d es
▁해안 에
▁클 리
▁유래 했다.

▁조성 되어
▁즐 기는
▁씨 가
▁경험 이
▁세우 는
un g
▁가져 온
▁원자 력
▁밝혀 져
·대 사
▁항목 에
▁지하 철
▁백성 들이
▁대한민국 임시
조정 랑
▁단편 소설
▁쫓 아
▁지켜 야
▁매장 되어
국립 공
▁유용 한
▁소( 疏
▁이렇 듯
▁콘스탄티노 플
· 6
≫ 은
▁ 슐
▁ 찔
圖 )」
文 )을
縣 )
공 단
공 작
국 조
나 르
나 우
노 가
노 는
되 지만,
리 면서
마 에
명 ·
미 ,
민 과
반 에
셔 널
시 조
실 ·
진 한
추 진
축 으로
측 은
칼 리
터 에
토 는
토 지
▁사 본
▁사 상과
▁수 비
▁대 제
▁대 행
▁대 하는
▁전 담
▁전 위
▁자 식
▁일 원을
▁중 합
▁보 르
▁공 전
▁동 물을
)· 백
▁3 번
00 0년
▁통 보
▁미 얀
▁미 세한
▁특 산
▁4 권
▁노 론
▁종 족
▁안 티
▁왕 국
▁적 게
▁과 수
▁속 이
▁8 4
▁본 명은
▁광 합
▁아니 지만
▁열 심히
▁백 과
▁길 다.

▁복 수
▁복 역
부분 에는
▁철 학을
▁한국 전쟁
▁사이 로
▁14 개
▁생산 된
▁국가 는
▁국가 와
▁경제 개발
▁논 문을
(李 珥
▁온 라인
▁검 출
▁도시 계획
)’ ·‘
▁꽃 가루
▁힘 으로
▁지식 과
▁찾 기
▁머 리와
▁개발 ,
▁넘 치는
▁종류 에
▁지나 친
▁너 비가
▁전국 적인
▁과정 이
▁긴 장
▁테 두
▁출판 했다.

공업 이
▁현실 의
▁띠 게
▁결합 되어
▁벗 어
▁없어 지고
▁갈라 진
조판 서를
▁부모 를
▁열매 를
▁침입 을
▁측정 하는
▁늦 은
주식회 사,
▁플라 톤
▁1인 당
▁티베 트
▁아리스토 텔레
6 ).

: 시
▁ 金
▁ 즈
』 과
事 )가
가 장
결 한
관 리에
교 회의
끄 럽
년 에는
다 보
등 으로
려 한
령 과
문 자
받 게
발 한
살 은
설 과
신 설
원 자
위 도
이 야
인 구의
주 군
클 로
폭 포
플 라
하 마
형 동
▁이 (
▁이 건
▁가 격을
▁정 화
▁자 외
▁자 원을
▁되 자,
▁서 해안
▁원 을
▁원 의
▁모 로
)· 용
▁문 명의
▁해 남
▁교 ,
▁남 게
▁남 양
▁바 와
▁무 인
▁미 적
▁거 론
▁없 음을
▁〈 사
▁종 자로
▁양 쪽에
▁알 루미늄
학교 는
▁배 당
▁점 과
▁10 1
▁10 8
▁심 어
▁체 류
▁16 개
▁한국 은
▁올 해의
▁절 망
▁카 프
▁번 창
▁손 잡
회의 에
▁설치 했다.

▁별 도의
▁좌 익
▁폭 력
▁존재 가
▁신라 에
is s
한다 (제
▁이해 를
▁초기 부터
▁몰 수
▁사건 과
▁잠 수
▁헌 신
▁서식 하는
▁25 )
▁전개 되었다.

▁경향 성은
▁성장 했다.

▁벗 겨
▁제시 하고
▁맺 은
조직 의
이에 요.

음악 의
노동 조합
▁효과 적인
▁아닌 가
▁여름 에는
▁가져 왔다.

▁훈련 을
▁사라 졌다.

▁전설 이
▁달라 진다.

5년( 고종
▁고향 으로
▁무늬 를
▁것인 지
▁취임 하였다.

og raph
▁엿 보
ec t
▁앨 범
▁선호 하고,
▁긍정 적인
▁아파 트
▁모셨 다.

▁매사 추세츠
▁천천 히
( b
( g
) 할
) 나라의
2 ).

l l
· 임
· 종
· 코
▁ 늪
▁ 래
▁ 뮌
▁ 밋
▁ 짠
▁ 툇
』 가
事 )에
朱 子
省 ]
각 ,
각 과
기 만
꽃 차례
니 다.”
대 칭
들 (
따 라
련 (
르 바
모 ,
문 이다.

민 요
베 리
부 전
부 족
빽 빽
사 이다.

설 립
셰 비
수 사
야 는
연 화
염 색
요 청
제 비
줄 기
진 강
타 운
항 을
▁이 뤄
▁가 량
▁시 나
▁주 제는
▁유 람
▁부 품
▁공 존
▁공 기를
▁구 로
▁소 포
▁신 체의
▁여 래
▁내 장
▁도 래
▁작 게
▁마 구
▁무 역을
▁특 권을
▁불 려
▁현 종
▁결 부
▁단 체의
▁안 고
▁파 리로
▁배 상
▁군 산
▁임 의
▁입 자
▁약 사
▁7 4
▁8 9
▁직 할
▁증 설
▁돌 연
▁합 계
▁김 수
▁창 원
▁식 으로
▁용 수
▁200 5
▁병 에
▁병 풍
▁제1 3
▁제1 8
▁고려 대학교
▁베 이스
▁걸 작
▁일반 적이다.

km 이다.

▁줄 을
나무 와
대학교 로
이었 기
대학 이
▁자유 의
▁존재 할
▁190 2년
▁P h
▁낮 게
사회 는
▁비교 를
▁기준 이
▁1일 부터
▁압 력
▁전문 적인
▁레 닌
▁제공 하기
▁100 m
▁교회 가
▁과거 를
▁가까 이에
▁마음 에
▁결혼 을
▁칠 언
▁잃 게
▁교통 이
▁원자 핵
▁신앙 을
▁참고 자료로
▁장악 하고
▁159 2년
▁침략 을
▁아내 가
ag e
▁관장 하는
▁노르 웨이
▁폭넓 게
▁대대 적인
i er
t ,
’ 이란
∼ 6
≫ (19
▁ 엑
▁ et
』 (
日 記
개 에
거 리가
경 연
경 향
계 면
광 복
나 타
내 에는
누 스의
독 ,
디 자
릭 스
린 을
미 르
석 묘
수 대
심 에
였 지만
원 종
월 (
자 리를
장 식
조 약을
지 였다.

지 대로
질 ,
집 에서
추 (
패 가
표 가
하 라고
▁1 명
▁그 물
▁사 파
▁지 목
▁가 뭄
▁것 이나
▁전 이
▁정 주
▁정 원은
▁일 체의
▁경 기를
▁조 개
▁부 위
▁부 회
▁공 민왕
▁하 니
▁연 산
▁신 봉
▁내 재
▁도 교
▁도 구를
▁작 자의
▁마 땅
▁남 인
▁바 쳐
▁강 철
▁미 디어
▁불 에
▁불 태
▁말 엽
▁형 상을
▁설 교
▁명 목
▁[ 표
▁행 사를
▁' -
▁출 품
▁과 시
▁민 중의
▁입 었다.

▁7 6
▁7 ~8
▁금 메
▁금 액,
▁김 상
▁12 4
▁백 인
▁17 세기에
▁용 도로
▁치 명
▁자신 도
▁황 색
▁고려 에
▁취 한
시키 면서
▁다음 날
▁경제 적으로
▁프랑 수아
▁문제 점을
회의 를
▁논 쟁을
▁프랑스 에
▁형성 된다.

)’ 이라고
기관 은
▁자유 당
▁민족 적
사업 으로
▁1, 5
관계 와
▁보호 하는
▁월 드
▁않았 으나
▁골 라
▁확인 하고
▁확인 하기
산업 은
▁플 레
▁예술 적
▁삶 에
▁주민 들이
도시 로
▁전자 기
▁개편 에
▁조건 으로
ing )
▁끼 쳤다.

▁신설 하였다.

▁위험 이
▁재판 을
▁기울 였다.

▁옛날 에는
00m 의
▁겹 쳐
▁남동 쪽으로
▁살펴보 면,
▁개교 하였다.

▁수컷 은
▁엮 은
▁국립중앙도서관 에
▁증광 문과에
▁목활 자본.
▁시칠 리아
▁밋 밋
> 을
I n
e p
· 여
· 평
▁ 린
▁ 튜
▁ 훔
▁ 찹쌀
▁ 빽빽
동 성
듯 이,
몹 시
무 량수
미 디
불 탱
약 (
였 으나,
우 기
죄 로
주 곡
직 이
질 서
처 가
피 (
▁사 모
▁자 바
▁중 도
▁중 순
▁주 소
▁보 스턴
▁아 바
▁조 조
▁나 고
▁공 간에
▁동 국
▁구 절
▁상 륜
▁상 정
▁모 의
)· 교
▁세 울
▁문 자를
▁도 자기
▁해 인
▁교 사로
▁따 위의
▁바 르게
▁없 어진
▁4 ~5
▁물 품의
▁두 고,
▁근 원
▁8 6
▁회 고
▁직 전에
▁심 판
▁복 음
▁충 선
▁담 보
▁현재 ).
▁박 사학위를
on g
)로 ,
문화 가
▁조직 ,
▁생활 과
▁접 속
▁측 근
▁메 이
▁구조 ,
▁구조 의
▁구조 적
▁곧 게
is h
관리 대장
▁있어서 의
산업 이
▁딸 린
▁정책 의
▁맺 어
▁처리 하는
기간 ,
▁그곳 의
▁폐지 하고
~4 0
▁콘 텐츠
▁문헌 에
마디 의
▁실질 적으로
▁쳐 서
▁한다( 제
▁얽 힌
▁며 칠
▁제향 되었다.

▁걱 정
▁프로테스탄 트
' 이다.

/ 3
> 

E C
▁ 촘
▁ 톰
官 )이
금 액,
급 을
기 원
나 (
납 니다.

동 맥
되 다가
라 비
맛 이
매 일
변 경
병 ,
보 와
비 히
상 속
상 이나
서 기
십 리
씩 을
아 와
암 동
았 다고
었 지만,
염 을
월 일,
율 의
인 쇄
일 리
태 양
택 (
하 시기
항 (
회 원
▁그 날
▁사 형
▁수 련
▁대 기업
▁지 연
▁가 닥
▁가 파
▁전 자를
하고 도
▁시 장에
▁정 사
▁자 매
▁2 배
▁보 유한
▁경 남
▁인 정을
▁부 녀
▁공 룡
▁때 와
▁서 적
▁원 나라의
▁모 른
▁연 애
)· 산
▁신 라는
▁국 권
▁해 의
▁작 전
▁마 른
▁장 엄
▁오 락
▁바 랍니다.

▁선 의
▁분 구
▁분 지
▁우 거
▁5 ~6
▁단 정
▁왕 국을
▁차 를
▁간 이
▁이루 게
▁저 절로
▁편 이
▁집 약
▁태 조의
▁피 할
▁합 동
▁철 학과
▁되어 ,
▁기록 한다.

▁( 0
▁정도 는
▁교육 목
▁베 어
▁자연 과
▁만들어 지는
▁만들어 진다.

▁조직 하고
▁모양 은
▁결정 한다.

▁아버 지와
▁윤 리적
▁M BC
사업 ,
▁깊 고
▁널 방
▁옥 타
▁망 라
▁설명 할
▁반대 했다.

▁등장 했다.

▁내려 와
▁파악 하는
▁졸업 하였다.

▁해안 을
▁제외 하면
▁움직 일
▁흑 색
▁변경 되었다.

▁교황 의
▁건강 을
▁채택 하고
2년( 선조
▁재료 를
▁멸 종
▁자라 며
▁금강 산
▁중반 에
▁법칙 을
산맥 의
▁까닭 에
▁튀 어나
▁밥 을
▁비스 마르크
▁도움 으로
▁다년 생
m a
~ 50
· 과
▁ 겁
」 에
三 國
錄 )
集 )』
결 혼
군 에서
꼼 꼼
놀 이·
당 사
막 에
밀 히
봉 은
브 로
사 상은
승 인
안 ,
았 으며
액 (
어 남
어 에서
어 머니
운 의
읍 지
일 지,
졌 다는
지 하
천 에
천 으로
체 제의
체 제가
태 (
회 사를
▁한 계가
▁자 기를
▁중 세의
▁위 쪽
▁인 왕
▁때 를
▁비 서
▁상 장
)· 금
▁개 조
▁생 원
▁여 가
▁성 가
▁영 인
▁해 변
▁교 유
▁따 온
▁통 영
▁장 원
▁미 래의
▁특 성이
▁후 자는
▁당 상
▁진 사가
▁역 을
▁왕 권을
▁파 시
▁사용 하고,
▁출 석
▁포 트
▁프 라이
▁호 전
▁광 해군
▁9 8
▁규 정이
▁200 7
▁하나 ,
▁하나 였다.

▁기록 하도록
▁책 이다.

▁순 서
▁지방 관
)」 과
▁가운데 서
km 를
▁검 찰
▁표현 했다.

대학 을
대학 의
▁기술 적
▁탄 광
▁측 면을
▁필요 성을
▁나타나 며,
▁그림 으로
▁결정 된다.

▁종교 적인
▁건설 된
▁12월 에는
▁낙 랑
▁현대 적인
▁경향 은
▁졸업 생
▁H ist
▁묘사 되어
▁N ew
▁파견 된
▁참가 한
▁자세 하게
▁맛 과
▁뚜렷 하게
▁살펴 볼
▁고향 인
모양 으로
▁규장각 도서에
▁평안 남도
▁[생애 와
마디 는
▁지냈 고,
프로 그램
▁문인 이다.

▁빗 살
▁『삼국지 연의
▁이리 하여
k W
o od
u g
· 문
’ (
’ 에서
∼ 1
▁ {
▁ 썩
▁ 퐁
▁ 몹시
人 )의
山 ).
검 (
공 무
공 장을
교 류
단 에는
든 가
란 (
루 ,
만 ,
만 으로는
말 은
모 리
보 수
사 기(
서 서
수 립
악 산
았 고
양 한
어 음
업 (
연 주
옷 을
이 동
직 무
책 에는
총 액은
코 드
킬 로
타 르
톨 레
트 루
특 수
평 화
품 질
플 러
하 이오
행 동
후 보
▁1 칸
▁지 분을
▁기 숙
▁기 압
▁정 (
▁정 제
▁유 능한
▁부 가가
▁의 논
▁되 던
▁동 조
▁비 어
▁상 처를
▁하 얀
▁하 면,
)· 임
▁교 사를
▁통 지
▁무 기를
▁후 임
▁반 원
(1 2
▁결 여
▁종 을
▁진 실
▁두 지
▁화 해
▁왕 조를
▁배 설
▁배 운
▁배 워
▁최 씨
▁매 끈
▁속 하게
▁학 살
▁7 9
▁직 사
▁저 렴
▁저 명한
▁새 벽
▁크 림
▁김 동
▁살 인
▁시작 되는
▁16 )에
▁들어 간다.

▁일본 군
▁총 칭
▁자신 에게
▁한국 인의
▁황 폐
▁제1 5
▁관련 한
▁풍 경을
▁사실 적으로
▁볼 록
▁잡 았다.

▁극 작가
▁자연 환경
운동 과
▁했 다고
▁날 인
~1 4
▁A T
▁개발 을
▁산업 은
사업 은
▁일어나 기
▁제조 업이
▁진행 되었다.

▁188 2년
▁덕 을
▁농업 에
▁부르 게
▁부르 주
▁성립 된
▁폐지 되고
▁케 네디
▁무덤 의
▁오스트 리아의
조판 서·
▁블 라디
▁자리잡 은
▁받아들 였다.

▁획득 했다.

▁네덜란드 의
▁던 져
▁이황 (李滉
▁딱 딱
▁뮤 직
▁콘크리 트
▁경복 궁
▁케임 브리지
- 6
· 현
μ m
▁ 낫
▁ 잣
▁ 줌
▁ 힐
▁ (19
▁ (18
氏 )로
간 과
건 의
교 구
국 가의
꼬 리
니 까
니 에
라 프
롤 레타
리 다
면 으로,
방 식은
보 ,
부 흥
설 팅
세 계를
세 력의
십 자
았 으나
액 과
엽 은
제 도에
차 별
카 라
카 와
토 ,
토 벤
틸 렌
푸 른
화 폐
화 엄경
▁수 시로
▁가 부장
▁한 결
▁정 인
▁일 대를
▁주 차
▁주 름이
▁경 (
▁경 매
▁부 지
▁되 풀이
▁동 부의
▁상 위
▁소 금을
▁모 인
)· 원
▁3 세의
▁세 미
▁성 능
▁영 세
▁해 리
되어 왔다.

▁남 기고
▁오 지
▁거 리에
▁방 울
▁후 대에
▁〈 마
▁왕 족
▁배 는
▁임 기
▁입 출
▁감 안
▁목 격
▁저 해
▁호 의
▁10 편,
▁삼 한
▁창 덕
▁천 재
▁들어 갈
▁죽 어
▁철 도의
▁손 해를
▁봉 기
▁끝 은
▁갈 아
▁갈 리아
▁프랑 크
in a
▁글 은
▁들 면,
▁얻 고
▁생각 이
▁리 투아니아
▁은 하
▁별 의
▁접 종
▁홍 수
▁밀 접
)』 를
▁제작 에
▁임명 된
▁건설 되었다.

▁브 로
▁1일 에
▁일으 킨다.

▁않았 지만
▁골 프
▁분포 하며
▁테 베
▁정책 은
mm 이다.

▁밖 에서
▁파견 하여
▁소비 에
▁자동차 를
▁표시 하는
▁무엇 보다
▁분명 한
▁대륙 의
ri g
▁획 기
▁이래 로
▁의견 이
▁신체 적
▁민속 자료
▁북동 쪽으로
▁항공 기
확인 서,
▁뛰어 났
▁변호 사
▁맑 고
▁발원 하여
▁돕 기
▁대도시 권
▁말라 리아
▁넷 째
통상 자원
▁질서 정
공양 왕
▁맞배 지붕
▁루스 벨
▁왕위계 승
e v
~ 25
· 면
▁ •
▁ 덤
▁ 톈
▁ 팥
上 海
검 은
게 는
공 무원
께 서
니 를
단 체가
디 나
루 에
법 에서
비 드
산 대
상 한
신 인
신 화
악 기
았 을
오 를
율 (
을 수록
잡 지
죽 을
처 분
척 의
충 의
카 는
콩 ·
타 의
파 리
하 이
히 지
▁이 룰
▁사 가
▁사 신으로
▁수 급
▁전 남
▁다 리가
▁유 한
▁위 와
▁조 국
▁고 생
▁공 장이
▁동 인도
▁모 른다.

)· 방
)· 삼
)· 시
)· 황
▁생 선
▁내 부에서
▁성 모
▁교 원
▁교 직
▁만 났
▁통 솔
▁분 쟁을
들이 었다.

(1 3
▁단 성
▁진 짜
▁안 테
▁평 형
▁속 도를
▁요 인이
▁목 포
▁달 고
▁농 어
▁돌 고
▁토 끼
▁김 원
▁심 해
사( 判
▁15 )
▁시작 했고,
▁용 접
▁책 록
▁활동 한
▁되었 으나,
▁앞 선
▁이상 은
▁봉 화
▁사실 과
▁방법 과
)’ 을
▁별 시문과에
▁기술 적인
기관 으로는
교육 에
▁좌 천
▁개발 했다.

▁S p
▁S oci
▁발달 에
or k
or m
▁폭 로
▁얼 음
▁견 적
함으로써 ,
▁색 이
▁M ar
▁1, 3
▁느 꼈
▁정보 의
▁운영 에
▁상태 이다.

.5 cm,
▁지나 면
▁보고 서
▁몰 래
▁않았 기
▁옮 겼
▁등장 한다.

▁이동 하는
▁역임 하고,
▁186 6년
▁규정 된
▁졸업 했다.

▁영화 는
▁확대 되었다.

▁받았 으나
무늬 토기
▁직업 간
▁자동차 의
▁흘러 들어
▁가져 다
▁거두 어
▁권1 ·2
▁부정 적인
▁항목 을
▁그렇 다면
해지 자
▁정교 하게
▁위협 을
(200 7).

▁끝나 고
느냐 에
▁서사 시
절차 에
프란 시스코
▁마케도 니아
▁폼 페이
I S
a z
y 〉(19
· 운영
▁ 굄
▁ 벵
▁ 컴
▁ 큼
十 二
간 ,
골 의
내 려
높 이
늘 어남
돌 은
레 는
무 ·
손 을
수 단
식 (金
안 내
양 식을
어 듬
어 떤
예 (
예 ,
운 은
장 치를
점 이다.

좌 를
줄 어듬
처 로
촌 의
치 ·
케 이션
코 프
큰 술,
털 이
화 하기
▁이 식
▁이 재
▁1 m
▁사 절
▁사 퇴
▁수 취
▁한 림
▁시 인의
▁시 간의
▁시 리즈
▁일 일
▁보 리
▁관 철
▁조 조가
▁되 게
▁하 드
▁하 도록
▁신 한
▁문 하에서
▁성 이
▁만 주로
▁오 로지
▁바 실
▁방 형
▁말 씀
▁계 단
▁진 정
▁안 양
▁각 지에서
▁함 은
▁왕 권
▁회 담
▁외 환
▁증 진
▁증 후
▁편 에
▁조선 미술
▁호 족
▁광 대한
▁사회 적으로
▁사회 적·
▁아니 라는
내용 을
▁시작 했으며,
▁구성 요
▁책 에서
▁즉 각
▁정도 이고
▁이름 과
▁완 만
▁교육 과정
▁봉 쇄
▁13 2
▁많이 늘어남
▁많이 줄어듬
스트 의
▁자연 히
▁표현 되었다.

▁중앙 에는
▁변화 없음
▁영국 에서는
▁힘 써
▁밀 라노
▁좌 측
▁결과 입니다.

▁필요 성이
▁버 렸다.

▁문학 은
is m
▁팔 라
▁혁 명을
▁공동 체의
▁나무 가
ic h
▁갑 상선
▁사랑 의
▁서식 한다.

▁숙 박
▁활용 하시기
▁쉽 다.

▁가족 을
▁지구 가
하다가 ,
▁수입 을
▁즐 길
▁관할 하게
▁직업 당
▁바람 직한
▁주도 인
▁정착 한
조사 년도
▁없었 기
▁무엇 이
▁공간 이
▁정리 하여
▁개칭 하였다.

▁일정 하게
os t
▁재직 자
▁재직 자를
▁근본 적으로
▁펴 냈다.

▁명확 한
▁북동 쪽
▁지리 산
▁함경 남도
▁유치 원
▁계열 의
▁제수 되었다.

▁급속 한
qu e
▁원주 민
▁줄어 듬
신고 서
功臣 )
▁비스 듬
▁일자리전망 은
tern ational
▁생육 과정
▁나름 대로
▁설문조사 한
롤레타 리아
조사년도 :
3 ]
4 00
c l
n a
∼ 8
≫ 과
▁ 닥
▁ 템
가 고
강 ,
격 이
군 데
귀 족
노 비
둥 이
료 ,
망 은
메 리
발 성
버 렸다.

본 과
부 산
부 시
부 사가
비 용
수 인
수 호
안 과
여 러
여 왕
오 스
왔 고,
용 )
인 적
작 업을
향 으로
▁이 단
▁1 세는
▁수 ,
▁수 년
▁전 자가
▁시 원
▁시 종
▁시 조로
▁정 조의
▁일 익을
▁보 일
▁유 고
▁부 유
▁부 풀
▁의 주
▁구 전
▁상 부
▁상 이
▁원 조
▁소 위
)· 연
)· 화
▁3 )에
▁마 감
▁장 소에
▁않 으나,
▁없 도록
▁4 세
▁재 활
▁〈 동
하기 보다는
▁안 성
▁적 갈색
▁표 면의
▁7 1
▁증 산
▁저 택
▁더 듬
▁집 단이
▁9 편,
▁나타 냈다.

▁김 제
▁15 년
▁못 하도록
▁한국 에서
▁기록 하여
▁197 0년대에
▁생산 을
▁승 문
▁앞 에는
▁11 2
▁번 갈
▁박 지
▁줄 기를
▁줄 기가
▁투 항
▁대표 이
▁극 대
▁“ 그
▁표현 하였다.

▁뜻 에
▁접 합
▁노동 자들의
▁밀 어
▁C l
▁결과 는
▁결과 적으로
▁그림 이
▁전쟁 으로
▁유지 했다.

사회 와
▁189 0년
▁벽 에
▁품 종
▁L .
▁건축 가
▁너 비는
▁일어나 고
▁조각 을
▁압 력이
▁소설 가
▁188 3년
▁예술 가
▁내려 온
▁썼 는데,
▁개념 이다.

▁주민 들의
▁수준 에
▁분명 하다.

▁즉위 년
업무 ,
시키고 자
▁그리스도교 도
▁이슬람 교
▁유대 교
단체 인
▁장애 인
▁자극 을
▁빙 하
▁통일신라 시대
▁편리 한
▁선진 국
▁공헌 을
▁뾰족 한
▁영원 히
▁송시열 (宋時烈
▁추증 되었다.

▁헝가 리
▁촘 촘
1 가
] 는
g ,
▁ 뉘
▁ 싼
▁ 젓
提 調
가 지의
겁 게
광 대
길 은
더 니즘
돈 의
레 의
론 으로
만 세
보 전
복 시
브 리아
세 력을
세 계의
순 의
승 의
시 계
시 장이
애 나
억 원,
예 요.

우 주
적 이며,
정 에서
직 의
커 니즘
하 우스
헌 의
▁이 무
▁이 탈
▁대 각
▁등 에서는
▁기 관의
▁전 제로
▁전 역에서
▁시 멘트
▁정 언
▁자 에게
▁2 인
▁2 명의
▁다 채
▁위 주의
▁조 영
▁나 올
▁동 ·서
▁상 계
▁상 응
▁원 추
▁소 박한
▁있는 가
)· 경
)· 의
▁도 쿠
▁성 별
▁강 에
▁우 측
▁산 에
▁〈 조선
▁단 계를
▁변 하지
▁초 본으로
▁추 격
▁권 리가
▁과 연
▁포 항
▁민 사소송
▁점 의
▁요 크
▁증 상을
▁호 위
▁농 지
▁10 6
▁돌 이
▁합 리적
▁창 단
▁백 운
▁있었 다.
▁연구 ,
▁되어 야
▁이르 면
▁봉 우
▁경제 는
▁허 가를
▁제2 대
▁일부 로
▁맞 은
▁질 문
▁생각 한
▁날 개가
▁인구 밀
▁육 체
▁막 고
▁자유 와
▁주장 은
▁발달 된
▁그림 과
▁이전 부터
▁190 1년
▁1, 8
▁임명 되었으나
▁빠 르
▁지배 권을
▁요구 했다.

▁노래 는
▁게 르만
▁학교 에서
방법 은
지방 을
▁흥 미를
▁왜 곡
▁소장 .
▁과거 에는
▁결합 한
▁움직 임을
▁파견 되었다.

▁년 간
기간 은
▁바꾸 는
▁완성 했다.

▁바다 를
▁무엇 인가
▁억 울
▁사상 적
▁듣 는
▁갈등 이
지대 에서
▁농촌 의
▁아마 추어
▁한반 도의
▁1/ 2
▁계절 에
▁포기 하고
▁이룩 한
▁탕 으로
▁석회 암
▁험 준
▁간략 하게
▁미군 정
그네 슘
▁유력 한
▁멈 추
▁리더 십
) 되었다.

o ok
〉 으로
宗 )의
川 )
가 지를
고 와
녀 (
도 도
례 는
버 린
보 존
북 한
분 열
상 공
세 공
시 민
안 군
언 론
제 인
조 절
짓 는
찰 (
판 윤
편 과
해 한
현 에
▁이 덕
▁대 우
▁지 침
▁제 석
▁시 바
▁시 흥
▁정 맥
▁2 세기
하였 다

▁관 용
▁관 리가
▁되 살
▁동 이
▁구 해
▁구 하기
)· 권
)· 우
▁생 명의
▁성 북
▁성 주
▁영 천
▁교 토
▁통 치를
▁미 나
▁우 유
▁현 미
▁결 핵
▁종 목
▁단 체가
▁단 가,
▁양 육
▁‘ 정
학교 ,
▁화 면
▁함 

▁뒤 집
▁포 자는
▁민 영
▁속 도는
▁점 진
▁요 동
▁8 개의
▁회 사가
▁금 욕
▁광 대
▁사회 는
▁참 조
▁백 화
▁용 어로
▁구성 하고
▁채 널
▁생산 과
▁에 피
▁환 상
▁박 영
on s
▁자연 에
대학교 와
▁리 보
▁영국 으로
▁노동 자의
▁필요 할
▁버 지니아
▁문학 에
▁제작 했다.

▁유럽 에
▁기본 으로
▁해당 되는
▁흔 적
적이 고,
▁곡 을
▁5월 에는
▁전문 가
▁분포 하는
▁규모 를
▁188 5년
▁주변 에서
▁인도 에서
▁빛 깔
▁남쪽 으로는
▁통합 되었다.

다( →
▁파견 되어
▁주도 한
▁근로 자
은행 이
상태 가
▁반복 적인
해지 면서
▁독자 적으로
▁나오 는데,
▁부담 을
▁방식 에
oc k
▁바라 보
▁이념 을
▁뛰어나 다.

▁덩 어
▁뚫 고
▁염색 체
▁몸길 이는
▁서원철폐 령으로
디자 이너
) 된
) 부터
/ s
2 O
> 과
R I
t s
· 7
▁ 켜
▁ 리를
▁ 옵션
〉 이다.

狀 )
銘 )
각 되어
개 와
개 인의
개 소,
견 을
골 이
관 음
란 ,
림 으로
말 에는
메 일
미 국
박 하고
반 야
발 표
승 이
신 한
영 과
장 사
조 에서
집 과
츠 키
층 ,
카 스
터 키
학 과를
▁그 치지
▁사 인
▁대 화를
▁기 뻐
▁기 입
▁기 관을
▁제 자가
▁일 제에
▁중 복
▁2 명,
▁유 물을
▁조 계
▁나 를
▁나 섰다.

▁부 추
▁고 래
▁동 정
▁상 급
▁소 홀
▁발 기
)· 청
▁문 경
▁여 자의
▁내 릴
▁내 린다.

▁영 역에
▁교 류를
▁마 산
▁오 렌지
▁바 라는
▁바 치는
▁무 상
▁강 으로
▁선 행
▁불 상을
▁우 라늄
▁반 달
▁반 역
▁〈 구
▁단 절
▁단 조
▁안 타
▁평 원
▁함 부로
▁배 추
▁감 행
▁7 .
▁외 에는
▁외 부의
▁농 악
▁집 현
▁김 천
▁12 3
▁열 린다.

부분 의
▁죽 기
▁죽 는
▁기록 하였다.

▁이용 되는
)」 을
▁향 상을
▁끝 났다.

an s
▁자연 스러운
대학 원
▁조직 에
▁섬 은
▁계속 된
~1 3
▁밀 직
교육 은
▁A meric
▁아래 의
▁메 이지
▁중요 무형문화재
▁전쟁 은
▁잎 과
▁역할 이
▁사업 에
▁그리스 도의
▁낮 고
▁음악 적
▁떠 났
▁기업 은
▁발표 된
▁수록 한
▁규모 로
▁제공 한다.

▁교회 에
▁쌓 여
▁갖추 게
▁G e
▁드러 난다.

▁마음 으로
▁벗 어난
▁스스로 를
▁처리 할
▁소재 를
▁작가 가
▁씨 족
▁히 브리
▁아직 까지
▁흘러 든다.

▁얼굴 에
▁반영 하는
▁아름다 움을
▁제거 하고
정치 적
▁선정 되었다.

▁귀국 한
▁비율 로
▁젖 을
민주 당
▁느끼 고
▁삭 제
▁도착 한
▁우승 을
▁전망 된다.

▁충실 히
▁청동기 시대
▁2013년 >

▁김일 성
▁손가락 을
민정 음
▁아이디 어를
▁웨일 스
셰비 키
무량수 경
( 天
( 尹
C C
N P
r in
y )
y st
▁ 퀴
▁ 풋
▁ 횟
』 에는
世 子
安 東
文 )이
禪 師
賦 )
가 능
겨 드
공 사를
관 측
교 수
국 보
꽃 은
노 미
다 '
달 라고
대 군(
도 사
동 구
동 지
란 에
반 대
발 로
불 과
불 상
빈 (
산 림
생 한다.

시 마
웠 던
자 고
자 재
자 신의
작 의
제 도(
최 고
카 를
타 리
투 표
트 페
현 배
현 상을
▁것 들은
▁전 북
▁시 기가
▁중 기의
▁주 행
▁고 증
▁의 의
▁구 간
▁하 락
▁연 령
)· 선
)· 역
)· 천
▁신 진
▁도 (道
▁마 그
▁장 남
▁장 차
▁장 소를
▁오 언
▁바 꾼
▁강 진
▁없 습니다.

▁후 대의
▁말 하자
▁실 은
▁사람 인
▁변 한다.

▁배 후
▁추 밀
▁법 규
▁입 주
▁경우 이다.

주의 ,
▁회 사를
▁외 상
▁더 구나
▁본 사는
▁본 질을
▁10 5
▁음 이
사( 大
▁작품 들이
▁철 학의
▁순 교
▁되었 는데
▁교육 이
▁앞 세
▁효 력이
▁가운데 에는
▁봉 해
▁드 럼
▁베 토벤
▁발전 이
▁문화 예술
▁투 명한
▁변화 하는
이었 고
이었 지만
▁리 드
▁조직 한
▁섬 과
▁측 량
▁먹 으면
▁수도 인
▁평가 되고
▁메 커니즘
▁개발 되었다.

▁맡 게
▁비교 할
▁마을 이
▁마을 로서,
▁밑 에는
시켜 야
▁높이 기
▁않았 을
▁와 서는
▁기재 하고,
▁농업 과
▁발행 하는
▁칼 을
▁소유 하고
▁굴 절
▁경기도 령
▁기관 지
▁제한 된
▁끌 어들
▁겪 었다.

▁제6 6
8년( 고종
▁혜 택을
▁효율 성을
▁슈 퍼
·가 을
▁바이 올린
▁나오 고
▁북서 쪽
▁문서 이다.

▁중시 하는
▁끝나 면
▁반도 체
▁풀려 나
)〉 》에
▁피라미 드
▁세르 비아
▁비고 

▁발( 跋)
롤라 이나
' 이라
S O
r es
t o
▁ 랑
▁ 엷
▁ 랴오
극 단
녀 는
녀 의
레 가
레 스트
로 그
모 든
무 에
문 제가
법 ·
법 적
복 ,
부 리
분 비
약 은
열 대
오 게
왕 과
우 왕
전 국
전 산
정 치를
텔 레스
포 도
푸 스
하 루
학 부
혁 신
호 흡
혼 (
▁이 태
▁있 으니
▁사 범
▁수 동
▁기 가
▁기 인
▁기 계를
▁기 회가
▁자 국
▁일 차
▁중 ,
▁보 강
▁보 름
▁다 니는
▁관 을
▁고 운
▁의 령
▁동 시
▁상 무
▁원 리와
▁신 랄
▁신 민
▁문 장을
▁여 성이
▁내 에는
▁도 피
▁해 운
▁장 신
▁장 이
▁무 속
▁거 꾸
▁특 색
▁방 안을
▁4 )에
▁말 하고,
▁계 룡
▁물 기를
▁사람 과의
▁왕 조는
▁파 산
▁추 계
▁권 리와
▁법 원의
▁8 ,000
▁농 도가
▁처 한
▁청 정
▁피 에
▁이후 ,
▁이후 로는
▁창 녕
▁천 태
▁복 부
▁있었 으므로
▁로 봇
▁생산 되고
▁순 찰
▁알려 지게
▁B l
▁힘 의
▁친 환경
▁돌아 다니
▁주장 하고
▁그림 에
▁민족 이
▁실시 하여
▁얼 룩
▁190 3년
▁P ar
시켰 고,
사회 가
▁불교 는
▁어려 움이
▁언어 와
▁설명 했다.

▁분야 를
▁진행 되고
▁장식 된
▁테 오
▁출판 된
▁학생 들을
▁R NA
▁띠 며
▁비판 하고
▁동쪽 으로는
.... ....
▁편찬 에
▁근거 가
▁지원 하는
▁불가 피
▁위원 회
▁고향 에
▁죽음 에
▁사진 을
▁단계 로
▁가장자 리는
테르 부르크
▁곱 게
▁어울 려
▁감옥 에
▁썰 어
▁과도 한
▁뮤 지
▁컸 다.

▁한가 운데
국토 교통
· 단
· 피
▁ 콤
中 樞
事 )로
司 馬
軍 )
경 험
공 고
극 장
나 에
녀 를
높 은
당 인
두 가
두 로
디 스
림 과
망 과
명 사
법 이다.

손 의
수 (金
숙 이
앤 젤
읍 의
익 (
작 이
작 위를
조 계
증 으로
차 와
크 스
타 는
토 리
투 쟁을
티 브
한 은
헌 납
협 회의
▁1 억
▁사 기
▁사 슬
▁사 상에
▁수 량
▁대 결
▁대 부
▁지 류
▁지 을
▁지 체
▁가 면서
▁기 체의
▁전 류가
▁정 3품
▁아 홉
▁다 다
▁유 의
▁고 쳤
▁서 비
▁원 나라에
▁발 병
)· 중
▁문 장이
▁바 티
▁강 의를
▁선 명
▁우 려가
▁결 핍
▁종 이를
▁받 치고
▁진 학
▁물 체를
▁[ 국토교통
▁사람 이었다.

▁화 재
▁평 민
▁평 화를
▁변 혁
▁적 혈
▁스 피
▁민 감
▁감 지
▁회 원으로
년( 숙종
▁지역 ,
▁금 전
▁크 기를
▁삼 별
▁살 필
▁시작 된다.

▁길 러
▁총 사령
▁죽 이
▁항 생
▁196 0년대에
▁취 할
▁11 3
▁이상 ,
▁중국 ,
▁중국 으로
▁베 버
▁베 스트
▁발전 은
▁문화 는
▁경제 성
▁문제 와
스트 레일리아
▁했 다.
지로 부터
▁별 개의
위원 을
▁섬 에서
▁작성 하면
▁설립 되어
▁범 위가
▁메 시
▁개발 도상
or ld
▁전통 이
▁뿐 ,
▁이전 하였다.

▁실시 할
▁벌 여
▁궁 내
▁운동 과
▁P .
▁음악 은
▁제3 차
▁벽 을
▁녹 음
▁1일 -
▁10월 에는
▁길이 로
▁전국 을
▁계획 에
▁법률 의
▁정신 과
ic al
▁설명 하였다.

▁대신 하여
▁트 루
▁오늘날 까지
▁계약 의
▁내려 오는
▁싸 워
mm 로
▁드러 난
▁유전 적
▁없어 졌다.

▁서쪽 으로는
▁저항 을
▁거두 지
▁항목 으로
▁하천 의
▁숨 을
스럽 고
▁증거 가
▁해양 수산
▁꼽 을
▁대성 당
▁멤버 

▁불안 정
~19 0
▁철저 하게
이크 로
▁최종 적으로
▁노르 웨
▁영원 한
▁잎자루 가
▁샌 프란시스코
▁관음 보살
강수 량은
▁지장 보살
아미 타
▁주민등록 번호,
▁텍사 스
▁상대방 에게
마케 팅
▁종( 種
▁도쿠 가와
▁[국토교통 부령
( 東
- 5
1 .
A D
g (1
· 국
▁ 펌
▁ re
同 知
동 굴
들 에서는
들 로는
로 니아
르 ,
마 트
명 이었다.

미 와
받 기
변 호
보 감
본 ,
봉 ,
부 정
상 품의
새 를
설 비
순 으로
약 용으로
연 산군
오 와
운 드
원 들이
장 에는
저 수
제 어
줄 기가
지 대가
직 할
짜 리
축 (
축 이
층 (
타 (
터 에서
티 스
학 에서
해 동
했 으므로
혈 압
협 회(
▁이 마
으로 의
▁사 탕
▁기 를
▁자 행
▁일 제가
▁보 이며
▁아 기가
▁경 지
▁경 기가
▁다 툼
▁위 엄
▁인 생의
▁서 문
▁상 감
▁원 예
▁원 자의
▁소 가
▁소 장의
▁모 금
)· 마
)· 호
▁신 념
▁교 도
▁만 남
▁만 의
▁장 군의
▁오 하이오
▁바 쳤다.

▁강 우
▁없 다

▁우 월
▁우 호
▁실 로
▁진 리를
▁‘ 아
▁행 장·
▁6 )에
▁뒤 쪽
▁표 지
▁군 정
▁스 칸
▁법 이
▁속 에는
▁요 건
▁더 운
▁조선 공산당
▁필 립
▁금 산
▁10 세기
▁집 단을
▁태 조가
▁청 룡
▁음 반
▁철 제
▁철 도와
▁자신 과
▁제1 7
▁로 빈
▁절 벽
▁곳 에는
▁손 바닥
▁향 하는
▁향 기가
▁검 열
▁검 정
▁했 고
▁누 렸다.

▁형성 에
)’ 이
▁협 정을
교육 과
▁A D
▁눈 으로
▁로마 를
(18 0
▁야 간
▁색 의
▁유럽 과
▁관리 할
적이 지
▁189 7년
▁주변 에는
▁장식 한
▁움직 인
▁전투 에
시간 ,
▁소속 되어
▁낳 는
▁아름다 움
조판 서가
▁위험 을
▁빨 라
▁옛날 부터
▁엄격 히
▁국토 의
▁가장자 리가
▁대응 하는
▁깔 고
▁물러 났다.

▁뼈 가
▁색깔 이
▁알렉산 드로
▁편리 하다.

▁얇 게
▁행해 진다.

▁특이 하다.

▁일부개정 

▁하인 리히
▁퀘 벡
▁카사 노바
· 말
▁ 뜬
▁ 빵
▁ 끄는
日 本
韓 國
다 '는
들 레
디 스크
라 .
란 으로
로 니
름 ,
매 우
명 칭
무 ,
문 집
반 구
방 언
백 제
복 은
분 한
소 인
숭 배
숭 이
슨 이
씩 의
업 으로
예 산
옹 (
요 일
이 준
인 종
인 천
일 수록
저 작
주 역
청 과
촉 진
풍 ,
풍 속
한 글
현 재
현 상이
형 제
화 했다.

화 되지
▁1 개월
▁사 물의
▁수 륙
▁전 력을
▁한 꺼
▁제 천
▁제 도에
▁시 (
▁일 자,
▁2 세는
▁보 석
▁아 부
▁아 스
▁아 인
▁다 카
▁인 증
▁부 계
▁고 종의
▁고 개를
▁공 기의
▁비 추어
▁구 름이
▁상 공
▁소 독
▁연 유
▁신 호
▁3 부
▁성 에
▁장 (
▁장 사
▁장 흥
▁장 기간
▁않 습니다.

▁남 편이
▁불 합
▁산 호
▁재 학생
▁당 나라에
▁양 전
▁받 고,
▁두 었으며,
▁각 자의
▁' 오
▁최 남
▁최 충
▁최 후의
▁군 대에
▁법 원이
▁학 위를
▁증 상은
▁조선 을
지는 데,
▁금 성
▁청 자
▁토 지가
▁아니 며,
▁참 모
▁살 려
▁살 아가
▁일본 에서는
▁황 토
므로 ,
▁쓰 이게
▁절 단
▁순 서로
▁중국 은
▁끝 날
on e
▁온 화한
▁201 5
▁방법 ,
▁들 려
▁질 병을
▁도시 에서
▁했 기
대학교 를
▁만들 기도
▁협 동
▁인구 :시
▁찾 고
▁밀 도가
▁머 리카
al e
▁개발 한
▁잎 겨드
▁직접 적으로
▁바로 크
▁곡 선
▁인정 하지
▁기준 에
▁9월 에는
▁세포 가
▁삶 과
▁가르 치고
▁휴 가
▁휴 식
▁이탈리아 에서
▁움직 임이
계약 을
▁비롯하여 ,
▁드러 내고
▁보아 야
▁제시 하였다.

▁재배 된다.

▁분리 된
▁산맥 과
▁풍부 하다.

▁참가 하여
과학 기술
▁겨울 에
▁3년 간
▁혁명 적
▁넘어 갔다.

▁행사 할
▁있음 .
▁붉은 색
▁융 기
▁끊 이지
▁부정 적
▁전설 에
▁아마 존
▁지키 기
▁알렉산 더
계급 의
▁75 7년(
▁노란 색
▁돋 을
▁얹 어
▁대원 군의
▁바이러 스
▁의거 하여
▁장방 형
▁손해 배
학년( 이준
춘향 전
▁암모 니아
▁미시 시피
▁메소포타 미아
▁거꾸 로
학년(이준 용)
- 3
≫ 는
▁ 릴
▁ 잭
」 와
家 )의
山 )의
石 )
論 )
面 )
가 정
경 종
공 장,
균 (
녀 가
더 스
료 가
료 는
말 까지
망 원
메 니아
미 에
바 탕
방 위
봉 이
뿐 이다.

사 육
사 화
사 회를
산 인
새 가
씨 와
연 극
연 은
의 원
정 서
졌 기
졌 지만
주 )
주 기
주 어
즈 는
지 도록
천 문
테 의
해 줄
현 동
▁이 병
▁이 질
▁그 냥
▁사 촌
▁수 명이
▁대 고
▁가 두
▁가 시가
▁것 에서
▁기 질
▁기 원은
▁기 름을
▁중 용
▁아 치
▁아 이가
▁경 이
▁유 학자
▁유 학생
▁조 류
▁인 식을
▁의 의와
▁상 ·하
▁모 더니즘
)· 문
▁신 분을
▁여 지가
▁영 감을
▁선 종
하게 도
이라 기보다는
▁노 랑
▁설 도
▁설 법
▁대한 불교
▁역 으로
▁' 사
▁왕 자
▁초 빙
▁출 마
▁간 다.

▁입 적
▁약 을
▁8 7
▁10 4
▁집 착
▁광 둥
▁피 하기
▁나타 납니다.

▁못 지
▁작품 과
▁복 종
▁총 리가
▁올 렸
▁카 자
▁취 하는
▁11 8
▁손 님
회의 의
▁온 실
▁글 자가
▁중앙 위원회
▁인간 에게
▁만들어 져
들과 는
)’ 라
▁노동 요
al )
▁넓 혀
▁로마 로
▁견 디
▁페 니
▁그리스 도
▁흐 르고
▁증가 하는
▁I T
▁계획 은
▁여기 서는
▁키 케
▁188 0년
▁치료 가
▁업무 가
▁가족 과
▁발행 한
▁착 취
▁명칭 이다.

▁가까 워
▁통합 되어
레스 테
▁농민 들의
▁N a
▁민주 당
▁바다 로
▁아무 도
▁분명 하게
▁사망 한
▁일정 하지
▁배우 고
▁삼국 시대에
▁생성 된
▁무렵 에
▁통과 하는
▁유적 의
▁U N
▁출발 하여
▁끓 인다.

▁북서 쪽으로
▁너무 나
▁그중 에서도
▁타원 형으로
▁숲 이
▁언급 한
청년 회
▁싶 어
▁원산 지
▁두드러 지게
▁신성 한
▁토양 은
▁대량 으로
▁돼 지
▁훼 철
▁놀라 운
▁지칭 하는
▁덧붙 여
▁추모 하기
▁부드럽 고
▁켈 트
▁이이 (李珥
(영 )
▁한꺼 번에
i le
· 기계
≫ 이
▁ 뽕
▁ 엇
▁ 퉁
▁ 됨으로써
學 )
宗 )
法 )
값 을
건 조
견 적
구 니
네 .
네 는
네 이
데 이
디 의
라 .”
락 에
래 스카
론 하고
루 를
만 과
명 령
바 흐
방 ,
번 ,
벽 (
붉 은
사 우
성 왕
세 스
송 은
승 지
실 업
았 다는
여 행
연 ,
요 .
점 검
조 건을
처 에
치 며
터 로
폐 합
현 과
화 물
▁이 경
▁이 빨
▁이 제는
▁이 라크
▁대 마
▁대 가를
▁등 지의
▁기 르고
▁한 (漢
▁시 점
▁일 삼
▁일 생
▁중 개
▁조 반
▁인 과
▁나 갔
▁고 사
▁고 기를
▁공 시
▁동 물이
▁서 부의
▁3 세는
▁문 장의
▁여 생을
▁도 매
▁영 화의
▁만 날
▁남 을
▁남 해안
▁오 픈
▁오 사카
▁바 둑
▁무 과에
▁강 대
▁불 상은
▁후 원을
▁반 도의
▁산 소가
▁두 터
▁[ 서
▁[ 구성
▁안 녕
▁배 수
▁적 다.

▁간 척
▁스 크
▁속 은
▁속 하며,
▁학 자들이
▁회 유
▁직 경
▁조선 노동
▁달 이
▁크 기에
▁삼 존
▁청 산
▁음 향
▁천 도
시대 를
▁『 대학
▁채 광
▁하나 하나
▁철 강
▁면 접
▁연구 하여
▁타 이어
▁사이 가
▁제1 69
▁이용 하고
▁지방 에서는
▁활동 하는
▁에 헤
▁국가 적
▁갖 가지
▁교육 은
▁번 씩
▁미국 을
▁다음 에는
▁발전 의
▁경제 가
▁경제 를
▁검 색
▁발생 했다.

▁은 둔
▁협 상을
▁꽃 의
▁막 내
연구 원
▁존재 로
▁독일 과
▁놓 는다.

▁관리 ,
▁건설 했다.

▁제3 0
▁형식 ]
▁품 명,
▁L if
▁높이 의
▁법률 을
▁땅 에서
▁나무 에
▁자리 하고
▁188 9년
▁188 6년
위원회 에
▁학생 들이
▁반응 은
▁달리 ,
▁헤 겔
it e
▁활용 하여
▁마련 했다.

▁규정 되어
▁외국 어
▁187 6년
▁24 )
▁민주 화
·사 탕
et y
▁제정 ,
▁부여 하는
▁하늘 에
▁바다 에서
▁이야기 이다.

▁기반 이
▁괴 롭
▁겪 고
▁점령 했다.

▁기원 하는
▁기둥 을
▁젊은 이
▁절대 적인
▁계곡 을
▁하루 에
▁일대 에는
작용 이
▁대항 해
▁1,000 여
▁집안 에서
마루 를
書院 )에
▁돕 는
▁성균관 대학교
iv ers
▁암컷 은
▁마르크 스
▁우아 한
▁석가모 니
▁일본경찰 에
( W
9 )
e le
o h
” 라고
▁ 냈다.

城 )
士 )
天 下
氏 )의
가 시
강 원
교 환
권 에서
달 의
돌 아
동 생
들 었다.

디 시
래 를
럼 비아
로 이드
리 도
리 언
문 법
브 란
사 원
상 ·
상 대
새 는
수 익
술 에
실 베이
심 판
염 은
였 다.
영 국
옥 은
원 리에
의 학
잉 글랜드
장 로
주 지
진 으로
창 조
처 는
처 마
초 부터
춘 (
터 ,
풍 에
프 ,
하 더라도
해 주었다.

▁이 완
▁이 조참판
▁수 면
▁대 회에서
▁것 •
▁전 락
▁시 내
▁정 진
▁일 원으로
▁중 이
▁2 회
▁경 덕왕
▁위 장
▁관 점
▁조 인
▁인 도와
▁부 위를
▁고 개
▁의 회는
▁동 등한
▁비 (
▁구 워
▁구 하는
▁원 인으로
▁세 무
▁문 과
▁여 겼
▁영 화를
▁장 교
▁장 학
▁오 전
▁무 조건
▁미 만
▁선 으로
▁선 수가
▁분 담
▁산 신
▁많 으며
▁‘ 무
▁행 렬
▁행 위에
학교 와
▁화 자의
▁그러 던
▁뒤 덮
▁매 월
▁법 원에
▁입 찰
▁직 장
▁지역 이다.

▁태 자
▁9 7
내용 ,
▁시작 하는
▁많은 데,
▁용 두
▁항 의
▁자신 들이
▁연구 한
▁이용 했다.

▁에 티오
▁교육 ,
▁11 세기
▁끝 에서
▁온 도를
▁의미 와
▁설치 ,
▁일부 와
▁≪ 조선
▁주요 농
▁묘 표
▁표현 할
▁표현 으로
▁생각 은
▁준 비를
▁탄 화수
~1 1
▁개발 하여
▁빈 민
▁눈 썹
문학 이
▁곧 이어
▁운영 되고
▁브 뤼
▁수행 한다.

▁너 머
▁조각 되어
▁옮 기
▁갑 작
▁비슷 하게
▁탈 피
▁쉽 고
▁공급 하는
▁사항 ]
▁공격 하는
▁전해 져
항목 ,
▁건물 로
▁유전 자의
▁해결 하는
자료 를
▁뒷 날
▁최근 의
▁과학 적인
▁끼 친
▁덮 어
▁봄 ·가을
연합 회
23 년(
▁조정 에서
▁창건 하여
▁장악 한
▁회의 에서
▁수술 은
▁끓 여
▁꼽 히는
▁찍 은
▁소송 을
▁비밀 리에
▁늦 게
▁권2 는
▁동원 하여
▁벌어 졌다.

▁뛰어 넘
學校 )를
▁생애 를
▁발원 한
▁불가능 한
▁이성 계
▁새끼 를
▁조항 을
▁냄새 가
▁지극 히
▁렌 즈
▁[서 지적
% 에서
) '
< 조사년도:
▁ 쑥
▁ 웰
▁ 들을
制 )를
寺 )를
正 )
部 )
곡 리
기 간에
너 는
논 어
다 양한
되 기에
라 에
라 .

러 의
마 이
망 (
몸 을
물 질을
뮤 니
산 도
소 학
손 이
열 의
자 들에
자 로서의
정 비
족 ·
증 후
질 토
침 (
캐 롤라이나
케 이
크 ,
타 이어
포 ·
항 으로
해 수
황 (
황 이
▁1 회
▁사 과
▁가 계
▁가 사는
▁기 원을
▁자 진
▁주 종을
▁고 도가
▁서 리
▁구 연
▁구 준
▁원 가
▁연 립
▁3 권
▁도 식
▁도 화
▁해 준다.

▁교 가
▁마 리의
▁않 자
▁무 굴
▁강 희
▁강 화를
▁강 렬한
▁미 성
▁불 렸
▁우 연히
▁말 하는데,
▁반 구
▁재 래
▁종 친
▁행 위는
▁6 ,000
▁' 나
▁왕 인
▁파 울
▁최 치
▁차 관
▁북 부에
▁법 원
▁8 )에
▁회 상
▁지역 적
▁살 기
▁살 이
▁16 세기에
▁복 위
▁면 .
▁연구 했다.

▁황 제는
▁황 갈색
▁풍 수
▁앞 바다
▁드 디어
▁13 1
▁줄 곧
(金 昌
▁다양 하고
▁축 문
▁부분 에서
▁계속 했다.

▁육 아
▁돌아 왔
▁독립 운동을
▁버 무
▁독일 에
▁음악 이
▁옥 수
▁수행 직무
▁구분 이
▁긴 급
▁담당 한다.

기술 의
▁한편 으로
▁옮 긴
▁헌 법에
▁혈 연
▁188 8년
▁188 1년
▁예술 적인
▁숙 련
▁찬 송
▁내려 오
▁헤 아
▁현실 적인
▁d er
▁울 창한
▁공격 하여
▁익 산
▁성장 한
▁전시 하고
▁듯 이
▁믿 을
대회 에
▁벼 농
▁전투 가
▁뿌 리가
▁시설 이
▁물리 치고
▁이끌 었다.

▁읽 는
▁무엇 일
▁무덤 은
▁섞 인
▁권한 이
▁수술 을
▁절대 적
▁검은 색
▁한글 로
▁백성 들을
▁대항 하여
▁삼각 형
관찰 사로
▁조작 하고
▁발휘 할
▁어디 에
세종 실록
▁관상 용으로
▁물고 기
▁달성 하기
▁돼 지고
협의 회
▁불어 넣
▁묘지 명
%) <조사년도:
▁도미 니
▁평평 한
▁굶 주
▁757년( 경덕왕
( 上
6 00
p l
v en
~ 60
∼ 10
▁ 났
▁ 큐
▁ 텔
山 )에
念 佛
가 례
강 화
거 를
거 울
네 /
당 하는
대 행
르 면서
막 은
무 기
미 륵
봉 의
비 평
산 지
상 법
생 태
생 으로
설 계
성 분
순 을
실 적
영 (李
우 지
융 합
일 정
임 .
장 에서는
장 비에
창 이
치 면
쿠 라
크 에
크 와
트 에서
특 히
피 스트
필 로
호 선,
화 문
화 상
효 과를
▁이 득
▁수 심이
▁대 단한
▁등 에는
▁기 기
▁전 진
▁시 립
▁시 장에서
▁중 력
▁주 제가
▁경 지에
하였 으므로
▁동 력
▁비 의
▁상 경
▁상 소를
▁여 겼다.

▁내 적
▁성 남
▁어 진
▁어 쩔
▁장 서각
▁강 하다.

▁선 이
▁특 권
▁말 하며
▁현 상으로
▁산 후
▁진 을
▁물 로
▁‘ 나
▁화 재로
▁' 미
▁배 경을
▁사용 이
▁사용 자가
▁차 차
▁과 다
▁점 도
▁입 헌
▁입 힌
▁학 급
▁저 자
▁호 기
▁농 노
▁새 우
▁크 기와
▁김 기
▁김 옥
▁12 2
▁못 했던
▁치 안
▁치 중
▁한국 과
▁지방 은
시키 는데
▁중국 이
▁논 쟁이
▁설치 하는
▁이어 진
▁검 증
▁질 이
▁좋 고
)’ 로
)’ 으로
▁접 어
en e
▁돌아 오는
▁같이 ,
▁범 위는
▁폭 포
▁결정 에
▁사업 자
▁관리 하기
▁음악 에
▁비교 하여
▁건설 을
▁마을 에서
▁뉴 스
▁조각 의
▁상황 은
▁대통령 에
▁않았 고
▁학교 에
▁정신 적인
▁언어 는
▁분야 로
▁치료 는
▁학생 이
▁탈 취
▁지급 하는
시간 을
▁노력 으로
▁쇠 고
▁기관 으로
▁풍부 하게
▁작곡 한
▁시민 의
▁소속 된
▁연합 하여
00년 경
▁삼국 시대의
정치 의
되었다가 ,
em ent
▁아프리카 의
▁시험 을
▁의무 가
▁율 리우스
▁욕 구
▁대동 강
▁당사 자의
▁어깨 에
▁보편 적
▁캐나다 의
▁늘어나 고
▁둥글 고
▁객관 적
▁엮 어
명세 서,
▁해수 욕
▁플랑 드르
▁가로지 르는
가치 관
▁종업 원
▁프레스 코
▁로스 앤젤
( x
> 와
] 은
e ar
· 8
· 좌
▁ 新
▁ 듀
▁ 뜰
▁ 찢
▁ 콧
▁ 퀸
▁ 폈
▁ 푼
▁ 핑
史 )
圖 說
學 )을
府 院
本 )
각 에
계 절
날 을
단 백
독 의
돌 프
릉 의
린 (
마 리아
마 이오
면 적의
박 사학위를
발 행
범 (
벽 은
변 으로
부 신
사 다
사 시
살 촉
생 식
술 과
승 으로
신 탁
아 동
아 파
약 으로
연 탄
영 상
오 가
원 수
음 )
잠 (
제 르
지 시
짐 으로써
척 (
치 고,
패 는
폭 력
풍 으로
하 겠
해 준
향 교
화 할
희 가
▁이 겨
▁이 들에게
▁그 로부터
▁수 성
▁수 은
▁수 단이
▁대 덕
▁대 에
▁가 상
▁등 에도
▁기 르는
▁정 서를
▁위 쪽에
▁관 아
▁고 쳤다.

▁의 식의
▁동 명
▁동 위원
▁동 유럽
▁동 대문
▁비 천
▁상 사
▁상 담을
▁모 시는
▁연 기를
▁발 칸
▁발 톱
▁발 트
▁발 가락
▁3 분의
▁문 수
▁문 정
▁국 자
▁영 수
▁장 을
▁장 식을
▁오 랑
▁우 뚝
▁우 정
▁후 세에
▁종 군
▁종 들은
▁명 성이
▁왕 복
▁변 성
▁포 착
▁입 구에
▁직 무를
▁저 축
▁운 명을
▁금 관
▁10 7
▁크 리
▁돌 보
▁김 윤
▁살 피
▁작품 으로,
▁200 3
▁200 6
▁구성 이
▁중심 에
▁치 러
▁철 도,
▁병 설
▁198 0년에
▁완 수
▁승 리로
▁현재 에
▁미국 인
▁하여 야
▁사실 적인
▁설치 하고,
▁프랑스 로
▁극 도로
▁폐 위
▁급 경
운동 으로
▁생각 하여
▁발생 하여
▁협 정,
▁섬 으로
▁노동 력을
▁몸 무
▁개발 하는
▁S h
▁발달 하여
리고 분
▁국민 이
▁유지 하면서
▁루 이스
▁임명 되었고,
▁패 널
▁조각 이
▁계획 이
▁러시아 는
▁러시아 와
▁넣 는
우스 가
ic e
at a
지방 에서는
▁싸 웠
▁싸 움을
▁역임 한
▁행동 에
▁썼 으며,
▁파악 하여
▁근대 적인
▁따르 지
▁성격 ,
▁성격 에
▁유래 된
▁비판 적
▁작업 이
ro m
조직 은
무늬 토
▁균 일
▁흰 색의
▁덮 은
▁꾸 몄
.3 .2
▁여름 철
▁끌 었다.

▁반영 한
.0 1
▁괴 로
▁능력 에서는
▁겪 는
▁솟 은
▁기울 여
차례 의
사람 을
▁전후 하여
▁유행 하던
▁개설 되어
▁남서 쪽
▁콩 고
▁화려 하게
▁머물 러
▁혼란 을
▁약속 을
▁빠져 나
요, 

▁중엽 에
▁스코틀랜드 의
▁곳곳 에서
▁줄어들 었다.

정신 적
▁일컫 는다.

▁농산 물은
글로 빈
▁백두 산
▁간격 으로
▁링 컨
▁생생 하게
▁그레이 트
▁III -
▁모로 코
▁비스듬 히
트페 테르부르크
▁돋을 새김
2 품
6 ),
f t
i ti
w w
· 5
· 저
▁ 꽤
▁ 냈
▁ 톤
▁ 에도
人 物
石 )을
碑 ,
說 )을
경 궁
계 에서는
곡 ,
군 주
기 본
돈 녕
동 적인
되 ,
들 보다
란 은
루 가
리 랑
리 우
바 나
사 법
송 을
슬 라비아
식 에서
심 으로
연 성
와 서
왕 조의
장 관으로
제 도와
조 2
주 체
척 ,
청 으로
카 테
타 인에
틀 어
해 는
해 요.

협 정
혹 은
효 소
▁이 산
▁있 은
▁있 기는
▁그 늘
▁사 관
▁수 선
▁대 내
▁대 상은
▁대 책을
▁지 형을
▁기 관이
▁기 법은
▁기 발한
▁전 역을
▁한 족
▁정 전
▁자 급
▁보 육
▁경 직
▁유 지를
▁위 법
▁부 드러
▁고 집
▁공 모
▁상 부에
▁하 남
▁모 셔
▁연 습
)· 무
)· 석
▁세 력의
▁도 리
▁성 씨
▁교 장
▁작 다.

▁작 가는
▁어 류
▁통 칭
▁마 하
▁장 난
▁장 르
▁남 편의
▁방 영
▁불 로
▁분 별
▁단 체를
▁양 잠
▁받 쳐
▁진 나라
▁18 )
▁두 르고
▁화 자는
▁것이 지만,
▁프 랭
▁요 소로
▁감 축
주의 로
▁증 발
▁편 을
▁본 거
▁10 9
▁광 택이
▁합 작
▁심 지
하지 도
▁시작 하면서
▁작품 인
▁충 성을
▁석 기
▁( 4)
▁쓰 게
▁판 본
▁에 르
er v
er 〉(19
▁번 의
▁이르 게
▁향 기
▁걸 고
▁13 3
▁논 이
나무 로
▁동안 에는
▁일부 에
▁극 동
▁폐 간
▁표현 은
▁변화 의
▁날 을
▁기술 은
▁계속 되는
▁막 론하고
▁눈 의
▁버 린
▁실시 했다.

▁견 지
▁사업 은
▁루 트
▁느 티
▁이때 는
▁차지 하며,
▁형식 과
▁지나 면서
▁나누 었다.

계획 의
▁압 박
▁대통령 선거
.1 ]
▁골 격
▁헌 법을
▁이듬해 인
▁진행 되는
▁학생 의
자료 의
as e
▁분석 과
▁추진 하고
▁근거 하여
소설 의
▁경기도 고시
기간 행
▁면적 의
▁읽 을
▁반영 되어
▁목표 는
▁184 8년
▁체결 한
▁신설 되었다.

▁알아 보
▁받아들 인
▁결성 된
▁권1 은
▁불리 기도
▁붙여 졌다.

▁벗어나 지
자본 의
▁틀 림
▁비중 은
▁II (
다” 고
▁불러일으 켰다.

▁싱 가
▁슬픔 을
위험 한
▁몫 을
조1 항
▁필라 델
▁리더십 ,
yst em
▁아인 슈타
, 9
7 ),
i o
p s
· 물
· 베
· 조선
▁ 一
▁ 땀
▁ 램
▁ al
國 )의
式 )
文 館
華 嚴
감 리
공 주
광 이
국 적
근 이
데 냐
되 나
러 가
림 은
립 (
방 아
보 리
사 고
사 단
사 진
영 업
예 의
유 치
인 구
전 지
정 복
정 종
주 사
짐 을
티 의
폴 리스
항 이
호 분은
화 되면서
활 한
후 기
후 한
▁그 럴
▁사 귀
▁수 (
▁수 납
▁수 치
▁대 소
▁지 는
▁지 위가
▁전 당
▁전 산
▁시 신을
▁정 해져
▁자 체는
▁중 첩
▁주 권
▁주 입
▁보 헤
▁보 현
▁아 기의
▁경 무
▁경 력을
▁경 비를
▁인 출
▁나 빠
▁나 주
▁부 는
▁부 인이
▁부 위에
▁고 흥
▁의 인
▁공 경
▁공 명
▁동 구
▁동 해안
▁연 이어
)· 창
▁신 발
▁영 어로
▁해 독
▁만 났다.

▁강 구
▁강 등
▁미 세
▁미 쳤
▁후 예
▁실 력
▁반 성
▁산 지로
▁산 지가
▁많 아서
▁종 식
▁종 파
▁단 계의
▁받 도록
▁명 종
▁두 개
▁행 사가
▁행 위의
)이 고
▁배 에
▁군 국
▁군 주의
▁추 운
▁그리 워
▁북 부와
▁임 산
▁입 장에
▁회 장,
▁조선 이
▁농 작
▁광 학
▁청 교도
▁9 )에
▁15 세
▁규 명
▁들어 서는
▁식 물은
▁200 1
▁타 입
▁제1 6
▁제1 ·2
▁이루어 지며,
▁쓰 레
)」 와
▁앞 쪽
▁194 0년대
▁손 상을
▁향 촌
▁갈 릴
▁했 는데
▁생활 이
위원 이
▁막 강한
▁A d
▁필요 하다고
▁기능 에
연구 소·
▁결정 했다.

▁네 이
▁견 고
▁1, 9
▁증가 하여
▁I V
▁패 턴
▁인정 받아
▁L es
▁격 려
▁커 서
▁추정 되고
▁갑 신정
▁기재 하여
▁덕 행을
▁E x
▁쉽 지
▁발행 된
▁사항 은
▁칼 륨
▁졸업 생을
ol d
▁연주 하는
▁수출 입
▁굴 복
▁잃 었다.

▁토지 소유
▁하늘 에서
▁바다 의
▁집단 으로
▁무덤 이
▁지휘 하는
▁슬 라브
▁편입 되어
▁이익 이
▁기여 한
▁고전 적인
사건 으로
▁시스템 의
▁불리 한
▁합격 하고,
▁숨 겨
▁후손 들이
▁엄격 하게
▁지내 면서
▁사냥 을
▁함경 북도
▁체험 을
▁질병 의
▁물고 기를
▁수직 으로
▁똑 같이
▁합리 적인
▁풀려 났다.

▁완벽 한
▁연중 

▁을사 조약
레스테 롤
) 만
, 0
- 8
8 ),
e g
y l
· 직
· 기술
∼ 12
▁ 늑
▁ 멍
▁ 빔
▁ 휠
」 가
」 에서
形 )
海 東
王 )의
論 )을
辭 )
錄 )에
가 ·
경 비
공 ,
공 과
구 조가
국 사(
근 을
근 의
두 의
래 로
록 을
료 와
릴 라
림 ,
먼 은
무 용
발 전에
베 르트
변 화
봉 에
부 에서는
뿌 리
상 사
세 력이
송 의
시 한
신 ·
약 에
양 과
인 이나
자 비
자 형으로
정 산
정 상
제 에서
지 향
직 과
차 게
체 제로
초 와
클 라
태 평
토 와
판 결
필 드
하 겠다고
홍 (
환 경을
▁이 끈
▁사 교
▁수 유
▁대 하기
▁가 정의
▁것 과는
▁시 중
▁시 인이
▁정 조가
▁자 취를
▁일 ,
▁일 주
▁2 /3
▁주 먹
▁아 예
▁유 곽
▁유 포
▁관 해서
▁인 동
▁인 사를
▁나 간
▁나 팔
▁의 사가
▁의 식은
▁서 류를
▁구 도
▁상 록
)· 노
▁개 명
▁세 상의
▁생 계를
▁국 정
▁국 왕이
▁여 주
▁내 걸
▁해 주는
▁미 상의
▁선 (
▁우 체
▁말 년에
▁말 하면
▁반 야
▁반 쪽
▁계 기
▁계 층의
▁산 에서
▁산 하에
(1 79
▁재 앙
▁〈 대
▁당 (
▁단 결
▁단 추
▁양 성을
▁대한 독립
까지 만
▁‘ 성
▁' 신
▁평 상
▁변 한
▁권 8
▁프 랜
▁속 에서도
▁입 력
▁경우 의
년( 영조
▁집 은
▁피 력
▁토 지에
▁김 진
▁12 1
▁하나 로,
▁판 결을
▁지방 유
▁카 드를
시키 면
▁봉 우리
▁영향 은
▁형태 에
▁발전 된
▁192 0년대에
▁폐 교
▁자연 적인
▁업 적은
▁발생 하지
▁부분 에는
▁기술 과
▁발견 되고
▁탄 력
▁혼 용
or n
▁신라 가
▁떠 오
▁수행 하기
▁제3 2
.5 cm
▁형식 이다.

▁요구 된다.

▁나누 는
계획 에
▁디 오
▁전문 대학
▁보통 이다.

▁개인 적으로
▁키 워
▁낙 엽
▁세포 는
▁출신 인
▁울 릉
▁근대 화
▁주민 은
▁187 8년
▁개최 하였다.

▁도입 된
▁도입 한
▁도입 했다.

▁산맥 이
▁화학 반응
▁정착 했다.

▁해석 을
▁후반 부터
▁완성 되었다.

▁제한 을
▁작곡 했다.

▁참가 했다.

▁구별 이
▁프로그램 의
▁런던 에
▁제거 하는
▁확보 하기
▁건립 한
개혁 을
▁견해 는
▁웅 장
▁의사 표
▁상세 한
▁보수 적인
▁시절 에
▁지붕 은
관찰 사
▁내세 워
▁없애 고
▁컨 설팅
▁성리 학의
▁2013 .3.2
▁컬 러
▁문하 시
▁아리스토 텔레스
▁불규칙 한
▁십자 군
▁자서 전
▁하와 이
▁소(疏 )
▁뮌 헨
▁부르주 아
▁소비에 트
디나 비아
실베이 니아
( O
4 ),
· 나
▁ 란
▁ 왈
▁ 좇
▁ ......
』 와
兵 馬
城 )을
山 脈
州 )의
疏 )」는
縣 )으로
議 )
기 구를
너 의
다 며
달 이
대 조
든 버러
들 에는
레 인
려 야
론 적인
마 니아
모 델
문 제는
사 상이
서 나
수 찬
순 은
스 투스
시 기는
애 국
여 를
은 (
음 식
인 수
일 반
정 권의
증 동국여지승람
차 ,
천 무
출 신
충 을
콜 라
터 와
테 른
투 르
플 루
합 을
행 성
협 회가
호 박
화 되는
활 성
▁이 괄
▁있 기도
▁1 ·2
▁사 액
▁사 정을
▁수 심
▁수 질
▁수 도를
▁가 치는
▁가 혹한
▁등 ),
하는 지
▁정 중
▁자 국의
▁자 체에
▁중 이다.

▁주 창
▁주 제에
▁유 학을
▁관 례
▁조 르
▁부 호
▁부 부가
▁고 창
▁의 회를
▁세 력은
▁여 건
▁여 자는
▁해 부
▁통 증이
▁장 소로
▁남 편을
▁오 던
▁선 정을
▁특 성,
▁없 어서
▁불 확
▁말 하는데
▁실 물
▁반 공
▁반 지
▁같 아
▁〈 유
▁양 분
▁물 류
▁물 어
▁명 문이
▁‘ 대
▁알 리기
▁예 의
▁각 지의
▁화 자가
▁것이 니
▁초 의
▁배 분
▁적 정
▁활 기를
▁속 리
▁학 설을
▁7 00
▁달 했다.

▁호 주
▁금 주
▁집 어
▁청 렴
▁합 한
▁김 용
▁창 고
▁천 하를
▁열 려
▁들어 ,
▁길 이를
▁연구 로
▁이용 하면
▁14 )에
▁절 약
▁순 창
▁지방 행정
▁198 0년대에
▁에 펠
▁11 1
▁이상 과
▁미국 ,
▁향 리
▁끝 나는
▁베 어링
(金 剛
in s
▁맞 춘
▁폐 렴
▁침 체
▁누 워
▁홍 콩
▁혼 인을
▁독립 적으로
▁애 덤
▁연결 하여
문학 은
▁곧 은
▁루 이지
▁신라 와
머니 즘
▁189 3년
▁4월 에는
▁이미 지
▁인정 받았다.

▁노래 로
▁골 든
기술 자
▁환경 에서
▁헤 르
▁클 로
▁움직 이지
▁187 4년
▁성장 과
▁잔 존
▁짧 아
▁북쪽 으로는
▁재배 한다.

▁동물 이나
▁방송 을
▁물리 학
▁선거 에
▁갈라 지고
▁겪 게
▁알아 볼
▁여겨 졌다.

아버 지
▁어렵 게
▁거부 했다.

▁무렵 에는
▁절차 에
▁계급 의
▁방식 이다.

▁극복 하기
▁생태 계
▁취득 한
▁국립중앙 박물관
증명 서
▁헬 레
▁요새 를
▁일제강점 기에
▁일어났 을
▁대조 적으로
▁낭만 주의
▁단독 으로
▁대답 했다.

▁피렌 체
▁부르고 뉴
▁분노 를
▁서대문 구
▁5· 16
18년( 현종
▁입각 하여
▁창덕 궁
( 전
J .
i al
y m
· 당
▁ 三
▁ 딘
▁ 딜
▁ 엎
▁ ch
▁ 꼼꼼
彌 陀
性 )
文 化
經 筵
가 을
것 도
곡 과
골 을
군 인
균 은
뉴 욕
는 지를
다 의
돌 로
루 의
리 그
리 콘
린 과
림 에
매 는
모 글로빈
부 사를
분 배
빨 리
수 영
숙 왕
았 기
억 원
연 과
염 의
였 지만,
영 에
올 라
인 증
있 고
잎 을
저 (
제 나
제 학
제 품을
채 ,
체 스코
축 구
트 ·
피 스
피 의
피 침
해 오
해 와
행 어
혜 (
호 )과
환 의
▁이 천
▁이 내의
▁1 층
▁1 ~3
▁1 점,
▁그 라
▁수 복
▁대 안
▁지 (
▁자 실
▁일 하면서
▁중 점
▁아 산
▁경 전을
▁조 상의
▁나 섰
▁나 은
▁의 류
▁의 문
▁의 도를
▁공 략
▁공 사의
▁공 간의
▁서 구의
▁원 자로
▁원 형의
▁소 환
▁하 대
▁하 수
▁모 세
▁연 혁
)· 『
)· 보
▁3 책.
▁세 시
▁여 자가
▁내 수
▁성 분이
▁따 랐다.

▁않 아서
▁바 꿔
▁무 지
▁미 소
▁미 만의
▁거 창
▁선 조의
▁분 쟁이
▁후 궁
▁말 단
들이 는
▁실 체
▁산 으로
▁형 의
▁명 성
▁18 00년
▁‘ 지
▁안 전에
▁각 색
▁그러 면
▁뒤 따
▁왕 가의
▁왕 비의
▁변 제
▁파 이
▁위해 ,
▁매 각
▁권 9
▁권 력의
▁민 사
▁프 톨레
▁입 문
▁학 사
▁외 형
▁데 려
▁확 고한
▁집 이
▁광 고를
▁청 계
▁청 진
▁20 만
▁살 게
▁시작 했는데,
▁백 혈
▁식 별
▁총 회
▁죽 는다.

▁충 남
▁이용 해서
▁판 소
▁관련 을
▁국가 로부터
▁11 9
▁사실 주의
▁투 쟁을
문화 적
▁급 히
▁은 평
▁좋 습니다.

▁부분 과
▁조직 했다.

▁접 하고
▁라 이프
▁측 천무
▁난 징
▁아래 쪽
▁개발 에
▁발달 과
▁애 니
ar e
▁이곳 으로
▁제작 되었다.

▁전쟁 과
▁국민 들의
▁색 은
▁임명 되었으며,
▁느 린
▁증가 하였다.

▁증가 한다.

▁희 망을
활동 과
▁수행 했다.

▁인정 되는
▁여기 저
▁걸쳐 서
▁나무 의
▁겸 직
▁플 레이
▁방향 의
▁시대 와
▁농업 이
정책 이
▁가족 이
mm ,
▁마련 하였다.

▁파악 하기
▁조사 한
▁0 .3
▁확대 되어
▁대학 에
▁짧 다.

▁칠 성
▁귀족 들의
▁조건 이
자에게 는
▁들어가 게
▁수용 할
▁31 )
과정 은
기업 의
▁실제 적인
▁상업 적
▁사망 했다.

▁O r
▁안전 하게
▁묻 는
▁읍 으로
▁참고 사항
▁확보 하고
▁경쟁 을
▁반란 이
▁생겨 났
▁주고 받은
사람 들의
▁달라 질
▁꼬 리를
▁십 자가
▁승려 가
▁70 여
▁비율 을
▁틀 을
이므로 ,
▁둘째 는
▁질환 을
▁잉글랜드 의
▁후보 로
▁한정 된
▁연관 된
▁행해 지는
▁주기 적으로
▁첫째 는
▁갑오 경
▁다듬 은
▁수업 연한
▁골짜 기
▁간접 적으로
▁가깝 게
▁그만 두
▁주위 에는
▁붙잡 혀
▁닮 은
▁잦 은
▁특기 할
▁부가가 치
▁뮤지 컬
% 는
5 가
C D
[ 石
[ 東京
· 명
· 카
× 1
∼ 2
∼ 9
∼ 18
▁ 괄
▁ 뱅
▁ 옐
▁ 킬
中 書
十 八
夫 人
官 )을
氏 )
王 )이
省 )
賢 )의
道 )의
가 부
겨 울
경 도
공 연을
교 에서
군 도
균 이
그 는
금 산
기 구의
김 씨
남 을
도 해
력 도
료 품
릉 은
립 을
마 애
마 와
모 토
문 고
물 에서
복 에
복 합
사 자
악 은
염 (
전 서
조 작
중 은
지 대는
차 로
찬 성
출 을
태 극
평 가,
폐 기
하 르
현 감
현 상
혈 을
협 상
효 가
▁이 방
▁지 신
▁지 대한
▁지 석묘
▁등 지느러미
▁기 묘
▁전 철
▁한 미
▁시 각을
▁정 선
▁일 하고
▁주 류
▁주 립
▁주 청
▁보 이기
▁경 관을
▁다 리는
▁유 혹
▁유 통을
▁위 그
▁위 태
▁인 성
▁나 면
▁부 재
▁부 품을
▁고 종이
▁의 회에서
▁의 약품
▁공 표
▁서 약
▁비 파
▁구 애
▁상 트페테르부르크
▁발 주
▁발 현
)· 명
▁세 조의
▁문 묘
▁생 물이
▁국 영
▁여 기는
▁여 인의
▁도 가
▁도 굴
▁통 틀어
▁거 처
▁반 주
▁반 점이
▁진 도
▁물 체
▁알 리
▁예 전에는
▁행 해지
▁변 해
▁변 하여
▁배 달
▁배 타
▁배 포
▁표 면을
▁군 자금
▁법 학
▁속 도에
▁감 당
▁직 계
▁저 지대
▁더 블
▁운 명
▁호 박
▁처 리를
▁10 18년(현종
▁집 결
▁크 롬
▁삼 천
▁20 )
▁천 지
▁체 제의
▁12 )에
▁17 )
▁200 2
▁구성 되는
▁생산 의
▁취 해야
▁효 종
▁손 실
▁영향 력이
▁드 라이
on t
▁줄 여
▁잡 히
▁나라 와
▁대표 되는
▁극 심한
▁도시 와
▁발생 은
이었 다는
▁작성 된
▁정부 에서
▁모양 이다.

▁평가 ,
▁개발 이
▁애 썼
▁존재 하고
문학 과
▁염 려
▁유럽 에서는
▁형식 에
▁나누 고
▁상황 에서도
▁과정 의
자와 의
▁긴 밀한
▁혁 명이
▁딸 이
▁트 라
▁장식 되어
▁이동 ,
▁계약 이
▁전개 하고
▁휴 전
▁행동 ,
▁탐 색
▁울 음
▁아이 의
▁작업 에
▁소유 한
▁관할 이
시간 이
▁기간 이
▁근거 한
▁원칙 에
▁제도 이다.

▁수상 하였다.

▁구별 되는
·고 추
▁체결 된
~9 월에
▁회의 는
▁보관 되어
▁단계 에서
▁선언 했다.

th er
▁값 이
▁1/ 4
▁베네 딕
▁중단 되었다.

▁인적 사항
▁참석 한
▁껍 질
▁밭 이
▁필수 적인
▁있으면서 도
▁비극 적
▁붓 고
▁모순 을
▁앤 드
▁대웅 전
▁그레 고
▁조그 만
(U N
말라 야
▁스튜 어
▁박정 희
▁가볍 게
▁하드 웨
▁번갈 아
▁험준 한
) 처럼
- 4
: 지금의
[ 北
i um
∼ 16
≫ 와
▁ 롬
▁ 뤼
▁ 셔
』 에서는
密 直
道 )
공 사가
공 장·
공 과대학
교 향
규 정,
급 ,
기 반
능 력이
다 라니
단 계로
뜨 리고
라 기
란 과
러 는
륜 (
매 가
받 는다.

발 은
버 스
벌 의
법 도
법 화
별 한
브 르
살 을
설 치
소 개
아 일랜드
암 ·
양 은
업 자
원 (李
유 형문화재
율 과
은 ,
읍 (
자 형의
장 이나
전 부터
절 은
정 권이
제 일
졌 다가
증 가
증 보
창 작
책 과
책 임을
천 면
초 에는
충 이
취 (
취 가
클 럽
타 리오
통 보
혼 의
▁이 로부터
▁그 당시
▁사 치
▁사 물을
▁사 고를
▁수 주
▁수 도로
▁지 옥
▁지 구를
▁가 미
▁기 꺼
▁전 주(
▁한 자의
▁제 국이
▁시 장을
▁정 년
▁19 )
▁자 (
▁일 리노
▁중 원
▁주 석을
▁아 끼
▁경 건
▁경 희
▁인 계
▁인 정한
▁부 인은
▁고 부
▁의 과대학
▁동 포
▁비 문
▁비 자
▁비 품
▁비 디오
▁상 원
▁소 아
▁소 리의
▁하 강
▁연 회
▁신 호를
▁여 론
▁여 수
▁도 상
▁영 조의
▁교 화
00 년에
▁만 드
▁통 제를
▁장 시
▁바 를
▁미 생물
▁거 기서
▁선 동
▁후 일
▁후 자의
▁실 적
▁5 세
▁〈 서
▁단 속
▁물 레
▁명 주
▁‘ 가
▁예 능
▁예 수의
▁건 전한
▁평 의
▁함 축
▁뒤 섞
▁파 서
▁배 의
▁최 상
▁과 제
▁과 학자들은
▁북 아프리카
▁외 척
▁저 당
▁편 으로
▁본 관
▁삼 신
▁9 년
▁김 시
▁「 여
▁일본 군의
▁치 른
▁면 허
▁이루어 질
▁이루어 졌으며,
▁순 종
)」 를
▁에 우
▁효 과는
▁정치 적으로
▁13 )에
▁경제 학
▁서울 을
▁줄 이기
▁논 의가
▁허 블
▁제2 5
▁≪ 신
▁자연 적
▁표현 의
▁생각 한다.

)’ 를
▁위치 와
▁B 형
▁지식 이
▁코 스
▁밀 착
▁A l
▁밝 혔
▁아래 에는
▁관계 ,
▁나타나 기도
▁눈 과
▁독일 은
▁독일 이
▁산업 을
▁궁 핍
▁염 기
▁깊 어
▁희 귀한
▁상태 의
▁189 2년
▁양식 과
▁늘 어난
▁노래 의
▁압 송
▁8월 에는
▁정신 이
▁인물 은
▁수록 하였다.

▁비슷 하지만
▁오늘날 에도
▁테 네
▁싸 여
▁정책 이
▁쌓 았다.

▁현실 과
▁어린 시절
경제 와
▁마련 되어
▁상대 방이
▁성격 과
▁작용 한다.

▁하였 다.
ol l
▁거래 를
▁소유 권을
▁묘사 했다.

▁재배 가
▁올라 간다.

▁23 )
▁산맥 을
▁세우 고,
▁안전 한
▁선출 된
일보 ,
▁왼 쪽에
▁점령 하고
▁넘어 가
▁경쟁 력을
▁떨어 진다.

▁중심지 로서
▁서술 한
▁공화 국의
▁합격 하여
▁죽음 의
▁규칙 을
▁지내 고,
▁나타내 기
(198 1).

▁실질 적
▁그때 까지
▁불안 정한
▁값 을
사학 위
▁드라마 에
▁필리 포
▁혐 오
▁연관 되어
▁아름답 게
▁밴 드
▁그만 두고
▁아우구 스티
▁완벽 하게
▁휴대 폰
▁캄 보
▁진사 시에
제안 서,
▁클레 멘
▁휩 쓸
▁개신 교
▁댓 잎
▁말하자 면
▁스칸 디나비아
해수 욕
' 이란
O C
~ 200
≫ 가
▁ 無
▁ 뚝
君 )
大 王
子 )가
學 )의
思 想
性 )을
縣 )이
각 형으로
검 찰
게 도
기 단
기 기를
기 독교
내 지
다 리를
달 (
담 이
대 사(
렬 하게
루 와
리 

무 라
묵 (
미 인
보 조
부 르
부 한
시 장은
실 히
용 에
용 은
우 ,
위 기
자 원이
장 기
정 동
죄 를
줄 로
철 학과
츠 의
측 정
탄 의
함 (
회 사로
▁수 박
▁수 없이
▁대 담
▁대 영
▁지 게
▁지 위는
▁가 사를
▁것 들을
▁기 우
▁전 교
▁제 안을
▁제 국을
▁정 묘
▁정 기간행
▁2 명
▁2 개월
▁보 스
▁유 형을
▁고 도로
▁의 회에
▁공 감
▁동 인
▁서 면
▁구 동
▁원 근
▁소 중
)· 가
)· 내
▁신 과
▁신 임을
▁3 세가
▁세 이
▁내 부는
▁도 리어
▁성 찰
▁성 향을
▁해 와
▁만 경
▁만 다.

▁장 성
▁장 인
▁장 자
▁남 방
▁남 부에
▁오 가
▁오 면
▁오 르는
▁강 변
▁강 서
▁없 던
▁방 치
▁분 급
▁실 어
▁현 [
▁현 장에서
▁같 다고
▁재 혼
▁〈 어
▁당 했다.

▁양 은
▁두 른
▁알 프스
▁안 쪽으로
▁각 료
▁화 약
▁출 납
▁표 명
▁권 의
▁간 격을
▁간 단히
▁프 롤레타리아
▁임 무
▁속 을
▁입 대
▁학 과
▁조선 어
▁금 은
사이 에
▁피 어
▁9 1
▁토 속
▁음 모를
▁살 라
▁일본 어
시대 (
▁식 품의
▁용 역
▁200 4
▁면 에는
▁타 락
▁모두 를
▁이름 인
▁고려 는
▁효 소의
시키 려
▁번 영을
▁걸 리는
▁· ····
▁문제 ,
▁문제 점
▁193 0년대에
(李 成
▁허 구
▁프랑스 를
▁대표 자
▁얻 는다.

▁뜻 은
▁했 다

▁만들어 내는
▁조직 하였다.

▁역사 에서
▁홍 건
▁밀 가루
▁독립 적인
▁측 면에
▁설립 을
al is
▁먹 거나
▁나타나 는데,
▁전통 의
자로 ,
▁색 채를
▁정보 와
is e
▁자료 는
▁품 질이
▁1일 에는
▁과정 으로
▁넣 는다.

▁보통 의
▁키 는
▁딸 인
▁사랑 과
▁숙 청
▁성공 적인
▁찬 사를
▁삶 은
▁강화 도
시킨 다는
▁상대 적
▁고구려 와
▁분류 할
▁N ational
▁올라 갈
▁올라 가는
▁도로 와
▁대중 적
▁기간 은
▁민주 공화
▁기념 비
▁하늘 이
▁수준 으로
~8 0
▁뇌 하수
▁겨울 철
▁점령 한
▁채택 되었다.

▁설계 한
▁사라 진
▁여겨 지는
거래 를
▁가톨릭 교도
▁부모 가
▁콜 레스테롤
▁높아 지고
▁저술 한
▁대규모 로
▁생기 고
▁머리 에는
▁핵심 적인
▁어깨 를
▁활약 했다.

▁주인공 이
▁것인 가
레일 리아의
▁짜 임새
▁조작 을
▁서정 시
여자 대학교
▁숫 자
▁받아들이 는
▁교과 서
▁사례 가
▁보이 는데,
▁중추 원
▁모방 한
▁당선 되었다.

국립 중앙
▁명명 되었다.

▁폐기 물
▁명백 히
▁낚 시
▁Co mm
▁케이 블
▁불완 전
▁두만 강
▁대한불교 조계
▁기꺼 이
▁댓잎 피침
( '
3 00
3 ).

A N
l and
v el
· 민
· 밀
· 봉
· 참
▁ ᄀ
▁ 갤
▁ 궐
▁ 꽉
▁ 춥
之 ,
如 來
峰 ,
淨 土
行 )
경 이나
고 문
과 이
광 고
국 가를
그 의
기 금
네 의
노 출
니 스탄
단 지가
된 다(
량 한
롭 다.

르 면
름 의
마 당
민 )
발 의
보 급
부 사·
불 입
비 고
생 과
손 가락
술 로
스 름
암 에
업 ·
연 방
연 예
였 는데
영 수
우 편
유 전
인 터
조 나
조 에는
즈 워
직 에서
체 계는
총 동맹
침 략
클 레오
통 계
혁 (
호 메
환 이
▁이 차
▁수 력
▁수 메르
▁전 기에
▁제 단
▁시 무
▁중 독
▁중 류
▁2 종
▁주 세
▁주 고,
▁보 답
▁유 머
▁유 서
▁관 목
▁조 공
▁고 백
▁공 군
▁공 평
▁동 양의
▁상 투
▁원 동
▁발 췌
▁3 명의
▁개 축
▁문 양을
▁생 전에
▁여 왕의
▁도 성
▁도 요
▁성 숙한
▁해 밀
▁어 둠
▁어 버
▁어 렸을
▁장 비,
▁남 자가
▁오 빠
▁무 료
▁무 대로
▁강 점
▁미 네
▁미 묘한
▁거 미
▁거 기에서
▁특 성에
▁특 산물
▁방 배
▁〈 지
▁〈 한
▁결 론
▁단 원
▁명 목으로
▁‘ 전
▁알 리고
▁안 겨
▁안 쪽에
▁것이 고
▁변 두
▁파 충
▁차 입
▁군 대와
▁법 원은
▁회 사에서
▁데 에는
▁처 칠
▁10 2
▁청 나라의
▁피 를
▁피 하여
▁아니 라고
▁할 지라도
▁참 의
▁창 당
▁천 주
부분 으로
▁항 거
▁철 원
▁충 렬
)과 의
▁기록 해
▁세계 가
▁관련 해
)」 에
▁카 이로
▁교육 방송
▁귀 를
cm 에
▁형태 ,
▁줄 이
an ce
스트 는
▁프랑스 어
▁맞 았다.

▁맞 도록
▁주요 도시
▁중앙 아시아
▁둘 로
▁힘 과
▁지식 의
▁지식 인
▁밝 고
▁관계 된
연구 를
▁결정 할
▁눈 은
▁궁 중의
▁1, 4
▁종류 로는
▁형식 적
▁기업 을
▁월 남
▁땅 의
ic a
▁진행 된
▁기재 하고
▁강조 한다.

▁치료 에
위원회 에서
▁없이 도
re e
▁이론 과
▁갖추 어야
▁외국 에서
▁작용 으로
▁유전 자를
조직 이
▁전자 공학
▁판매 하는
▁귀족 의
▁소비 자의
▁관찰 할
▁쌀 ·보리·
▁읽 어
▁읽 고,
▁없었 고,
▁발굴 된
▁능력 과
▁능력 에
▁인식 하고
▁강력 하게
▁왼 손은
▁신고 서
▁그리스도교 의
▁흙 의
ation s
▁기여 하였다.

▁창건 한
▁그렇 기
▁숭 상
▁159 2년(선조
▁화가 인
▁당사 자가
▁인터넷 을
▁마르 코
▁사찰 의
▁짜 여
▁레이 더
▁굳 게
▁지키 고
자연 환경
▁인적 사항을
▁통일신라 시대의
▁성직 자
▁흐름 에
▁지향 하는
▁노르 만
▁탄압 을
공동 체
▁냄 비에
▁어긋 나는
▁아름답 고
▁아우구 스투
▁전( 傳)
▁곰 팡
▁신석기 시대
.)」 이
▁파직 되었다.

▁상관 없이
▁어려움 에
▁문화유 적은
▁즐거 움을
▁권1·2 에
▁엷 은
▁프톨레 마이오
> 가
> 이
A r
M CA
S .
v er
· 만
▁ ;
▁ 샹
▁ 챔
▁ 핸
問 答
圖 )
堂 )
廣 州
監 )
詩 )
가 지가
개 인
견 이
계 속
귀 가
기 슭
남 부
다 니는
동 원
래 는
르 며
머 리가
무 관
문 장
봉 (1,
부 모
사 들이
사 무를
산 사
소 문
양 도
연 에
열 은
였 음을
오 로
왕 국
우 도
유 ,
읍 을
장 치,
저 의
전 집
제 프
제 품의
조 리
주 민
지 에서는
지 방법
첩 을
편 마
피 가
하 듯
하 시
합 (
해 냈다.

행 과
▁이 송
▁이 항
▁사 방
▁수 단을
▁대 거
▁대 일
▁가 졌던
▁것 인데
▁기 리기
▁전 례
▁시 찰
▁시 ·군
▁정 읍
▁정 시문과에
▁일 괄
▁주 기도
▁보 기도
▁아 비
▁경 고
▁다 량의
▁유 화
▁고 난
▁동 사
▁동 물은
▁서 화
▁원 고
▁원 종
▁원 리,
▁연 봉
▁세 로로
▁성 인의
▁교 화를
▁어 획
▁따 위가
▁마 사
▁마 그네슘
▁장 미
▁오 라
▁바 친
▁미 완
▁불 필
▁말 려
▁〈 무
▁〈 코
▁〈 파
▁설 명을
▁당 직
▁받 으면서
▁명 하여
▁안 장
▁각 지에
▁6 만
▁화 이트
▁왕 당
▁변 이
▁파 면
▁최 제
▁차 이에
▁간 석
▁감 탄
▁7 개의
▁7 ,000
▁목 이
▁달 았다.

▁달 랐다.

▁호 종
▁농 부
▁농 축
▁확 신
▁청 송
▁피 의
▁돌 파
▁천 명
▁체 크
▁12 편,
▁우리 말
▁열 성
▁열 중
▁백 성이
▁내용 도
▁면 직
▁충 렬왕
▁석 축
▁한국 에는
▁올 릴
▁생산 되며,
▁순 국
▁지방 이
▁곳 으로,
시키 려고
▁끝 났
▁발전 시켜
▁볼 셰비키
▁허 무
▁이어 지고
위원 장
▁기술 한
.. .
▁발견 되지
▁섬 이
▁코 미디
▁독립 군
▁필요 합니다.

▁발달 하였다.

연구 소를
▁넓 어
▁제작 을
▁견 훤
▁이때 문에
▁증가 했다.

▁이와 는
▁3월 에는
▁패 션
▁구분 하는
▁커 지고
우스 를
우스 와
▁않았 다는
▁나무 는
으로부터 의
▁방향 에
▁테 니스
▁어머니 와
▁계약 에
▁제품 에
▁삶 아
▁187 1년
▁0 .2
▁놀 이를
▁작업 은
▁개최 되었다.

▁북쪽 과
▁즐 거운
▁대개 는
▁옷 자
▁표시 한다.

▁근로 자가
▁제한 하는
13 호에
▁주목 되는
▁소속 의
▁케 이프
▁끌 려
▁무덤 을
▁낳 는다.

▁일제 식
1년( 고종
▁요청 을
▁사라 지고
▁아시아 의
▁금융 기관
〉(1 5
▁거부 하고
ac e
▁불과 하다.

ul t
▁증거 를
83 년(
하므로 ,
▁촉진 을
▁가슴 에
▁브라 운
▁일치 한다.

▁바깥 쪽
▁솔 로
▁비용 에
▁비용 이
▁알렉산 드리아
훈련 을
▁인공 위
▁31일 

▁다음해 에
각주[ 2]
▁헬 륨
▁가늘 게
▁닦 아
▁전망 이다.

▁청구 할
▁색채 가
▁기하 학적
선수 권대회
▁캠 퍼
습니 까
▁데이 비드
▁디자 이너
▁바빌 로니아
▁썬 다.

▁스파 르타
▁팔레스타 인
▁Lif e
▁에티오 피아
/ /
a ch
c y
r ess
▁ 냇
▁ 봐
▁ an
三 司
主 義
制 )
平 )
形 )의
漢 城
錄 )』
가 로서
거 가
관 세
구 에는
균 의
기 적
기 후
놀 이를
대 구
덩 굴
등 하게
루 스는
매 출
맹 자
물 쇠
물 이다.

미 널
박 사
방 식이
번 의
본 에
불 로
사 실
사 채
석 에는
수 신
스 포츠
시 장에
심 도
싸 움
애 (
여 객
영 산
윤 이
임 금
주 립
증 에
총 은
카 가
탄 (
티 는
패 (
함 의
향 에
▁이 양
에서 나
▁수 찬
▁수 표
▁대 추
▁등 )에
▁전 문화
▁제 지
▁정 말
▁정 산
▁정 성
▁정 자를
▁정 의를
▁정 권의
▁중 랑
▁2 등
▁보 입니다.

▁경 공업
▁유 적으로
▁관 동
▁인 (
▁공 보
▁공 적인
▁비 즈
▁상 례
▁상 수
▁원 수
▁원 소의
▁소 국
▁모 란
▁신 도시
▁3 .5
▁세 종은
▁성 적을
▁성 품이
▁남 대문
▁바 쿠
▁강 에서
▁선 과
▁실 시에
▁반 (
▁5 ~10
▁같 고
▁재 즈
▁〈 정
하기 까지
▁설 정한
▁단 계는
▁양 명
▁받 던
▁받 으면
▁대한 제국
▁명 나라의
▁‘ 구
▁각 급
▁화 풍을
▁왕 도
▁사용 했던
▁적 었다.

▁매 체
▁과 반
▁스 콧
▁포 교
▁민 정
▁입 금
▁7 )에
▁8 세
▁외 적
▁편 의를
▁달 라고
▁토 지는
▁김 장
▁심 리학
▁12 년
▁못 하고,
▁백 신
▁길 며
▁『 동
▁죽 게
▁생산 량이
▁승 정
▁국가 로
▁앞 을
▁환 기
▁논 리적
▁투 자를
▁동안 은
▁글 ,
▁글 자의
▁업 적
▁중앙 에서
)에서 도
▁리 스
▁누 이
▁영국 인
▁노동 을
▁작성 하게
▁친 다.

▁그것 에
▁넓 적
▁모습 ,
▁이전 까지
▁벌 이고
▁국민 총
▁넘 지
▁운동 으로
▁사업 이
▁흔 적을
▁구분 ,
▁커 뮤니
하자 고
▁발표 하여
▁월 경
▁담당 한
▁분포 를
▁환경 의
▁습 한
▁행동 이
▁d '
▁사항 에
▁칼 로
▁186 0년
▁186 2년
▁졸업 하고,
▁하였 던
▁확대 ,
▁소유 권
▁농민 들은
▁조성 되었다.

▁편집 한
▁지급 할
음악 ,
▁바람 을
▁제정 되었다.

▁동일 하다.

▁이외 에는
▁끼 쳤
▁주도 권을
▁하늘 과
▁오른 손은
▁수준 이
▁기후 가
6년( 세조
6년( 공민왕
▁배경 이
▁발굴 조사
▁밝혀 지지
▁목적 과
▁실패 한
▁흙 으로
▁아르 메니아
▁그렇 다고
▁귀국 하였다.

▁적절 하게
▁친구 인
▁주거 지
▁섭 정
형태 를
▁굵 고
학급 ,
▁들어와 서
▁숫 자가
▁알렉산 드르
▁얇 고
▁행해 지고
▁모델 로
▁청동기 시대의
▁펜 실베이니아
▁햇 볕
▁세금 계산
▁틈 을
▁가깝 다.

그리스 도교
▁예컨 대,
▁니콜 라이
▁서(書 )는
▁조그 마한
▁맏 아
▁실정 이다.

▁샀 다.

▁미얀 마
) 해
) 들의
, 5
3 가
E R
e b
e x
m 이며,
} }
· 권
· 돌
· 분
· 식
· 형
μ m로
▁ j
▁ 덥
▁ 톨
▁ 홉
▁ or
▁ 층의
〕 ,
記 )』
里 )
가 구
각 기
간 호
갈 색의
건 은
결 핵
결 과에
경 에서
군 정
네 덜란드
네 스코
니 터
다 [
다 이
덕 이
라 르
록 은
매 ,
미 래
바 키아
반 ,
발 전을
백 의
백 이
법 에서는
상 승
선 왕
성 이다.

시 장에서
액 으로
언 해
예 기
오 지
왔 던
우 면
원 조
유 고
유 기
읍 으로
증 과
집 니다.

총 을
측 이
침 이
카 이
터 리
테 크
편 에는
학 파의
합 리
해 보
환 은
효 율
▁이 었다.

▁있 지는
▁1 등
▁사 비
▁수 세기
▁대 왕
▁가 령
▁가 보
▁가 해
▁기 로
▁한 을
▁한 자를
▁한 마디
▁제 네
▁제 정한
▁정 을
▁자 음
▁주 의를
▁주 어야
▁보 다는
▁경 기는
▁경 계에
▁다 문화
▁유 랑
▁나 열
▁부 식
▁부 응
▁의 원으로
▁공 (
▁동 산
▁동 전
▁동 명을
▁비 변
▁상 호를
▁모 티
▁모 르고
)· ≪
▁신 은
▁신 문을
▁국 화
▁여 우
▁도 왔다.

▁어 선
▁장 구
▁무 령
▁무 서
▁강 하고
▁미 친다.

▁방 목
▁분 수
▁산 소와
▁단 풍
▁단 어를
▁단 위의
▁양 수
▁‘ 주식회사
▁' 고
▁왕 생
▁왕 국은
▁파 키스탄
▁초 원
▁사용 하며,
▁사용 하던
▁매 끄럽
▁권 고
▁포 로가
▁입 에
▁요 하는
▁감 자
▁감 정이
▁7 세
▁편 년
▁조선 은
▁데 에서
▁10 %
▁사회 보장
▁토 로
▁토 크
▁토 스카
▁있어 서,
▁「 사
▁천 장은
▁16 세
▁들어 왔
▁『 고려사
▁복 속
▁용 서
▁구성 과
▁죽 인
▁제1 63
▁197 9년에
▁절 감
▁승 계
▁고려 와
▁취 했다.

▁중국 인
▁봉 황
▁다음 은
▁발전 하여
▁서울 과
in d
▁제2 4
▁제2 회
▁극 장에서
▁행정 구역을
▁발생 하고
대학 과
▁생활 은
▁라 파
▁먹 지
▁주장 에
▁아래 쪽에
▁범 위에
▁전통 에
▁모습 과
문학 에
▁역할 도
▁역할 은
▁사업 계획
▁P l
▁관리 하고
▁맡 겨
▁음악 과
▁빠 르고
▁희 곡을
▁옥 수수
▁운영 ,
▁건설 에
▁D ie
▁요구 가
▁않았 지만,
▁진행 하는
▁방향 이
▁이동 한다.

▁전개 된
▁미술 ,
▁가르 쳐
▁가르 친
▁헤 모글로빈
km2 이다.

▁공격 했다.

▁해안 의
▁클 러
▁남쪽 과
▁작용 에
▁작용 이
▁187 0년
▁187 5년
▁지구 에
▁개혁 의
▁해결 을
조직 으로
▁자본 의
▁체계 적이고
▁추진 했다.

기간 을
▁풍부 하고
▁관찰 하는
▁곤 란
▁끌 고
▁빼 고
▁지지 했다.

▁실패 하고
▁이래 의
▁2개 가
▁불구 하고,
세포 의
▁s t
사건 에
▁불리 게
▁바이 오
▁합격 한
▁페르 디
▁아내 와
▁조절 하는
▁주인공 의
▁전략 을
▁조지 프
▁l '
▁변형 된
▁색깔 은
▁색깔 을
▁일시 적인
▁전사 하였다.

▁다녀 온
▁받아들이 고
▁까닭 은
▁드물 다.

▁포괄 적인
▁인근 의
▁올리 브
▁김정 일
▁본질 적으로
▁곁 들여
다” 라고
르타 뉴
▁베풀 어
▁미사 일
▁이바지 했다.

▁말레이 시아
▁인접 해
▁플랑 크
▁밸 브
▁의사결 정을
▁사르 데냐
▁이( 理
▁이무 렵
▁루트 비히
▁····· ·
▁대한불교조계 종
) 란
) 되어
) 보다
/ 4
> 에서는
C I
a i
i tion
k e
m )과
o x
y a
· 실
▁ 긁
▁ 쪽에
▁ und
令 )
像 )을
川 )이
房 ),
田 )
가 야
공 왕
국 장
니 스트
다 )

동 .
라 시아
루 시
만 주
망 한
몸 은
민 족의
별 곡
부 지
사 로서
서 류
소 리로
수 화
시 립
양 에
었 음을
월 의
유 와
율 에
일 기(
잎 이
자 라
제 조(
줄 의
중 으로
지 수
질 서를
청 에서
층 탑
타 바
피 를
필 을
하 와
하 르트
함 으로
호 )가
▁이 씨
▁이 다.

▁수 분
▁수 익을
▁대 (
▁대 책
▁대 흥
▁지 하자
▁가 정을
▁한 다면
▁제 철
▁시 도가
▁시 장이
▁정 동
▁정 조는
▁2 단의
▁주 종
▁주 한
▁보 이게
▁아 키
▁유 권
▁관 리의
▁인 식이
▁나 가지
▁나 이지
▁나 물로
▁부 도
▁부 칙
▁고 구마
▁의 회가
▁공 용
▁동 으로
▁비 하면
▁구 의
▁원 형을
▁연 쇄
▁3 00여
▁도 구,
▁교 구
▁교 대로
00 년(
▁통 로
▁미 상
▁미 움을
▁불 화
▁4 .5
▁우 러
▁실 권을
▁재 정을
▁결 탁
▁노 무
▁형 이
▁종 신
▁받 들어
▁‘ 동
▁사람 들도
▁6 권
▁화 순
▁건 안
▁파 스
▁사용 하면
▁사용 하기도
▁적 색
▁차 려
▁표 고
▁군 에
▁과 잉
▁스 마트
▁포 로
▁회 수
▁회 원이
▁처 마
▁크 지
▁피 는데
▁높 았다.

▁돌 방무덤
▁음 을
▁살 다가
▁「 청
▁열 쇠
▁열 렬한
▁200 m
▁항 만
▁다시 는
▁제1 17
▁완 결
)」 이
▁풍 화
▁귀 가
▁이르 자
▁설치 해
▁≪ 한
운동 ,
▁리 비아
)’ 라고도
▁별 칭
▁탄 산
▁혼 동
▁돌아 갈
교육 이
▁설립 되었으며,
▁수도 권
▁수도 는
▁평가 받고
▁개발 된
▁발달 을
▁전통 과
연구 소,
▁그것 의
▁버 려
▁산업 통상자원
▁궁 전
▁M us
▁브 레이크
▁기업 에
▁늘 고
▁" 이
▁밑 의
시켜 서
▁게 이
▁보호 하고
▁확인 된다.

▁개인 과
방법 ,
방법 에
▁언어 가
▁추정 할
at er
▁지도 자가
▁100 년
▁186 9년
▁상대 방의
▁움직 여
▁익 히
(大 同
▁비판 하는
▁통합 을
▁제시 하는
대회 가
대회 는
▁상징 적인
자료 가
▁즐 겁게
▁비해 ,
▁지속 되었다.

▁가리 켜
▁뿌 려
▁뿌 리는
▁탑 을
▁탑 의
▁바꾸 고
▁덮 인
▁적극 적
un t
6년( 고종
▁소련 은
▁임금 에게
.0 2
▁배우 는
▁경계 가
▁재정 적
2년( 태조
▁부모 와
〉( 2
▁유적 에
▁시도 했다.

▁지점 에서
▁제목 의
부장 관
▁머물 렀
▁대항 하는
▁레이 저
학급 으로
▁원시 적인
▁기획 ,
▁남동 쪽
▁멕시코 의
▁합류 한다.

▁카르 타
▁초상 화를
▁뛰어 났다.

▁의병 장
▁II -
▁디자인 에
▁조선총독 부
▁처벌 을
▁객관 적인
▁영혼 을
기둥 을
상황 을
▁싸움 에서
▁행복 한
▁신선 한
▁몰두 했다.

▁국한 문
▁전세 계에
▁현저 하게
▁사천 왕
▁충적 평야
▁블랙 홀
▁알맞 은
스페 인
▁명( 銘)
▁프로젝 트
▁치명 적인
▁저렴 한
▁즉위년 )
▁최충 헌
▁로스앤젤 레스
' 라
( d
( f
) 하게
, 8
- )
- 0
a x
e ch
· 입
▁ 五
▁ 젤
▁ 툴
』 이
堂 )을
大 妃
山 水
議 政
가 나
개 국
계 층
곡 에
곡 으로
구 리
구 (李
극 은
급 (
급 의
길 (
나 가는
년 월일,
누 에
단 체를
대 금
독 서
되 기는
됨 을
드 슨
디 는
라 틴
랭 이
레 를
륜 을
만 하게
모 스
무 릎
바 는
버 리
병 원으로
불 교의
석 유
선 교
성 이나
세 인
센 티
시 장을
식 물로
쓰 고
쓰 기
악 학
외 부
요 소
의 식을
일 체
자 산
재 건
정 권을
진 료
채 와
철 )
철 학의
특 징
티 에
하 ,
하 우
해 결
행 록
혀 서
형 이고
환 자
▁이 벤
▁이 색
▁이 오
▁이 현
▁이 들과
▁이 치를
▁이 디시
▁1 000
▁1 명과
▁수 령을
▁기 는
▁기 명
▁기 암
▁기 리는
▁기 법으로
▁전 봉
▁전 지의
▁정 몽
▁정 상에
▁자 각
▁자 수
▁일 용
▁일 한
▁중 상
▁주 술
▁아 프
▁아 열대
▁경 신
▁경 로를
▁유 익
▁유 역을
▁위 ,
▁조 국의
▁인 류가
▁인 증을
▁나 지
▁고 독
▁고 졸
▁공 사에
▁동 문
▁비 치
▁비 고,
▁구 운
▁구 출
▁원 생
▁원 한을
▁하 우
)· 예
▁개 작
▁국 도
▁성 명을
▁해 명
▁작 센
▁작 위를
되어 온
▁통 감
▁마 쳤다.

▁강 (
▁강 동
▁강 변에
▁선 봉
▁선 원
▁분 광
▁분 단
▁4 세의
▁후 대
▁반 대한
▁산 재해
▁재 빨리
▁결 론을
▁설 (
▁당 우
▁단 위,
▁양 쯔
▁물 체가
▁‘ 고
▁[ 자연환경
▁사람 이나
▁안 전을
▁행 해졌다.

▁각 성
▁평 을
▁최 후
▁차 이로
▁과 감
▁법 적으로
▁속 하였다.

▁8 00
▁목 욕
▁저 기압
▁편 제
▁조선 왕조
▁금 당
▁금 호
▁금 ·은
▁확 률
▁10 개의
▁집 계
▁태 도는
▁사회 와
▁합 해
▁합 스부르크
▁토 기는
▁할 당
▁「 제
▁복 을
▁항 암
▁연구 소
▁황 후
▁잘 게
▁세계 는
▁활동 과
▁에 든버러
▁취 재
▁귀 향
▁온 타리오
▁극 한
▁맞 고
▁들 지
▁행정 중심
▁질 량
▁암 벽
이었 지만,
▁알려 주는
▁하고 자
▁형성 하였다.

)’ 는
)’ 이라고도
▁송 광
▁< 아
▁노동 당
▁코 코
▁시행 된
▁돌아 간
▁국제 적으로
연구 의
▁눈 물
▁버 스
▁중요 민속
▁1, 200
▁종교 를
▁제3 대
▁곡 류
관리 대장,
▁월 간
▁않았 다고
▁학교 는
기술 이
▁통일 된
▁인물 과
▁최고 인민
▁에너 지로
▁낙 선
▁반대 하여
정책 과
▁싸 우는
시설 은
▁휴 식을
▁역임 하고
▁탐 욕
▁마련 한
▁186 8년
▁2월 에는
▁공격 적인
▁이탈리아 를
▁드러 내는
▁마음 대로
▁187 9년
▁태양 계
▁받았 고
▁상징 적
▁지급 을
▁술 과
▁노력 은
▁추진 하였다.

et h
▁식물 성
기간 이
▁캐 서
▁W orld
▁소속 ,
▁슬 로
▁슬 퍼
▁묻 어
▁죄 로
▁제출 한
▁벼슬 에
▁높아 졌다.

▁1개 씩
▁재료 는
▁웅 변
▁전후 의
▁유적 에서
▁고향 을
▁남서 부
▁측정 할
▁2014 .1
▁북서 부
▁건국 포
▁장애 를
동맹 을
▁중반 부터
▁전략 적
▁머물 렀다.

▁타고 난
▁직후 에
▁일치 하는
스키 의
▁공통 된
▁분위 기가
▁펼쳐 진
해져 서
▁축조 된
보통 학교로
▁미래 를
▁기( 氣
▁남편 과
▁선사 시대
▁고양 군
▁후계 자로
크라 테
▁혁신 적인
박물 관은
▁극단 적인
▁권5 에
▁무한 한
▁부드럽 게
▁전세계 적으로
▁스티 븐
▁항아 리에
▁두껍 고
▁4· 19
▁오케 스트라
▁밀접 하게
▁농어 촌
인적 자원
▁집현 전
▁[자연환경 ]
) ]
A P
C l
S A
g an
p p
u x
· 다
▁ i
▁ 以
▁ 낡
▁ 씹
▁ 첼
▁ le
▁ 朝鮮
也 ,
京 都
印 )을
德 川
長 )
각 서,
격 (
경 )
고 루
교 수로
극 으로
기 고,
껍 질
남 의
달 래
담 은
대 통령
덕 여왕
도 

렬 히
론 에서
롬 비아
룡 이
름 은
리 스는
마 로
망 에
먼 트
묘 의
무 장
바 의
복 과
불 가
사 상에
수 (李
수 단으로
십 이
암 사
압 이
야 를
어 인
연 장
영 민)
원 가
음 ).
임 은
임 에도
자 리에
자 로부터
정 맥
족 ,
지 므로
청 소년
토 로
토 르
토 에
통 감
포 와
학 파
▁1 명이
▁그 저
▁사 살
▁수 군
▁대 를
▁대 보
▁대 조를
▁가 이
▁기 법,
▁전 리
▁제 고
▁시 드
▁시 어
▁시 이다.

▁시 기로
▁정 하고,
▁자 결
▁자 코
▁주 동
▁주 제의
▁주 체가
▁보 병
▁보 이기도
▁아 프가
▁다 윈
▁유 년
▁유 비
▁유 희
▁유 비가
▁위 촉
▁조 경
▁고 소
▁고 르는
▁공 정한
▁동 백
▁동 명으로
▁서 스
▁비 준
▁구 강
▁소 론
▁하 단
▁연 도
▁발 렌
)· 풍
▁신 문의
▁3 ~5
▁세 례
▁문 벌
▁문 명을
▁도 기
▁도 주
▁성 문
▁성 장이
▁영 (
▁영 입
▁해 고
▁작 자
▁어 둡
▁따 랐
▁오 브
▁바 치
▁무 명
▁무 정부
▁분 리,
▁4 차
▁5 대
▁많 습니다.

▁〈 에
▁〈 경국대전
▁결 근
▁종 료
▁종 전의
▁당 하여
▁진 언
▁명 절
▁‘ 수
▁예 문
▁역 점을
▁' 인
▁변 증
▁적 재
▁매 력
▁출 자
▁권 리의
▁간 신
▁간 편
▁활 자
▁북 을
▁입 술
주의 (
▁근 래
▁목 에
▁목 초
▁이루 면서
▁호 (
▁청 의
▁9 개의
▁사회 적인
▁천 하의
▁죽 자,
▁철 도를
▁타 인에게
▁한국 은행
하면서 부터
▁쓰 러
▁생산 ,
▁지방 과
▁지방 으로
▁귀 한
▁귀 환
▁언 도
cm 이며
▁논 농
▁논 리를
▁폐 단이
▁자연 과학
지역 인
▁누 락
대학 ,
▁날 ,
▁형성 하게
▁조직 으로
▁계속 적인
▁힘 에
▁시행 하는
▁시행 하고
▁난 방
▁설립 하고
▁먹 기도
▁기능 의
▁버 드
▁악 성
▁사업 장
▁흐 름이
▁차지 한
▁원출처 

학자 들의
▁구분 한다.

▁참여 를
▁노래 가
▁확인 된
▁7월 에는
방법 이
▁옮 기는
▁헌 납
at ure
▁규모 와
▁반대 하고
▁트 랜
▁왜 구의
▁강화 하는
▁헤 어
▁마련 하고
▁빛 ,
▁졸업 식을
▁상대 적인
▁주민 이
▁결합 을
라이 트
▁대중 적인
▁분리 하여
▁집단 은
▁185 6년
▁듣 지
▁체결 했다.

▁겨울 을
▁삼국 통일
▁60 여
▁조정 에서는
▁의식 과
▁이주 했다.

▁실현 을
▁관심 과
▁서술 하고
▁제주 도의
▁고정 되어
▁욕 구를
▁확실 하게
▁현상 이다.

▁불과 한
▁실천 을
▁타원 형의
▁대비 하여
▁전략 ,
▁동부 승
▁핀 란드
시험 에
▁바라 보는
▁경찰 에
▁몽골 의
▁『삼국 사기
▁한정 되어
▁씌 어
▁명령 에
다, 

▁자원 배
고등 보통학교
▁아카데미 상
▁끊임 없는
▁뾰족 하고
▁암컷 의
▁지혜 를
▁혼자 서
▁힌두 교
으리 라
용· 약용으로
▁부( 賦)
▁가파 른
▁우거 진
킬로 미터
▁AT P
▁Soci ety
▁심지 어는
▁챔 피
) 들은
6 품
o mm
· 염
▁ 四
▁ 넉
▁ 론
▁ 멤
▁ 쪄
和 尙
太 極
石 塔
軍 政
각 시
감 찰
개 토
경 전
경 (金
고 개
곤 충
공 으로
관 료
관 으로서
궤 범
금 동
기 한
길 의
길 이는
네 트
다 '라는
라 빈
략 (
레 아
루 즈
마 뱀
무 공
받 았으며,
발 달
보 라
봉 산
불 ,
사 변
삿 갓
생 명
신 체
안 보
인 정
정 사(
주 년을
지 도(
천 연
총 의
침 에
토 스
합 의
행 사를
형 인
화 산
회 사(
효 (
▁이 날
▁이 목
▁이 속
▁이 홍
▁그 릴
▁사 [
▁사 원의
▁수 학적
▁대 인
▁대 종
▁대 수도
▁지 정한
▁가 자
▁전 답
▁전 전
▁한 창
▁한 나라
▁시 체를
▁정 방
▁자 에
▁자 식을
▁일 하기
▁보 이지만
▁아 브
▁다 룰
▁위 원으로
▁부 양
▁부 리는
▁부 문의
▁고 갈
▁고 아
▁고 의
▁고 요

▁공 학
▁공 자의
▁공 과대학
▁공 의로
▁서 초
▁서 인도
▁구 금
▁구 한
▁상 연
▁원 정을
▁원 형으로
▁하 려는
)· 형
▁성 인이
▁영 사
▁마 당
▁마 오
▁마 이크로
▁장 갑
▁장 점
▁오 행
▁바 위가
▁무 궁
▁무 찌
▁거 쳤다.

▁선 양
▁선 조가
▁특 색을
▁말 합니다.

▁실 적을
▁계 기를
▁산 (
▁형 사소송
▁종 에
▁양 인
▁진 상
▁명 ,
▁‘ 서
▁‘ 조
▁[ 역사적
▁행 정을
▁행 복을
▁6 세
▁함 을
▁뒤 로는
▁파 벌
▁배 격
▁배 양
▁사용 ,
▁차 원의
▁군 부
▁과 학의
▁민 법
▁8 만
▁회 장을
▁직 책
▁증 언
▁본 능
▁데 에도
▁광 주(
(19 80
▁토 대를
▁토 마스
▁아니 고,
▁창 을
▁「 유
▁체 온
▁열 ,
▁식 재료
▁용 맹
▁용 도에
부분 에서
▁총 재
▁죽 여
▁중심 부에
▁치 아의
▁있었 다

▁제1 9
▁199 9
▁로 켓
▁생산 기
▁승 낙
▁국가 보
▁카 누
▁취 약
▁11 4
▁번 에
▁환 영
▁문제 들을
▁사실 로
(李 承
▁송 파
▁기술 하고
▁노동 력
▁코 린
▁메 트로
▁관계 의
▁관계 에서
▁발달 하고
▁결정 하고
▁놓 이게
▁벌 이는
▁야 심
▁윤 활
▁낮 추
▁낮 다.

▁빠 지게
▁30 cm
적이 어서
▁수행 하였다.

학자 들이
▁제3 호에
▁I MF
▁인정 할
▁참여 할
▁커 져
계획 ,
▁조각 한
▁게 오
▁넣 었다.

▁전문 적으로
▁어려 울
▁학교 가
▁응 답
▁언어 적
산업 을
▁딸 과
▁사랑 에
▁엄 지
▁환경 이
▁트 럼
▁트 렌
▁등장 하여
▁세포 로
▁세포 를
▁제품 ,
▁활용 하는
▁갖추 었다.

▁186 3년
▁186 8년(고종
▁남쪽 에서
▁전해 진
▁조사 되었다.

▁익 는다.

▁0 .8
▁21 )
▁21 세기
▁재배 하는
▁노력 하고
▁23 )에
▁첨 지
▁씨 는
▁동일 시
▁잃 지
▁들어가 서
▁지원 하기
▁관찰 사
▁덮 개
▁해석 하는
▁제한 되어
▁오른 쪽으로
▁유리 하다.

▁본래 는
▁읍 내
▁2년 간
▁사라 져
상태 로
▁신분 이
▁설정 하고
▁잇 달아
▁생겨 나
▁관심 은
▁임시 로
▁생기 면
▁시도 한
▁생명 과학
▁수요 를
센터 ,
id e
▁늘어 났
▁명시 하도록
▁계곡 의
▁조약 의
▁비율 은
▁꿈 꾸
▁보편 적으로
▁지내 다가
형태 로
▁직후 인
학급 에
학급 을
▁세웠 으며,
▁대리 석
▁피해 가
▁스승 인
▁배열 되어
▁스위 스의
▁아들이 며,
▁흐르 며,
▁물건 의
▁실용 적인
▁특허 를
▁줄어들 고
제국 대학
▁데이터 를
크라 이나
▁잊 지
▁일컬 어
병마 절도
▁아시 리아
엽수 림
▁재미 있는
▁간단 하게
▁≪삼국 유사
·옥 수수·
▁은혜 를
형동 검
▁획기 적인
▁오랑 캐
" 라는
( 3
) (
+ )
2 .
5 ),
E D
O 2
k et
y ,
· 정치
∼ 15
∼ 14
▁ 닉
▁ 락
山 川
正 言
者 ,
간 염
개 ),
기 법,
끼 를
네 가
담 의
대 교
들 처럼
려 (
류 해
립 의
마 리의
말 부터
면 에서는
무 왕
문 제의
반 복
방 한
삼 림
상 서
선 사(
세 자의
수 군
시 밀
식 물의
아 스
양 군
여 름
오 늘
와 ,
외 교
우 에
우 리는
임 의
자 이자
장 수
제 국의
즈 를
즈 베
지 아
직 원
참 한
청 ,
코 르
테 라
테 리아
티 스트
항 아
했 어요.

▁이 스터
으로 서는
▁사 격
▁사 하라
▁수 색
▁대 북
▁대 기의
▁대 상의
▁대 상에
▁가 나
▁기 사가
▁전 적
▁전 까지는
▁한 시
▁제 창
▁시 즌
▁정 경
▁자 선
▁주 둥
▁아 쉬
▁경 인
▁경 사를
▁유 죄
▁위 안
▁조 장
▁부 락
▁부 석
▁부 실
▁고 층
▁의 (
▁때 나
▁구 이
▁상 복
▁상 피
▁원 리는
▁소 리로
▁하 (
▁모 임을
▁있는 지를
▁연 방의
▁신 문은
▁세 대의
▁문 양이
▁교 단
▁통 폐합
▁남 종
▁오 세
▁바 흐
▁무 형문화재
▁특 성과
▁방 을
▁불 문
▁4 가지
▁후 사
▁말 도
▁현 대에
▁계 (
▁결 가부
▁노 랫
▁단 어의
▁알 제
▁화 원
▁' 시
▁평 생을
▁것이 니,
▁파 워
▁출 력
▁군 중
▁추 가로
▁권 력이
▁활 기
▁임 오
▁임 원
▁입 으로
▁요 소는
▁직 결
▁증 보
▁금 석
▁10 )에
▁청 색
▁청 소
▁피 살
▁피 에르
▁여러 가지
▁돌 기
▁심 하여
▁살 지
▁「 동
▁규 탄
▁들어 왔다.

▁들어 가지
▁것은 ,
▁길 로
▁『 고
▁구성 하여
▁총 선거
▁면 적을
▁연구 하고
▁석 실
▁한국 사
▁사이 클
▁14 세
▁절 에
▁이름 에서
▁지방 교육의
▁승 객
▁국가 들의
▁갖 기
▁카 롤
▁고려 를
▁앞 면
▁취 하였다.

시키 기도
▁가운데 에서
▁손 이
▁서울 올림픽
▁온 몸
▁행정 의
▁자연 주의
▁생각 되는
▁누 군
▁누 릴
대학 ·
▁위치 ,
▁특징 인
▁프로 세
▁친 구가
기관 ,
▁탄 식
▁몸 과
▁찾 았다.

▁밀 고
▁독립 장이
▁독립 전쟁
레이 션
▁떨 쳤다.

▁깊 숙이
▁정보 화
▁증가 ,
▁러 셀
▁D er
▁일어나 게
▁잠 을
▁어려 우
▁정신 의
▁혈 액을
▁플 랜
▁예술 을
공업 의
▁E ss
▁싸 울
시설 ,
▁활용 되고
▁기타 의
▁전해 지지
계약 서

▁작용 하여
▁익 숙
▁지구 에서
▁비판 한
▁건물 이다.

▁부르 며
▁거래 가
▁짧 게
▁해결 할
▁결혼 한
▁뒷 면에
▁50 %
▁변경 했다.

▁물론 이고
▁탑 승
▁분리 되었다.

▁조건 에
▁작가 로
▁씨 앗
▁바뀌 는
▁바뀌 었고,
▁이루어져 야
▁기관 에
▁시설 의
▁공부 하는
▁19세기 의
▁배치 된
▁제도 적
12 년(
▁기반 암은
4년( 숙종
▁오스트 레일리아의
.0 3
▁계승 하여
▁183 0년
▁훈련 ,
▁요청 하는
▁만나 게
▁경주 시
▁끊 어
▁소개 하고
▁권1 1
▁멀 어
▁가입 하여
▁이주 한
▁대동 맥
▁체포 되었다.

▁2014 .7
▁방문 하여
▁조약 에
▁감염 된
지면 적은
▁창조 적인
▁잡저 의
▁머물 면서
▁느낌 이
민주 주의
▁혼란 이
만으로 도
▁선호 하고
▁진단 하고
▁무용 ,
▁착용 하는
▁무시 하고
▁쥐 고
▁급여 ,
▁사후 에
▁얕 게
보건 복지
▁실린 더
)〉 》
▁신속 히
▁컬 럼비아
▁달걀 꼴
▁135 6년(공민왕
▁관개 용
▁깨닫 고
.)」 (
▁차가 운
▁간결 한
▁스미 스
프레 드
)·「 한국
▁생생 한
▁플로 리다
▁몸길 이가
▁부적 절한
▁흥선대원 군의
▁권6 에
▁며느 리
매일 신보
▁벵 골
▁필라델 피아
▁일리노 이
( 가
( 동
) 인데,
- 10
> 에서
A T
H .
c on
t u
t or
· 운
· 충
· 10
▁ α
▁ 겐
▁ 묽
▁ 볏
▁ 얘
▁ 캉
▁ 라는
」 이
中 庸
之 .
司 憲
帝 )
府 )
府 )의
持 平
白 雲
般 若
가 량
가 르
가 리
가 사
거 든
공 식
과 정의
관 념
관 리를
광 무
그 레이
기 초
길 로
니 (
돌 의
돼 지
등 과
렸 다고
리 야
매 로
모 리·
바 이트
배 의
백 과
본 위
부 인(
분 할
서 에서
속 과
시 [
시 픽
았 는데
양 반
었 으므로
연 수
였 다

예 정
요 는
유 리
인 력
임 에
자 적
정 사
지 야
지 지만
척 을
철 이
칼 슘
컵 ),
탑 비(
폐 를
풍 과
하 니,
함 께
항 일
해 내는
혁 명의
▁이 왕
▁1 천
▁대 서
▁대 파
▁가 문은
▁기 습
▁기 악
▁시 멘
▁자 원의
▁보 면서
▁경 전의
▁다 짐
▁다 행
▁다 르크
▁유 선
▁유 해
▁위 (
하였 음

▁조 (
▁조 예가
▁인 목
▁부 교
▁고 민
▁고 르게
▁고 혈압
▁의 문을
▁공 장을
▁동 시대
▁구 절을
▁상 아
▁원 리로
▁3 2)
▁국 역
▁여 성은
▁도 사
▁영 미
▁통 행
▁마 비
▁않 다는
▁남 기
▁남 하
▁선 비의
▁없 거나
▁분 파
▁분 자의
▁우 루
▁후 백
▁말 ,
▁실 제의
▁반 박
▁반 전
▁5 00여
▁재 산의
▁당 간지
▁단 가
▁단 어가
▁양 천
▁명 료
▁‘ 신
▁두 각을
▁알 칼리
▁예 고
▁안 산
▁왕 조가
▁파 헤
▁초 에는
▁출 원
주의 자들의
▁직 각
▁증 폭
년( 2
지는 데
▁새 겼다.

▁처 해
▁10 3
▁피 터
▁돌 렸다.

▁아니 며
▁김 석
▁가지 며,
▁작품 에는
▁백 악
▁식 의
▁총 체
▁하나 로서
▁한국 을
▁사이 드
▁기록 ,
▁책 정
▁판 단을
▁로 드
▁순 화
▁이름 난
▁이름 도
)」 가
)」 의
▁196 0년에
▁카 페
▁번 영
▁봉 양
▁영향 ,
▁극 적
▁극 적인
▁글 의
▁인간 에
▁변화 로
▁축 산
▁만들 었으며,
▁송 이
▁친 히
▁라 디
▁모양 과
▁먹 기
▁T ra
▁S BS
▁구조 에
▁문학 이
▁뿐 이었다.

▁악 보
▁윤 회
문학 (
▁염 화
▁증가 로
▁자료 에
한다 면,
▁브 르타뉴
▁189 1년
활동 으로
▁건축 에
▁대통령 을
▁러시아 에
▁담당 하여
▁6월 에는
▁땅 속
▁여기 에서는
▁수록 하고
▁수록 되었다.

▁대신 해
▁와 이
▁등장 하였다.

▁찾아 보기
▁1. 6
▁반응 의
▁탈 환
▁싸 서
시설 과
▁강화 하기
▁미술 의
▁R h
▁활용 한
▁186 4년
▁빛 나는
▁드러 낸
▁보아 도
▁0 .
▁전시 와
ro s
▁북쪽 에서
▁분석 을
▁그래 도
▁동쪽 에는
▁뒷 면에는
▁노력 하였다.

▁유형 은
▁물리 학자
▁주도 하는
▁공업 이
▁휘 말
▁연합 국
▁얼굴 과
▁얼굴 이
▁임금 은
▁저항 이
▁신설 된
▁부산 광역시
▁기여 를
▁소개 한
▁복잡 하고
▁전설 을
▁시험 에
▁조금 도
해지 면
▁대한민 국의
기계 와
▁끓 인
▁방문 한
▁입학 하여
▁창조 적
형태 는
▁굵 기는
관찰 사를
▁접촉 을
(200 6).

▁자녀 를
▁취급 하는
53 년(
▁동생 인
▁풍속 을
▁혐 의를
▁페르시아 의
▁관습 을
▁몰아 내고
▁완공 되었다.

▁누구 도
▁소수 민족
▁애국 장이
▁X 선
금강 경
▁기름 진
▁비정 상
▁사태 가
▁칙 령
박물 관이
▁프란 체스코
▁동학 농민
▁정유 재
▁스탈 린
▁쏟아 져
▁신원 보증
▁알파 벳
▁한결 같이
▁유고 슬라비아
▁〈구 약성서
▁추계 ).

센티 미터
악학 궤범
▁트럼 펫
( 家
/ h
C .
I P
T X
i am
o 〉(19
~ 70
· 스
· 한국
▁ 古
▁ 껴
▁ 둑
▁ 옅
▁ 팝
中 )
人 )이
儒 )의
說 )」은
갈 색이다.

갈 래로
거 북
건 에
곳 에
공 격
근 육
꽃 과
나 갈
날 인
냈 으며,
네 프
농 악
대 책
대 출
돌 과
량 도
마 귀
마 니
마 라
묘 는
문 토
민 들은
바 이오
방 어
번 이
북 면
비 한
사 정
사 지(
성 취
세 ·
소 .
소 이다.

신 체적
실 도
암 리
았 다

역 학
연 기
연 도
원 사(
을 ,
읍 에
일 )
일 치
자 스
자 율
자 전
자 라고
작 품을
장 관을
조 립
좁 은
주 거
처 (
처 의
천 리
총 회
츠 는
치 히
카 우
품 인
험 이
협 조
협 정을
호 텔
화 시켜
회 사와
휴 양
▁이 삭
▁1 4년
▁사 각
▁수 도가
▁대 들
▁지 양
▁등 재
▁기 틀을
▁전 향
▁전 공을
▁한 랭
▁제 국은
▁시 라
▁시 대로
▁정 사를
▁자 물쇠
▁일 일이
▁중 흥
▁2 5년
▁2 세와
▁주 저
▁주 인이
▁주 도로
▁아 들에게
▁경 리
▁경 치를
▁다 각
▁다 닐
▁유 수
▁위 상
▁조 조는
▁인 도에
▁부 진
▁의 성
▁공 사가
▁때 만
▁서 둘
▁원 료로
▁소 변
▁하 자,
▁연 대가
)· 단
▁3 분
▁세 종의
▁문 교
▁문 장과
▁국 정을
▁여 부에
▁도 출
▁도 호
▁성 산
▁남 에게
▁남 성의
▁강 ,
▁강 가에
▁미 약
▁미 쳐
▁거 제
▁거 리는
▁방 조
▁불 경
▁4 00여
▁말 한다(
▁5 권
▁재 가
▁재 난
▁재 차
▁〈 영
▁당 쟁
▁당 하였다.

▁당 연한
▁양 측
▁물 권
▁‘ 삼
▁[ 산업
▁[ 보건복지
▁안 데스
▁행 진
▁평 창
▁변 동이
▁초 현실
▁배 반
▁군 은
▁추 억
▁포 자의
▁입 국
▁요 소와
▁감 금
▁외 삼
▁증 여
▁저 서를
▁더 해
▁본 인의
▁호 가
▁금 리
▁태 즈
▁피 가
▁합 장
내용 은
▁「 신
▁체 코
▁체 제가
▁못 하면
▁열 정
▁채 권의
▁황 룡
▁기록 도
▁쓰 이지
▁세계 와
▁197 3년에
▁관련 질병
▁국가 에서는
▁귀 의
▁손 질
▁줄 기에
▁줄 이고
▁줄 무늬가
an n
▁제2 의
▁제2 83
▁맞 물
▁맞 추는
▁이것 들은
▁발생 하면
▁발생 합니다.

이었 다.
)’ 에
▁능 력의
▁협 회
▁송 (宋
▁계속 하여
▁작성 해야
▁몸 소
교육 기관
▁국제 공항
▁관계 되는
▁S ch
▁이곳 이
▁곧 ,
▁건설 한
▁차지 하게
적이 다

▁곡 선을
▁않았 으며
▁골 고루
▁확인 되지
▁응 집
▁이들 에
▁헌 병
▁시대 는
▁덕 수
▁학생 들에게
▁현대 식
▁교회 에서
▁현실 적으로
▁행동 은
▁11월 에는
▁썼 고,
▁마련 된
▁186 5년
▁규정 하는
▁점차 로
▁G DP
▁고구려 가
계약 의
▁하였 다는
▁H e
▁187 2년
▁적용 된다.

▁단순 하고
조직 에
▁대중 에게
▁도입 하여
▁납 입
▁직업 을
▁바람 의
▁년 이
▁측면 이
▁관직 에서
▁W h
▁무엇 인가를
▁휘 그
▁전반 의
▁영토 가
▁털 은
▁1년 간
▁건강 이
▁목적 ,
▁설정 하여
▁불가 리아
▁위원 장
▁웅 장한
▁전후 에
▁다스 렸다.

▁공화 당
▁고정 된
▁제국 에
▁의료 보험
▁제목 ,
▁제목 을
▁명확 하고
▁발간 된
▁장애 가
▁판단 된다.

▁영업 관리
ig n
▁쪽 은
▁쪽 의
▁선박 의
▁자격 이
▁제안 했다.

▁필리 프
▁인용 하여
▁반도 체,
▁예방 접
▁흐름 ,
▁권3 은
▁비극 적인
▁쟁 취
▁빚 어
▁출간 되었다.

▁석탑 은
시절 에
▁용어 이다.

▁궁중 에서
▁포르투갈 의
▁꽃잎 은
▁니콜 라
▁맞추 기
▁감싸 고
▁현무 암
▁국회의원 선거
▁박물 관이
▁어우 러져
▁미주 리
▁재단 법인
▁조선미술 전람
▁롬 바르
▁[보건복지 부령
▁관련질병 :
3 ),
A .
H z
o le
· 생
· 학
▁ 깜
▁ 닻
▁ 럭
▁ 쉴
▁ 찐
▁ 쿼
▁ 텅
▁ mm
」 과
」 에서는
主 簿
州 )에
社 )에서
강 원도
격 한
경 기도
고 대
광 주
군 수
규 철)
날 이
내 셔널
단 종
담 과
대 비(
덕 은
덕 의
동 기
동 면
랗 게
렸 는데,
례 로
리 시
리 페
막 으로
매 (
먼 드
미 디어
민 국
밥 을
별 ,
산 물은
시 즌
시 하고
식 돌
심 규철)
양 식의
어 업
어 로는
옥 을
율 로
이 다가
적 이라는
정 기
졌 지만,
지 로는
집 단의
카 타
커 는
편 집
평 장
포 장
표 란
표 현
하 천
행 정의
행 위가
협 회를
화 에서
▁이 도
▁이 만
▁이 튿
▁이 형
▁1 호
▁사 적인
▁수 만
▁수 화
▁대 단
▁지 켰
▁가 꾸
▁가 느
▁가 늠
▁등 단
▁기 체가
▁전 복
▁전 하여
▁제 도로
▁시 위를
▁정 세
▁자 이나
▁일 깨
▁일 종으로
▁중 에도
▁2 단
▁2 주
▁보 광
▁아 폴
▁아 기를
하였 지만
▁관 악
▁부 부는
▁부 문에
▁부 당한
▁의 약
▁의 열
▁의 혹
▁동 부에
▁동 의를
▁서 얼
▁비 문은
▁구 룡
▁구 명
▁상 용
▁소 문이
▁연 마
)· 허
▁3 50
▁문 법에
▁여 럿
▁여 유
▁도 장
▁도 리를
▁성 대
▁영 락
▁영 흥
▁따 름
▁마 호메
▁바 위에
▁무 소
▁무 언
▁선 현배
▁방 면의
▁분 쇄
▁5 cm
▁많 기
▁많 을
▁〈 불
▁노 골
▁노 선
▁당 도가
▁양 분을
▁진 관
▁진 리
▁진 취
▁명 과
▁18 개
▁알 성
▁행 적을
▁건 전
▁' 성
▁' 어
▁함 .
▁것이 다

▁변 질
▁파 인
▁초 하루
▁사용 되어
▁최 신
▁활 자를
▁때문 인
▁요 직을
▁감 귤
▁학 자들의
▁근 교
▁8 .
▁회 피
▁본 보기
▁새 겼
▁함께 ,
▁김 경
▁김 은
▁심 정을
▁살 충
▁「 오
▁천 인
▁우리 에게
▁백 자
▁채 권을
▁항 복을
▁철 회
▁타 도
▁판 의
▁절 도
▁곳 이었다.

▁활동 (
▁에 트루
▁카 리브
▁11 편,
▁효 력
▁줄 거리는
회의 가
▁질 문을
▁업 체가
▁변화 ,
대학교 가
이었 음을
▁침 전
▁날 씨
▁형성 과
▁형성 했다.

▁조직 적인
▁영국 을
▁만들 게
도로 가
▁애 정
▁결정 이
▁존재 는
▁존재 의
▁눈 물을
▁로마 는
▁1, 500
▁30 분
▁제3 회
▁종류 로
▁벽 화는
▁I (
▁팔 을
▁패 전
▁녹 지
▁참여 하고
▁노래 하고
▁불교 와
▁압 류
▁발표 되었다.

▁담당 하게
▁물질 에
▁인물 들을
▁헌 정
지방 으로
▁결국 은
▁제공 하는데
▁방향 과
▁188 7년
▁학생 을
▁1. 2
▁계약 서를
▁습 기가
▁헤 로
▁어린 이의
▁썼 으며
▁자동 화
▁하였 으며
▁북쪽 에는
▁자본 금
▁분석 하여
▁즐 겼
▁것과 ,
▁관할 하는
시간 은
▁판매 하거나
▁스스로 의
▁돈 이
회사 인
▁씨 의
▁히 로
)에게 서
▁공부 하고
▁성립 한다.

▁관직 은
▁꾸 민
▁흘러 드는
▁185 7년
정보 를
▁런던 으로
▁184 6년
업무 의
▁거주 하고
▁채택 한
▁넘어 가는
기능 이
▁섞 어서
리기 둥
▁대립 이
▁의식 에
〉(1 6
▁생성 되는
▁장악 했다.

▁절차 나
▁유행 한
▁개선 하기
▁진출 을
·전 자
▁금지 하는
id ae
▁펴 낸
▁쇼 핑
▁아내 의
▁규칙 적으로
다" 는
▁이하 로
▁굳 이
▁지붕 을
운영 ,
▁삭 탈
▁극복 하고
관찰 사가
▁다섯 째,
▁합류 하는
▁개별 적인
▁4년 제
▁도모 하는
▁행정구역 으로는
▁내세 운
▁합쳐 져
희( 朱
▁늘어나 는
▁망명 하여
▁두께 는
▁튀 르크
▁톱 니
.12 .3
▁깨달 음을
▁주름 살은
▁무릎 을
▁스웨덴 의
▁선임 되었다.

▁옥개 석
으리 라고
이[ 上海
▁일방 적으로
▁켄 터키
▁다녔 다.

▁Po em
▁드나 들
▁순서 대로
▁IV -
▁캄보 디아
▁정묘 호
▁선현배 향과
% 이다.

( 無
] .
r en
· 순
· 약
· 육
▁ 림
▁ 킨
▁ 푹
▁ at
使 )에
公 主
子 )를
學 士
將 )
御 史
心 經
心 )을
文 集
文 ),
書 )·
派 )의
義 )를
道 )가
門 ),
院 )
건 ,
검 사를
게 ,
경 성
골 (
관 상
구 (金
구 조에
권 도
권 력
극 이
근 은
기 면
남 동
냈 고,
농 장
달 라는
돼 지·
들 랜드
룩 한
리 기도
메 로
메 이션
명 도
바 ,
바 리
선 박
야 에
양 으로
여 ,
왕 에
움 의
월 일
자 라는
재 단
절 차를
정 전
졌 으나,
종 인
진 (金
질 서의
초 까지
추 천
타 나
항 ,
형 식으로
회 사에
휘 (
▁이 력
▁이 메일
▁1 의
▁그 랜드
▁사 주
▁사 춘
▁사 과·
▁수 묵
▁수 력발전
▁대 금을
▁대 군을
▁대 (大
▁대 담한
▁지 었으며,
▁가 던
▁가 람
▁것 ”
▁것 입니다.
▁기 해
▁기 관은
▁기 운이
▁전 선
▁한 방
▁한 문으로
▁정 박
▁자 부
▁일 원이
▁2 ~4
▁보 문
▁보 물로
▁경 은
▁경 관이
▁인 의
▁나 갈
▁나 침
▁부 인의
▁고 뇌
▁공 정을
▁공 장에서
▁서 낭
▁서 산
▁구 심
▁소 상
▁연 보
▁신 간
▁신 념을
▁3 배
▁개 정을
▁개 정에
▁개 선을
▁문 자가
▁문 체를
▁생 체
▁여 자를
▁도 구에
▁교 대
00 1
▁통 계,
▁마 크
▁마 틸
▁장 비에
▁남 조선
▁오 비
▁오 르고
▁바 나
▁무 안
▁강 도
▁강 인
▁미 니
▁미 치
▁방 아
▁방 안
▁방 학
▁방 식의
▁불 만
▁불 복
▁분 청
▁우 대
▁말 에는
▁5 00년
▁5 00m
▁산 둥
(1 1
면서 부터
▁〈 사랑
▁노 령
▁형 광
▁형 용
▁당 하고
▁당 대에
▁명 분
▁‘ 일
▁‘ 진
▁두 었고,
▁[ 활동
▁행 차
▁변 론
▁초 ·중
▁배 심
▁매 니
▁출 옥
▁표 면이
▁군 이
▁활 을
▁스 톡
▁민 씨
▁북 조선
▁법 성
▁감 은
▁회 장으로
▁저 널
▁본 부
▁호 라
▁지역 사회
▁금 을
▁집 시
▁삼 촌
▁피 사
▁피 츠
▁사회 에서는
▁돌 며
▁돌 기가
▁토 의
▁참 나무
▁가지 지
▁창 제
▁「 고
▁「 이
▁열 광
▁열 리고
▁구성 한
▁병 균
▁한국 방송
▁큰 아
)」 (
▁카 스트
▁효 자
시키 거나
▁이상 한
▁박 달
▁박 해
▁존 경을
▁이를 테
▁줄 기와
▁볼 로
▁투 자가
▁허 위
▁허 락을
▁자연 경
지역 에는
▁암 수
▁변화 

▁생활 에서
▁송 신
▁돌아 갔
▁주장 하여
▁개발 과
▁붙 이고
하려 던
사업 과
▁맡 는
전( 大
▁이해 가
▁차지 하며
▁189 4년(고종
▁수행 한
▁지나 고
▁1일 

▁뉴 잉글랜드
▁시간 은
▁과정 과
▁법률 이
▁물질 로
▁공동 의
▁여기 고
▁간행 했다.

▁추정 되며,
▁사랑 이
▁시대 [
▁테 니
▁성공 하지
▁습 곡
▁E C
▁강화 하고
▁미술 가
▁휴 직
▁쌓 인
▁그녀 에게
▁현실 적
▁해안 선
▁클 라이
▁남쪽 에는
▁결합 된
▁마음 은
조( 趙
▁0 .1
▁0 .6
▁비판 했다.

▁24 0
▁24 시간
ch en
▁자본 주의의
▁동쪽 과
▁재배 되고
▁개편 하면서
▁작가 들이
▁히 말라야
▁22 )
▁끼 어
il os
▁완성 한
▁아무 것도
(199 2).

6년( 영조
▁책임 이
▁2, 0
4년( 인조
▁슬 픈
▁빼 어난
▁남부 에서
▁신앙 과
▁채택 했다.

▁제거 한
▁종합 적으로
▁정의 는
▁벼슬 길에
▁고용 노동
▁재료 가
세포 는
▁대립 을
▁복잡 하게
▁실현 하는
▁오르 간
em p
~9 0
▁지점 의
▁수술 이
▁명확 하지
▁화려 하고
▁시집 을
▁재위 )
▁증거 로
▁옛날 의
▁내부 에는
▁모래 가
▁5개 년
▁값 싼
▁자격 으로
▁조작 ,
▁보살 의
▁빼앗 아
▁간주 된다.

▁인적 사항,
▁세부 적인
▁10년 간
▁만족 도
▁홈 이
▁부임 하여
▁방출 되는
▁응용 에
▁흩 어
▁2번째 로
▁본질 적인
▁끌어 올
▁다듬 어
▁영혼 의
▁세속 적인
스러 워
▁예측 할
주름 살
▁증권 거래
·마 늘
▁신속 하게
지정 문화재
▁기하 학의
▁카이사 르
▁낱 말
습니 다.”
▁쓰여 진
▁대대 적으로
ub lic
▁용산 구
▁아라 곤
▁힘쓰 고
▁전성 기를
▁생김 새
▁적당 히
▁백과 사전
▁돌연 변
▁7~8 월에
▁상응 하는
▁싱가 포르
▁테네 시
▁플랑크 톤
▁최고인민 회의
▁아프가 니스탄
희(朱 熹
" 이라고
( a
( 예를
/ 어
7 .
D A
l o
l es
m )을
r ist
· 요
· 채
· 초
· 통
· 화학
· 감독
▁ ᄃ
▁ 넋
▁ 셸
▁ 라고
・ 신설
中 央
代 )에
石 室
讀 書
面 )의
面 )

골 과
교 사로
권 에는
귀 (
네 스크
누 스가
니 언
대 지
라 며
런 히
렸 으며
률 의
리 거나,
면 도
명 인
모 리는
문 제로
물 로는
바 꿈
범 죄
법 원의
보 관
분 류
소 나
수 엘
순 위
스 키는
았 다.
야 구
에 다
열 과
엽 의
였 으므로
위 임
유 록
윤 을
인 본.
일 간
입 을
자 리가
저 ,
전 달
전 라
절 ,
조 달
좌 에
준 의
지 던
지 스
척 이
천 동
추 를
춧 가루
캐 나다
탐 구
태 ,
테 가
티 드
학 원(
해 상
행 위에
협 약
혜 의
화 해
회 상
훈 민정음
▁이 장
▁이 스트
▁그 도
에서 와
▁사 내
▁사 유를
▁수 강
▁수 와
▁수 학자
▁수 학을
▁수 량을
▁대 명
▁대 우를
▁지 점을
▁지 낸다.

▁지 켰다.

▁것 이나,
▁전 각
▁제 도,
▁시 도는
▁정 권이
▁일 러
▁아 뢰
▁아 들의
▁경 주의
▁위 정
▁위 헌
▁관 형
▁인 원
▁인 체의
▁부 상을
▁부 대를
▁부 문에서
▁의 자
▁의 정
▁동 탁
▁동 한
▁동 행
▁동 부와
▁서 독
▁구 간은
▁상 단
▁상 표
▁상 형
▁상 단에
▁소 급
▁연 등
▁연 체
▁연 산군
)· 만
▁신 으로
▁신 경을
▁세 력과
▁문 산
▁국 군
▁국 호를
▁내 왕
▁도 산
▁도 지
▁영 덕
▁교 수를
▁작 문
▁만 인
▁통 달
▁통 속
▁마 야
▁장 승
▁않 거나
▁남 포
▁미 망
▁미 하
▁방 광
▁방 랑
▁우 익
▁후 학
▁말 까지
▁말 년에는
▁계 시
(1 60
▁〈 바
▁결 산
▁단 ,
▁양 (
▁두 드
▁두 번째
▁예 리한
▁안 다
▁행 위로
▁평 소에
▁함 량이
▁파 열
▁배 정
▁사용 되기도
▁적 외
▁차 량의
▁매 료
▁출 세
▁표 본
▁간 헐
▁독 성
▁포 섭
▁같은 해
▁점 에서는
▁요 인에
▁감 히
▁회 부
▁더 러
▁더 하여
▁본 뜬
▁운 문
▁호 화
▁금 광
▁광 활한
▁합 세
▁김 재
▁할 리우
▁15 세기에
▁작품 도
▁작품 들
▁길 어
▁17 개
나라 가
▁복 식
▁구성 한다.

▁죽 이는
▁치 밀
▁치 유
▁황 백
▁로 열
▁즉 흥
▁올 바
▁197 5년에
▁생산 한
▁에 어
▁국가 나
▁고려 말
▁고려 해야
▁앞 두고
▁이상 에
▁향 이
▁걸 러
▁줄 기의
회의 는
(李 東
▁잡 을
(金 宗
▁이어 받아
▁극 의
▁≪ 동
▁폐 허
▁자연 현상에
▁중앙 부를
▁누 비아
)’ 가
)’ 과
▁생활 하는
▁접 시
▁발견 하고
▁섬 진강
▁꽃 과
▁친 근
▁몸 체
▁시행 할
▁메 인
▁개발 하고
▁개발 되어
▁발달 은
연구 소가
▁애 정을
▁실시 로
▁색 으로
▁관리 업무를
▁기본 이
▁비교 하면
▁떠 날
▁보고 와
▁녹 는
▁마을 로
▁요구 로
▁요구 되는
▁건축 의
▁몰 고
▁디 젤
▁게 르
▁인물 들이
▁헌 법은
▁서식 이다.

▁진행 된다.

지방 과
▁낙 농
▁제공 했다.

▁등장 하고
▁등장 인물
▁전개 했다.

▁E l
▁싸 웠다.

▁규정 은
▁빛 은
▁공격 에
▁공격 해
▁북한 에서
▁터 빈
▁187 3년
▁확대 되고
▁놀 랄
▁개혁 에
▁맺 게
▁묘사 하는
무늬 는
▁50 만
▁재배 하고
▁제4 0
▁개편 되어
▁흡 사
음악 을
▁상호 관계에
▁동일 하게
▁관직 이
▁근로 기준
▁흘러 나
▁휘 하의
▁주의 사항
▁낭 송
▁2, 5
▁맛 은
▁기여 하고
▁가톨릭 교
▁받아들 일
▁콜 럼
▁살펴 본
▁중심지 인
▁임시 정부의
▁보관 하는
모양 이고
▁아내 를
▁후손 인
▁컴퓨터 를
▁발간 하고
▁부담 이
▁앉 은
▁꿈 에
▁유물 로는
▁비난 했다.

▁의존 하고
▁할아버 지
▁한때 는
▁139 2년(태조
▁발휘 했다.

▁곤충 의
▁뛰어나 고
▁원산 지인
▁수리 하기
▁하이 든
▁162 3년
▁빚 을
▁달아 나
▁석탑 의
▁충실 한
▁소요 되는
수준 이
▁관여 하는
▁기법 이나
▁일자 리를
그룹 의
▁함유 하고
▁함유 되어
大學 )
▁모서 리
▁〈신 약성서
▁트로 이
▁화장 품
수행 능력
▁부피 가
▁내포 하고
▁대법 원
▁납작 한
▁최소한 의
▁거문 고
▁쪼 개
▁평탄 한
×0 .2
▁마땅 히
rig ht
▁Americ an
▁커뮤니 케이션
( 미)
- 7
7 km2,
B M
E .
I T
S P
a ,
t ra
· 두
· 승
· 체
· 풍
▁ 南
▁ 天
▁ 而
▁ 랍
▁ 엠
▁ 옴
事 件
代 )
光 祖
典 校
州 )로
心 性
承 旨
源 )의
科 )에
經 )』
謝 恩
護 軍
가 능한
갈 색으로
개 선
공 정,
그 란
그 레
기 (金
노 를
님 은
리 비아
메 니
면 역
미 나
미 어
박 (
박 람
발 트
백 운
백 화
버 리는
복 으로
봉 산(
비 나
서 리
서 로는
쉽 게
슨 과
실 에는
십 시오
오 동
왕 으로
용 과
인 으로서
인 들에
임 으로써
작 용으로
제 4
줄 기를
즙 을
지 평
집 이다.

체 계가
충 숙왕
치 [
크 (
타 와
탄 이
통 한
티 시
패 의
피 에
합 성
허 (
화 시키는
황 의
회 관
▁이 복
▁이 언
▁있 습니다.
▁사 나
▁수 감
▁수 난
▁지 느러미
▁가 산
▁가 온
▁것 

▁기 밀
▁기 한
▁제 (
▁정 무
▁자 와
▁아 연
▁아 리아
▁경 치가
▁유 라시아
▁조 언
▁조 세를
▁인 감
▁인 체
▁인 종,
▁의 금
▁의 사의
▁공 학적인
▁서 거
▁구 (
▁원 줄기는
▁하 계
▁모 를
▁연 근
▁연 원
▁연 차
▁발 목
▁발 해의
)· 병
)· 운
▁개 개의
▁문 서로
▁도 에
▁성 분을
▁성 스러운
▁성 동구
▁영 유
▁영 상을
▁마 시는
▁남 도
▁남 부를
▁바 다가
▁무 수
▁무 리가
▁강 사
▁강 연을
▁미 곡
▁미 처
▁선 종의
▁특 성은
▁불 상이
▁4 0년
▁4 번째
▁우 는
▁우 스
▁우 위를
▁우 주가
▁말 갈
▁실 을
▁5 0년
▁산 록
▁산 학
▁많 았던
(1 64
▁재 물을
▁〈 장
▁〈 주
▁결 구
▁노 선을
▁노 사나
▁양 과
▁진 양
▁두 상
▁알 래스카
▁예 견
▁예 전
▁파 도
▁파 동
▁초 (
▁사용 자
▁차 고
▁출 하
▁추 산
▁간 경
▁간 직하고
▁북 으로
▁북 유럽
▁입 장이
▁7 만
▁외 화
▁외 부에
▁이루 고,
▁호 수의
▁태 화
▁삼 는다.

▁청 풍
▁9 00
▁심 오
▁음 각
사( 都
▁창 안
▁15 일에
▁천 마
▁천 하
▁시작 할
▁열 이
▁열 강의
▁식 사
▁식 사를
▁식 량을
▁복 리
▁하나 도
▁병 인
▁연구 하기
▁충 북
▁충 효
▁황 종
▁기록 이다.

▁197 2년에
▁순 서에
▁곳 도
▁에 워
er e
▁환 자가
▁존 엄
▁13 편,
▁갈 대
▁발전 해
▁발전 하고
▁논 설
▁온 도는
▁투 르
▁투 영
▁허 드슨
▁설치 할
▁대표 작으로
▁제2 3
▁극 작
▁글 래
▁묘 향
▁생각 하였다.

▁포함 되었다.

▁날 에
▁날 개를
▁조직 과
▁협 력을
▁접 대
en ti
▁힘 은
▁노동 력의
~1 00
▁좌 의정
▁먹 어
▁수도 회
▁문학 작품
▁놓 고,
▁국민 에게
▁연결 한
▁염 소
▁M y
▁유럽 을
▁맡 았던
시켰 는데,
▁임명 하는
▁빠 지지
사회 에서는
▁이야 기로
▁옥 고를
활동 ,
▁양식 에
▁구분 되어
▁구분 되는
▁인정 받고
▁마을 은
되면서 ,
▁잠 (
▁전국 에서
▁러시아 가
▁레 드
▁트 레이
▁장식 은
▁이동 하여
▁지도 자로
▁싸 움이
시설 로
▁쌓 는
▁탐 지
▁공급 이
▁d u
▁186 7년
▁북한 산
도시 가
▁다르 기
▁하였 다고
▁F ran
▁유전 자가
▁부족 의
ro p
▁분석 하는
무늬 와
▁스페 인에
▁도입 되었다.

▁징 발
▁기념 하는
▁성립 과
▁표시 되어
▁후반 에는
▁선거 를
▁없었 고
▁오른 쪽에
▁자세 로
▁티 무
75 년(
▁밝혀 진
▁광복 을
▁건립 되었다.

컴퓨터 의
▁있음 이
▁지적 하고
▁융 성
▁고전 적
▁콜 라
▁콜 롬비아
전문 대학
▁잉 여
세포 가
▁흡수 하여
▁십 이지
▁2014 .11
▁부처 가
▁계곡 에
▁구릉 성
고등학교 를
구조 와
▁기온 은
▁법칙 에
▁번째 로
▁산출 된다.

반응 을
▁화합 물을
▁어디 까지
▁끝나 자
學校 )
▁끝난 다.

보통 학교를
▁관념 을
tic )
군사 관
▁뚫 어
▁상하 이[上海
▁둘레 는
▁근육 이
랑이 에서
▁매출 액
▁이황 의
안전 처
▁셀 레
▁전래 된
▁사태 를
▁글로 벌
▁자랑 하는
상품 이나
▁원활 한
▁국토교통 부-
▁국토교통 부령-
▁있겠 는가
▁나눈 다.

저우 [
오염 물질
▁멘 델
▁≪삼국 사기
ati ve
▁섬세 하고
▁아르헨티 나
▁필연 적으로
▁잃어버 린
ograph ic
▁큼 직한
▁움직인 다

▁못지 않
▁봄·가을 에
▁보헤 미아
법화 경
▁B형 간염
▁이스터 섬
▁[활동 사항]
조(趙 光祖
" 는
' [
, 7
- 12
4 ).

9 ),
O P
P .
c c
m 3
s y
· 바
· 새
· 에
▁ 꿇
▁ 낯
▁ 는
▁ 똥
▁ 뜯
▁ 룩
▁ 맘
▁ 뺨
▁ 년에
事 )·
修 撰
參 奉
太 子
學 )에
府 )를
會 )의
禮 )를
衙 門
試 )에
郡 )
郡 )의
陽 )
靈 山
風 俗
가 서
강 도
거 부
공 기,
교 차가
급 제
날 에
내 (
낸 다

너 비
네 티
놀 이는
다 녔
당 서
따 금
랑 ,
렬 (
롭 지
리 티
리 며,
마 리를
머 리를
문 선
바 일
방 지
배 에
번 (
벽 에는
봉 사(
부 부
사 라
산 악
석 조
소 수
소 타
숙 하게
순 이
술 한
씨 로
안 전과
앉 아서
양 식이
어 미
어 .

연 하며
영 사
온 의
왔 는데,
유 통
윤 리
의 는
인 지를
자 

자 리는
자 로는
재 무
조 개
지 출
지 자,
진 단
참 여
천 에서
철 학을
취 득
츠 크
캠 퍼
타 인
탁 (
탑 은
토 끼
트 레
파 르
판 에서
펜 션
푸 르트
해 가는
후 와
흥 미
▁이 서
▁이 사회
▁이 따금
▁있 다
▁사 행
▁수 목
▁수 월
▁수 혈
▁수 령이
▁대 별
▁지 낼
▁지 수
▁등 지를
▁기 거
▁기 고
▁기 계의
▁기 다리
▁전 구
▁전 속
▁한 말
▁한 역
▁정 철
▁중 턱
▁중 퇴
▁중 세에
▁주 식의
▁경 지를
▁다 포
▁유 (
▁유 상
▁유 실
▁위 아래
하였 지만,
▁인 산
▁부 자
▁고 문을
▁동 회
▁비 관
▁비 해서
▁상 동
▁원 년
▁원 인에
▁발 의
)· 태
▁신 구
▁신 입
▁개 업
▁세 네
▁세 조가
▁세 상에서
▁문 자로
▁내 정
▁내 부를
▁내 놓았다.

▁도 금
▁도 안
▁도 로는
▁성 형
▁영 암
▁영 조가
▁해 로
▁교 량
▁교 생을
▁마 름
▁마 술
▁마 리가
▁장 점을
▁장 소,
▁남 대
▁남 다른
▁오 아
▁바 지
▁무 당
▁강 행
▁미 역
▁미 학
▁없 지
▁없 이는
▁4 ~6
▁실 외
▁반 으로
▁반 대를
▁반 해,
▁5 천
▁같 았다.

▁산 기슭
▁재 구성
▁〈 기
▁〈 여
▁노 원
▁형 을
▁형 편
▁당 면
▁단 호
▁두 었다가
▁[ 그림
▁알 라
▁예 성
▁안 락
▁역 전
▁역 량을
▁뒤 부터
▁왕 성한
▁파 격
▁파 급
▁초 부터
▁사용 자의
▁최 승
▁표 적
▁군 생한다.

▁권 10
▁간 도
▁포 드
▁속 도의
▁입 교
▁외 면
▁직 원의
▁직 위,
▁조선 에서
▁지역 인
▁새 의
▁10 세
▁크 리스토
▁태 종의
▁태 조는
▁태 피스트
▁삼 베
▁사회 과학
▁돌 널무덤
▁토 대가
▁김 인
▁심 성
▁가지 며
▁「 한
▁규 율
▁열 악한
▁백 일
▁『 한
▁용 액
▁총 상
▁치 마
▁황 산
▁제1 호
▁쓰 이기도
▁199 8
▁관련 되는
▁절 반을
▁198 2년에
▁활동 으로
▁에 른
▁196 0
▁196 7년에
er al
▁풍 류
▁고려 가
▁귀 퉁
▁가운데 서도
▁박 은
cm 인
▁향 하고
▁정치 와
▁비롯 해서
▁발전 소
▁발전 하는
▁줄 로
▁195 8년에
▁방법 의
▁프랑스 ,
0년대 에는
▁맞 닿
▁침 몰
▁누 각
▁위치 하여
▁협 조를
▁협 주곡
▁송 병
en n
ti g
)』 에는
▁결과 의
▁붙 었다.

▁발달 이
연구 회
▁애 사
▁결정 된
▁유명 했다.

▁이곳 에서는
▁악 한
▁악 기를
▁제작 하는
▁제작 하여
▁잎 몸은
▁윤 원
▁사업 으로
▁않는 다면
▁느 슨
▁음악 가
▁옥 수수·
원( 朴
▁이해 한다
▁수행 하는데
▁I s
▁보고 하기
▁보고 서를
▁밑 바닥
▁커 졌다.

▁디 스크
▁시간 ,
▁게 릴라
▁과정 이다.

어져 서
▁설명 한다.

산업 에
▁분야 는
▁기재 되어
▁낙 수
▁방향 은
▁예술 과
▁등장 하게
▁이동 할
▁테 러
▁탈 락
▁공포 를
▁가르 칠
▁행동 의
▁이론 의
it t
▁가족 은
20 1
▁발행 하였다.

▁사항 이
▁마련 해
▁움직 인다.

▁영화 에
▁놀 이는
▁믿 음
▁맺 는
▁개최 하여
▁농민 들이
▁조성 한
▁판매 기법,
▁뿌 리에서
▁개편 하였다.

음악 과
▁조건 의
▁기념 하기
▁세계대전 중
▁성립 되었다.

▁급제 해
이어 야
▁제한 이
▁공간 으로
▁여름 부터
6년( 인조
▁26 )
▁영토 의
▁옆 면
▁지휘 를
▁붉 게
▁발굴 되었다.

·고 구마
▁읍 이
▁요청 에
▁펼 쳤다.

8년( 숙종
▁종사 하고
▁1개 ,
▁재직 했다.

사람 들과
사건 의
▁거부 하는
▁공사 비
▁생기 지
·전 기
▁20세기 의
▁하천 은
해지 고,
▁벨 라스
▁창설 된
▁젖 은
연맹 의
▁의존 하는
국민 학교로
▁인수 하여
▁자격 증
▁박물관 ,
▁박물관 에
▁분위 기
▁화합 물은
▁합류 하여
▁폴란드 의
▁원산 지이다.

▁달러 로
▁돌려 보
▁163 6년
▁라틴 어로
내역 서
▁유입 되는
▁받아들이 지
증명 서,
▁해체 되었다.

▁든 다.

신앙 의
▁포괄 하는
▁나폴레옹 의
▁다니 면서
▁국무 총리
▁얹 은
제1 동과
▁추상 적인
고속도로 (
▁한성부 판윤
중학교 와
으려 면
▁잎자루 는
▁풍습 이
▁네모 난
고객 의
▁고고 학
경상 북도
하되 ,
▁엽 록
▁자발 적으로
▁초반 에
▁En gl
▁치우 쳐
olog y
▁강수 량이
▁빌딩 ,
▁카메 라
▁일상생활 에서
▁아리스토텔레 스는
▁동국 대학교
▁바실 리카
메리 칸
▁틀림 없
▁당( 唐
▁프랜 시스
▁지방유 림의
▁전주( 全
(李成 桂
▁건국포 장,
" ,
) 일
- 9
. 유지
F A
i el
y p
· 법
· 알
’ 라고도
▁ ⇨
▁ 곶
▁ 뷔
▁ 솥
▁ 찜
▁ 찧
▁ 텐
▁ 됨에
▁ 됐다.

主 )
制 )가
圖 )·
學 )이
府 )에
彌 勒
敎 )
洞 )
禮 )
軍 )을
都 護
객 이
겠 지만,
격 으로
경 력
곡 면
구 르
규 의
금 액
꾼 이
내 면
노 에
농 산물
누 엘
는 가를
다 리의
당 하자
대 체
덩 이
데 는
두 르
렸 으나
름 (
리 세
마 뉴
막 (
맹 (
메 체를
명 .
목 에서
무 아
물 이나
받 았고,
방 식에
배 이다.

보 적인
부 서,
사 들은
사 실을
산 수와
색 에
소 장
시 나
시 방
심 신의
아 나
야 가
염 불
영 ,
오 기
옥 의
으 면,
이 요
인 이다.

입 한
장 구
재 에
저 와
전 >·<
졌 는데
주 면
죽 (
줄 이
중 학교를
즈 ,
즈 와
징 수
창 으로
천 지
체 이다.

축 제
출 한
칼 라
클 린
타 이트
터 널
편 에서는
플 로
항 은
행 위의
행 동,
헌 을
화 하였다.

황 제
▁이 희
▁이 이는
▁이 행을
▁사 명
▁사 면을
▁사 신이
▁수 마
▁대 하
▁대 회는
▁지 명을
▁가 운
▁가 문이
▁등 지로
▁기 르
▁기 도를
▁한 두
▁한 산
▁한 우
▁정 한다.

▁일 간
▁일 하다가
▁주 선
▁보 낸다.

▁유 독
▁유 진
▁유 학의
▁조 처
▁조 사,
▁부 원
▁부 정을
▁고 치고
▁의 장이
▁공 로
▁공 은
▁서 당
▁서 예
▁서 문에서
▁구 호
▁구 원을
▁소 리는
▁소 식이
▁소 나타
▁하 동
▁모 리스
▁연 행
▁개 수
▁개 울
▁세 도
▁생 장
▁국 세
▁여 긴
▁여 성을
▁도 박
▁도 나우
▁영 농
▁영 해
▁영 업이
▁해 면
▁해 수의
▁장 관을
▁오 산
▁미 상이다.

▁방 과
▁불 순
▁분 자가
▁우 상
▁후 견
▁후 세
▁후 쿠
▁말 부터
들이 나
▁산 시
▁산 천
▁재 일
▁〈 노
▁〈 인
▁〈 진
▁결 속
▁노 릇
▁당 장
▁양 각
▁진 군
▁진 단을
▁명 도
▁18 세
▁‘ 영
▁예 에
▁행 할
▁행 사에
▁평 양의
▁함 수
▁것이 지만
▁것이 어서
▁왕 명을
▁왕 비가
▁왕 정복
▁변 신
▁파 우
▁초 가
▁사용 되었던
▁매 독
▁매 운
▁출 동
▁추 론
▁프 런
▁법 전
▁입 원
▁감 각을
▁학 제
▁학 파
주의 자들은
▁편 마
▁달 에
▁달 리고
▁10 .
▁집 적
▁광 개토
▁태 안
▁피 리
▁피 침
▁토 기가
▁김 대
▁김 치
▁심 는다.

▁음 의
▁가지 에
▁「 기
▁체 제는
▁못 했고,
▁백 제가
▁일본 인의
▁길 쭉
▁용 융
▁총 회에서
▁채 운
▁치 렀다.

▁면 해
▁병 력
▁충 무로
▁타 워
▁석 인본.
▁기록 할
▁판 정
▁로 맨
▁세계 적
▁담 수
▁지방 민의
▁곳 이기도
er ,
▁카 스티
▁취 지를
▁11 )에
▁귀 는
대로 부터
▁박 종
▁발전 시킨
▁온 화
나무 (
▁허 물
▁의미 이다.

문화 에
▁제2 1
▁≪ 경국대전
▁급 속도로
▁질 투
▁묘 갈
▁날 씨가
▁좋 을
▁생활 용
▁기술 개발
▁받아 서
▁접 한
▁특징 과
▁B ook
▁꽃 부
▁홍 익
▁프로 방
▁자유 스러
▁자유 로이
▁몸 에서
▁코 민
▁시행 되었다.

▁정부 수립
▁돌아 올
▁라 마
▁좌 ·우
▁독립 선언
▁설립 ,
▁A m
)』 와
▁개발 하며
▁붙 는
▁붙 이는
ar i
▁눈 ,
성( 五
시켰 으며
▁희 귀
▁이야 기의
▁러 일전쟁
▁종교 는
▁189 5년(고종
.5 ×
▁기업 에서
▁벽 화의
▁지배 하고
▁지배 적인
▁패 한
▁구분 하고
▁곡 식
▁격 리
계획 이
▁불교 에
관( 書
▁대통령 으로
상( 보물
▁소설 에
▁움 푹
▁트 랙
▁숙 종의
▁학생 들은
▁바탕 이
▁1. 8
공업 과
▁찬 (
▁국립 국악
▁깨 우
▁퇴 각
▁제품 이
▁강화 했다.

▁현실 에서
▁행동 경향
▁성장 하고
▁부르 던
▁적용 시키는
▁묘사 된
▁체계 가
▁노력 한다
▁추진 하는
▁연주 자
▁돈 으로
▁처리 하였다.

▁방송 메체를
소설 을
▁작가 들의
▁서쪽 에서
▁바뀌 면서
▁시설 ,
▁표시 한
▁감소 하고
▁푸 에
▁시민 들의
▁구별 할
▁세우 기
▁있지 요.

▁상업 적으로
▁정리 해
▁일정 기간
▁원자 재,
▁노출 된
▁뇌 의
▁훈련 시키는데
▁파괴 되어
·대 추
▁읍 의
방송 을
▁경쟁 이
▁종합 적인
▁준비 하는
▁사무 절차에
▁결성 되었다.

▁감독 이
조참 판을
▁창건 되었다.

사건 이
▁불리 던
▁흡수 하는
▁생명 현상에
▁시기 이다.

▁대구 광역시
▁침입 한
▁80 여
▁제목 이
▁나오 게
▁출발 한
▁문서 처리
▁보장 하는
▁활약 한
▁왔 던
ig h
▁평야 를
▁덧 널
▁공통 적으로
▁비밀 결
▁주교 가
▁가담 했다.

▁달성 할
▁끈 을
▁벽돌 로
아리 랑
▁그릇 에
▁아테네 의
▁흥미 ,
▁구부 리거나
▁굿 을
▁싸움 에
▁어울 리는
▁햇 빛
▁무게 가
▁셋째 는
▁자루 의
▁되찾 았다.

▁프로이센 의
▁편평 하게
▁마시 고
▁일종 인
▁노사 관계와
▁스튜 디오
▁소백 산맥
▁추기 경
▁무척 추
▁지식( 마케팅
▁지식( 고객의
▁인적자원 관리에
▁벗어 날
수대 엽
▁소홀 히
▁욕구 평가,
▁5·16 군사
▁크롬 웰
▁하드웨 어,
▁임오 군
▁프로세 스,
▁이튿 날
▁이메일 이나
▁행동경향 성은
4 m)·
5 ).

e ,
l i
n et
· 위
· 태
· 예술
· 프랑
▁ △
▁ 꼴
▁ 붐
▁ 뻔
▁ 쏠
▁ 칩
傳 )』에
像 )
古 蹟
國 朝
堂 上
奴 婢
子 )의
官 )에
江 )
祠 )에
經 世
道 )를
가 게
간 접
간 에는
강 으로
격 은
경 미한
균 관
그 로
기 지로
나 멜
담 ,
데 히
렁 이
리 케
리 스의
뮤 얼
반 으로
부 여
분 교
불 쾌
비 어
빈 의
사 )
사 절
슬 라프
시 위
안 에서
였 다가
요 리
워 진
원 리
유 공
읍 과
응 (
이 팅
임 (
저 축
적 이라고
정 변
제 이
조 종
좌 의
주 어진
지 부
지 주
직 ,
직 하게
집 인
쩌 둥
찬 을
창 은
채 로
채 용,
초 ,
칙 을
텐 베르크
표 시
한 성부
항 쟁
혼 을
회 사,
▁그 야말로
▁수 녀
▁수 염
▁수 법을
▁대 패
▁지 날
▁지 분
▁지 형이
▁가 래
▁가 사의
▁기 수
▁제 독
▁제 자인
▁시 기와
▁정 할
▁정 하였다.

▁정 원을
▁자 랐
▁자 로
▁자 비
▁일 대가
▁2 20
▁주 희(朱熹
▁경 관
▁다 량
▁다 운
▁유 두
▁유 림
▁유 적으로는
▁위 조
▁위 패가
▁관 행
▁조 석
▁조 의
▁조 준
▁인 솔
▁인 력을
▁부 부의
▁부 통령
▁고 금
▁고 기압
▁의 상
▁동 질
▁서 인
▁구 례
▁상 은
▁상 호,
▁하 순
▁모 피
)· 목
▁신 시
▁신 재
▁신 화에
▁개 씩
▁여 운
▁여 유를
▁내 국
▁작 자는
▁만 (
▁어 사
▁통 조림
▁마 카
▁남 자는
▁오 류
▁무 리지
▁거 세
▁없 다면
▁불 변
▁불 리고
▁분 당
▁우 주를
▁우 크라이나
▁후 지와
▁실 습
▁실 력을
▁〈 수
▁〈 천
▁형 질
▁종 지
▁당 산
▁진 해
▁명 기
▁‘ 공
▁‘ 어
▁‘ 조선
▁알 갱
▁예 카테
▁안 티오
되었 으므로
▁화 면의
▁화 상,
▁건 져
▁' 마
▁함 부르크
▁왕 권의
▁파 멸
▁초 간
▁초 자연
▁사용 되며,
▁출 정
▁군 (
▁군 자금을
▁추 앙
▁추 존
▁활 자본.
▁스 며
▁민 간의
▁법 으로
▁입 수
▁입 어
▁요 컨
▁요 인으로
▁학 문이
▁약 화되었다.

▁근 래에
▁목 화
▁직 장을
▁이루 기
▁본 사인
▁조선 조
▁운 석
▁호 프
▁음 료
▁원본사이즈보기 

▁참 수
▁「 답
▁일본 인이
9년 의
▁하나 .

▁항 변
▁타 서
▁한국 어
▁기록 과
▁쓰 일
▁197 0
▁생산 은
▁국가 들은
▁고려 할
▁된 다(
▁11 6
▁194 0
▁환 자는
▁걸 음
▁하여 도
▁경제 ,
▁경제 적·
▁줄 일
▁논 의를
▁- 

스트 를
▁나라 에는
▁질 을
▁암 흑
▁191 4년에
▁발생 했을
▁축 전
▁부분 이다.

)’ 에서
▁영국 ,
▁능 동
▁능 선
▁협 동조합
▁둘 은
▁계속 되고
들에게 도
▁찾 지
▁C ol
▁C op
▁좌 의
▁설립 인가를
▁밝 거나
▁구조 물을
▁눈 부신
▁로마 네스크
▁실시 될
▁국민 당
▁국민 소득
▁색 소
▁맡 았고,
▁임명 하여
▁우리나라 에는
▁종류 를
원으로 부터
▁I SO
▁지배 하에
▁오늘 의
▁곡 은
▁품 은
▁요구 할
▁뉴 턴
▁보호 구역
▁계획 ,
▁압 력으로
▁러시아 를
▁않았 으나,
▁어려 웠다.

▁인물 이었다.

▁레 버
▁레 퍼
▁진행 되어
▁기재 사항
▁규모 에
▁세포 와
▁이동 이
▁지도 자인
공업 ,
▁농업 을
▁전개 된다.

▁흥 덕
정책 으로
▁왜 적을
이지 요.

▁강화 ,
▁발행 하고
▁마련 되었다.

▁공격 할
▁겨 드
▁고구려 는
계약 서는
계약 서에는
19 년(
▁일반적으로 는
▁조사 하여
▁익 살
▁아이 들을
▁태양 을
▁태양 이
▁남북 한
▁소유 의
▁상징 으로
▁적용 되는
▁분석 ,
▁가치 와
▁균 모의
.... .
▁둔 전
▁경영 을
▁기간 ,
▁가리 지
▁편찬 을
▁식물 들은
▁산맥 에서
▁물리 쳤다.

▁원칙 이
▁후반 의
▁배치 하여
▁배치 하였다.

▁짓 고,
▁교황 청
▁낳 고
.0 8
▁능력 은
▁쿠 르
▁겪 으면서
▁신설 되어
▁파괴 되었다.

▁왼 쪽으로
▁채택 된
▁뻗 어나
▁가격 은
은행 의
▁섞 은
▁서양 화
사람 들이
▁이주 하여
통신 전화
▁통제 하는데
▁맥 을
▁냉 동
▁펴 고
▁나오 지
▁불과 했다.

▁엔 트로
▁조약 은
▁판단 하는
▁왔 으며,
▁유물 ·유
▁쪽 이
▁지냈 으며
▁조지 아
▁삼각 주
▁농경 ,
▁자녀 의
▁달러 에
▁지형 은
▁재능 이
▁가담 하여
▁벽돌 을
▁닦 는
법> 이
경기 대회
▁평생 교육
▁비유 하는
▁소실 된
▁골짜 기를
▁승리 한
ran s
조차 도
▁인류 집단
사소송 법
▁Q )
▁지칭 한다.

▁네트워크 ,
▁수평 으로
그림 ,
▁채취 하기
▁8·15 광복
으리 라는
▁레오 폴
고객 에게
경상 남도
질병 이나
▁디자 인을
▁요한 네스
의사 소
▁퇴직 금
▁쏘 아
▁꼭대 기에
▁아나 톨
맞춤 법,
▁어리 석
영어 영
▁불분 명
▁결정한 다
▁초창 기
합병 증
▁돌무지 덧널무덤
지니 어링
▁아리스토텔레 스의
▁질서정 연하며
▁미성 년
▁완수 한다
▁꾸몄 다.

▁헬레 니즘
▁라파 엘
무릎 을
▁당우 로는
▁가느 다란
( J
/ 합병증
4 .
I C
I D
L G
N O
d uc
g ra
m 인
m 까지
s k
t he
· 낙
· 내
· 역
· 창
· 음악
· 담배
≫ 에서는
▁ ↓
▁ 後
▁ 밧
》 의
元 )
沿 革
漢 )
獨 立
王 陵
義 )
記 )·
陽 ).
걷 거나
광 산
궁 이
깊 은
냄 으로써
논 쟁
당 해
대 기
도 한
락 과
래 가
마 크의
막 한
맛 을
무 열
밑 그림,
백 은
번 지(
법 법률
벽 과
불 구
비 서
뿐 이었다.

사 르
사 에는
사 물,
상 계
섭 씨
성 업무
셈 부르크
소 적
시 고
식 민
식 용을
알 이
연 료
연 산,
영 업과
온 몸
요 구
원 들은
육 지,
자 원을
장 에게
적 일
제 공
졌 다.
죠 .

주 주
중 ,
중 대
즈 음
지 점
징 (
차 고
축 산
타 가
타 카
탄 에
하 다
하 로
해 주고
황 색
후 생
▁1 부
▁1 에
▁1 책
▁1 통
▁그 쳤다.

▁수 락
▁대 회의
▁지 명이
▁지 명은
▁지 었다고
▁가 변
▁가 졌으며,
▁가 문에서
▁전 적·
▁시 트
▁시 들은
▁시 인은
▁정 면으로
▁자 질을
▁자 상,
▁2 대
▁주 성
▁주 임
▁보 은
▁보 이고,
▁아 몬
▁아 들과
▁경 산
▁경 시
▁경 원
▁경 기에
▁다 리의
▁유 토
▁관 (
▁조 롱
▁부 천
▁부 위원
▁고 랭
▁고 주
▁공 생
▁공 증
▁공 덕을
▁때 보다
▁서 신
▁비 약
▁비 인
▁상 기
▁하 룻
▁신 정
▁3 ~6
▁세 기
▁여 론을
▁내 기
▁도 교의
▁영 창
▁영 어를
▁만 과
▁어 쨌
▁남 사
▁오 동
▁무 례
▁미 켈
▁미 끄러
▁선 적
▁불 우
▁4 인,
▁우 르
▁말 로,
▁말 기까지
▁말 하기를
▁산 스크
▁재 개발
▁〈 소
▁〈 우
▁결 재
▁종 자
▁양 념을
▁받 다가
▁‘ 기
▁‘ 인
▁알 바
▁예 약
▁안 창
▁6 명의
▁6 ~7
▁화 학자
▁' 무
▁뒤 쪽에
▁배 합
▁사용 되기
▁최 우
▁출 근
▁표 제
▁군 량
▁군 비
▁그리 며
▁과 전
▁독 서와
▁민 물
▁임 시의
▁임 무는
▁법 과
▁속 성을
▁입 선
▁요 인은
▁요 건을
▁회 백
▁회 화의
▁외 손
▁증 류
▁본 상
▁조선 일보
▁조선 민족
▁조선 공산
▁새 마을
▁집 정
▁광 한
▁태 아
▁청 중
▁피 스톤
▁9 세
▁돌 에
▁합 산
▁김 준
▁살 며
▁살 며,
▁「 수
▁16 00년
▁들어 섰다.

▁식 재
▁죽 었을
▁채 찍
리아 스
▁항 아리
▁판 을
▁올 린다.

▁세계 로
▁지방 도가
▁국가 들이
▁카 펫
▁고려 해
▁된 다.
▁효 용
▁박 해를
▁봉 분
▁형태 인
▁서울 대
▁줄 거리
▁192 0
an a
▁나라 에서도
▁폐 해를
▁주요 작품
▁행정 사업
▁자연 석
▁발생 하게
▁누 런
▁부분 적인
▁만들 었다고
▁송 곳
▁송 사
▁기술 다양한
▁발견 할
▁몸 통
▁코 끼
▁찾 는다.

▁혼 혈
▁정부 에서는
▁라 오
▁머 리의
▁국제 통화
▁밝 아
▁평가 하는
▁평가 한다
▁메 카
▁필요 하게
▁가능 성도
▁폭 파
▁그림 에서
▁로마 와
▁첫 머리에
▁서로 를
▁염 두에
▁1, 7
▁페 리
▁관리 한다
▁종류 ,
▁지나 며,
▁지나 가는
▁늘 어진
▁L '
▁뉴 런
▁뉴 저
▁노래 와
▁사건 들을
▁조각 된
▁잠 실
▁계획 의
▁전문 으로
▁제조 공정,
▁언어 에
신청 서

▁반대 되는
▁비슷 하나
▁세포 이
▁출판 한
▁농업 생산
▁공포 된
▁헤 라
학과 ,
▁186 1년
▁외국 에
▁명칭 과
▁해안 에서
▁전기 이론
▁결합 하는
▁다르 지만
▁아이 들이
▁믿 음을
▁마지막 에
생산 식용을
▁전자 장비에
▁처리 장치,
▁직업 전망
▁경험 과
▁밤 을
▁잃 어
ur al
▁자동차 가
▁쌀 과
▁쌀 은
예술 음악,
▁교황 이
▁소련 이
▁책임 함께
▁영토 는
▁가져 야
▁185 4년
0년( 영조
▁배우 기
▁훈련 도감
▁훈련 사람을
▁신고 전
1년( 태종
▁설계 하거나
▁설계 집,
▁요청 했다.

▁p ro
▁행사 하는
컴퓨터 와
▁전환 을
▁지적 한
8년( 영조
▁부모 는
▁결성 했다.

세포 를
▁멀 티
▁웅 크리
▁주고 받는
▁확립 된
▁가입 했다.

▁시스템 은
▁을 지로
▁통제 하는
▁은행 업무,
▁시기 였다.

▁반복 계속
▁죽음 으로
기계 기계와
▁통신 기기를
사무 워드
▁앞으로 의
▁수학 연산,
▁표기 한
(C h
화학 물질의
▁단백 질이
▁노예 제
▁바깥 쪽으로
▁5일 

공화 국의
▁영역 에서
▁생태 계의
▁산출 한다
▁묶 은
▁총독 으로
▁재무 자료의
▁호흡 을
생물 동.
·아 일랜드
▁곤충 을
▁스트 라빈
▁선수 권대회
▁숫 자를
식품 생산식용을
▁글씨 는
▁스승 의
73 년(
▁수리 .유지
▁인용 된
▁특성 화
▁라틴 아메리카
▁비행 기
tic al
▁공정 상품의
▁카를 로
▁아일랜드 의
군사 령
▁장비 와
▁소작 농
▁상실 한
▁상하 이
▁차별 을
▁거느 린
▁회계 돈의
▁회계 원리에
▁끈 적
대표 로
▁불가능 하다.

▁임대 차
▁진보 적인
▁인근 에
▁득 표
▁객관 적으로
▁마케팅 상품이나
▁품질 관리,
역사 역사적
▁수확 물을
현대 문학
인사 채용,
▁구부 리거나,
고속도로 가
▁갈래 로
지리 육지,
▁보안 사람들과
▁방해 하는
▁중요도 업무
▁중요도 지식
▁은퇴 했다.

▁샤를 마뉴
將軍 )
국어 맞춤법,
▁되돌 려
▁2,000 여
서비스 고객에게
▁날카 롭게
▁중서 문하
▁고을 의
의료 질병이나
▁경과 /합병증
고객 서비스고객에게
▁캔 터
▁변환 과정에
▁의도 적으로
디자인 밑그림,
▁진( 秦
▁중생 대
물리 공기,
▁꽃차례 를
운송 비행
상담 개인의
심리 사람들의
▁마포 구
▁대수 학,
▁다이아몬 드
▁조율 하거나
▁회로 판,
▁인적자원 관리,
▁미디어 말,
▁딱딱 한
극단 적으로
▁알렉산드로 스
▁잎겨드 랑이에서
▁손해배 상
▁조반 니
사다 리,
▁여기저 기
▁전자공학 컴퓨터의
▁자원배 분,
▁넉 넉
▁생산기 법에
▁활동( 예,
▁대(大 )
▁작문 법,
▁잠( 箴
▁벨라스 케
통신전화 기,
▁인류집단 행동,
의사소 통과
영어영 어를
법법률 ,
▁행정사업 운영,
▁반복계속 적이고
생물동. 식물
▁수리.유지 하는
▁중요도지식 설명
운송비행 기,
( V
) =
. ),
: 18
> 에는
a il
l or
s 〉(18
· 콩
▁ `
▁ 區
▁ 李
▁ 샐
▁ 짤
▁ 났다.

丁 若
公 )
南 京
宗 )이
左 右
樞 密
殿 )
翰 林
說 )」·「
軍 器
通 肩
齋 ).
개 편
걸 이
검 정
결 과를
공 보
공 부를
공 사에
광 과
교 회를
귀 의
날 개
내 로
네 오
농 (
다 오
당 초
대 장은
대 주교
돈 (
들 만
뜨 린
라 지
레 ,
레 에
렸 고
렸 다는
름 으로
리 우스는
마 도
묘 하게
바 를
보 게
보 도
보 아
보 이
봉 으로
북 (
비 ·
사 라는
사 상과
살 이를
서 경
세 다
세 계에
소 리는
쇠 가
시 니
시 기에
시 절을
실 하게
약 ,
연 에서
열 로
예 수
온 (
요 의
월 

읍 이
일 ·
일 (金
임 과
장 으로서
적 이나
전 수
전 하는
절 과
제 문(
졌 다

체 제는
칠 을
탑 을
판 이나
퍼 시픽
평 ,
평 군
학 사(
협 회는
▁이 반
▁이 이의
▁1 명을
▁1 칸의
▁사 지
▁수 로를
▁대 회를
▁지 성
▁가 솔
▁가 창
▁등 에서도
▁기 피
▁기 사를
▁기 법이
▁전 차
▁한 대
▁한 이
▁한 자로
▁제 퍼
▁제 자들이
▁제 일의
▁시 조는
▁시 점에서
▁정 재
▁정 밀한
▁일 산화
▁중 종의
▁주 축으로
▁보 일러
▁아 크
▁다 원
▁유 구
▁유 체
▁인 연을
▁고 치
▁고 문으로
▁의 장으로
▁공 제
▁동 년
▁서 천
▁상 자
▁원 초
▁원 리가
▁원 조를
▁소 각
▁소 식
▁하 르
▁하 우스
)· 나
)· 어
▁신 랑
▁신 체를
▁3 층
▁개 장
▁세 탁
▁문 자는
▁생 모
▁생 일
▁여 왕이
▁성 사
▁성 장에
▁교 란
▁작 성을
▁만 을
▁어 슷
▁어 촌
▁따 왔다.

▁따 른다.

▁바 위를
▁무 주
▁무 력으로
▁무 연탄
▁미 분
▁미 토
▁특 혜
▁방 으로
▁4 명의
▁우 의정
▁후 원으로
▁후 세의
▁말 뚝
▁말 기에는
▁말 사이다.

▁반 일
▁산 은
▁결 함이
▁노 년
0년 경에
▁설 화가
▁당 당한
▁양 옆
▁양 원
▁양 상이
▁진 실한
▁명 은
▁‘ 오
▁예 )
▁안 을
▁' 비
▁평 택
▁파 종
▁파 주
▁파 피
▁배 속
▁배 울
▁최 하
▁군 기
▁군 청
▁간 청
▁과 제로
▁임 기를
▁입 성
▁요 령
▁근 태
▁회 장이
▁조선 과
▁데 카
▁새 뮤얼
▁태 도가
▁삼 도
▁사회 보험
▁돌 리
▁심 취
▁15 만
▁체 제로
시대 로
▁『 구
▁『 한국
▁『 중용
▁의해 서도
▁200 만
▁면 세
▁타 는
▁다시 금
▁기록 하고,
▁올 림
▁197 0년에
▁담 백
▁196 8년에
시키 며,
▁중국 어
▁환 율
▁존 슨
▁손 톱
▁13 세기에
▁발전 하게
km 로
▁잡 가
▁잡 기
▁허 난
▁방법 도
▁설치 를
▁설치 되었으며,
▁제2 장
▁일부 러
▁≪ 심경
▁주요 저
▁묘 를
▁이것 도
▁암 석이
▁누 적
▁위치 에서
▁위치 하는
▁위치 하며,
▁능 가
▁육 계(
기관 에서
▁C omp
▁독립 한
▁A g
▁A ss
▁먹 은
▁범 주에
▁전통 은
▁애 매
▁산업 별
▁야 만
▁신라 시대
▁브 래
▁제3 3
▁팔 각
▁1월 평균기온
▁건축 을
생활 에서
▁참여 하지
▁커 진다.

▁디 스
관계 ,
▁보호 장비
▁보통 은
▁높이 로
▁골 드
▁땅 콩
▁나무 와
▁소설 이
▁세워 졌으며,
▁등장 인
▁장식 적인
▁농업 의
▁찬 탈
▁습 지
km2 의
▁R o
▁행동 으로
▁이론 이
▁자동 으로
▁공급 하고
▁공급 한다.

▁띠 를
▁빛 과
▁개념 에
계약 서란
▁지구 와
▁믿 는다.

▁개최 한
▁빌 어
▁식물 에
▁귀족 과
▁징 계
▁서쪽 에는
▁바뀌 게
▁제정 하여
▁그곳 을
▁다루 기
▁주도 했다.

▁배치 한
▁꾸 미
▁감소 한다.

▁시민 이
▁참가 하였다.

▁낭 비
▁기후 를
▁해외 로
·고 등학교
▁반영 된
.0 4
▁괴 산
▁선출 되어
▁제6 13호에
▁183 1년
▁외교 적
os e
▁알아 야
▁가격 으로
▁떨어 졌다.

▁자리잡 았다.

▁평양 에서
▁감독 을
▁어렵 다는
▁서술 하였다.

▁진출 해
▁진출 했다.

▁은행 의
▁수요 는
센터 를
▁써 야
▁금지 하고
▁침입 으로
▁보관 하고
▁욕 망을
▁80 %
▁우선 적으로
▁제목 은
▁정복 한
▁앉 아서
▁방식 과
▁규칙 에
▁한반 도에
▁취임 했다.

▁사찰 이
화학 공업
▁답 을
▁5개 로
▁회원 국
▁연속 적으로
▁영역 으로
▁세웠 고,
확인 서
▁색깔 의
▁남한 산
▁카르 타고
▁팀 이
▁특성 상
▁베이 컨
▁146 6년(세조
▁뚫 려
▁세균 의
▁도와 주
▁봉건 적
▁억제 하는
▁일어났 던
▁탐험 가
프라 테스
▁일자 별로
▁무게 를
▁사령 관
▁지방자치 단체의
▁안채 는
▁것이므로 ,
▁냄새 를
▁입장 에서는
▁동아시아 의
▁이스라엘 의
폴리 탄
▁대좌 는
▁유가 증
▁동아 일보
고분 군
▁출가 하여
▁크리스 티
▁학부 모
▁오이 디
▁주파 수
▁상반 된
▁호응 을
▁맥락 에서
▁금메 달
▁충선 왕이
▁(0 %),
▁Hist ory
사기( 史
어음 법
▁다채 로운
▁엇 갈
▁브뤼 셀
▁비즈 니스
▁페르디 난
▁서스 펜션
▁태즈 메이
▁에트루 리아
▁코민 테른
▁무리지 어
▁하룻 밤
' 란
( 성
4 ]
6 km2,
O D
a w
m 2,
o ol
s h
· 19
· 교통
· 종교
· 섬유
▁ 끄
▁ 에게
小 )
小 說
市 )
平 章
性 理
新 聞
生 )의
田 )을
美 術
肉 髻
行 錄
간 다

감 각
개 성
겠 는가
격 의
공 개
공 사(
구 매
구 제
굿 을
규 장각
기 이다.

나 이트
남 서
냥 을
노 와
능 엄경
닉 스
단 체로
단 위로
대 어
더 미
덧 널
됨 

득 이
레 와
렌 스
령 에서
루 이스
리 우스의
마 침
문 에는
법 원은
법 원에서
복 음
봉 과
분 히
비 율은
사 례
사 건을
상 호
서 면
선 도
선 전
설 ,
성 군(
속 도
슐 리
식 물이
실 내
실 습
실 시
심 청
에 의
에 이
요 인
월 ,
일 명
저 를
전 적
전 환
정 (李
좌 가
지 리(
짐 이
참 모
철 기
철 을
총 이
침 의
코 는
쿠 르
클 레스
탑 이
평 )
평 안
플 리
학 도
항 에
했 음에도
향 은
혀 진
화 될
화 된다.

화 학적
회 도
회 암
흥 왕
▁1 구
▁1 인을
▁사 각형
▁사 방으로
▁대 회가
▁지 주의
▁지 도의
▁가 짜
▁기 독
▁기 운
▁기 전
▁기 원과
▁기 복이
▁전 동
▁전 기가
▁전 화를
▁전 과를
▁시 초
▁시 가지
▁정 권은
▁자 르
▁자 처
▁자 크
▁자 금의
▁일 월
▁2 ]
▁2 천
▁2 차례
▁2 세(
▁주 전
▁주 권을
▁주 가가
▁보 기에
▁아 닙
▁아 사
▁아 서
▁아 픔
▁경 감
▁경 쾌한
▁유 보
▁유 방은
▁위 상을
▁관 청의
▁조 사가
▁조 사·
▁인 식의
▁나 도
▁부 귀
▁부 총
▁부 정한
▁고 종은
▁의 복
▁공 사는
▁되 지만
▁동 자
▁서 강
▁서 늘
▁서 부와
▁비 구
▁구 개
▁상 납
▁상 평
▁상 이한
▁원 형이
▁소 음
▁소 중한
▁연 (
▁연 안을
▁발 동
▁발 언
)· 여
▁신 문에
▁세 상이
▁문 맥
▁문 단에
▁국 회에서
▁내 에서는
▁도 량
▁도 마뱀
▁성 종의
▁만 년에
▁장 충
▁장 의(
▁무 작
▁무 대장
▁강 론
▁강 해
▁미 끄
▁거 치지
▁선 별
▁4 세가
▁후 설은
▁말 초
▁실 효
▁실 상을
▁반 죽
▁반 도를
▁현 악
▁산 [
▁산 소는
▁재 조합
▁노 후
▁형 인
▁종 전
▁설 을
▁당 부
▁단 점이
▁양 자를
▁양 쪽으로
▁사람 에게는
▁안 심
▁안 중
▁' 기
▁' 조
▁그러 고는
▁사용 될
▁차 에
▁군 신
▁군 역
▁권 익
▁과 부
▁과 실
▁스 태
▁스 틸
▁포 스트
▁포 로로
▁민 감한
▁북 경
▁임 의로
▁근 대의
▁8 권
▁회 합
▁직 관
▁직 속
▁직 위
▁증 축
▁본 부를
▁본 다면
▁달 래
▁운 하를
▁호 평을
▁금 제
▁금 천
▁크 고,
▁삼 층석탑
▁청 도
▁청 천
▁피 부가
▁토 광
▁심 는
▁음 높
▁참 으로
▁천 왕
▁12 ,
▁규 제를
▁들어 올
▁일본 군을
▁복 숭아
▁용 례
▁총 경
▁죽 임을
▁철 학에
▁당시 는
▁한국 ,
▁황 제로
▁( 3
▁( 같은
▁( +)
▁정도 인
▁곳 이나
▁활동 하던
▁에 나멜
▁되었 지만,
▁고려 하지
▁취 하여
▁효 험이
▁번 호,
▁박 세
▁봉 수
▁봉 토
▁줄 이는
▁193 0
(金 尙
(金 東
▁나라 로
문화 와
문화 예술
▁검 사는
▁주요 산업
▁포함 되는
대학 에
▁능 히
▁만들 지
▁B e
▁섬 기는
▁찾 은
▁측 정한
▁모양 이며
▁밝 게
▁지금 까지의
▁나타나 며
▁가능 성은
▁그림 자
▁결정 은
▁결정 되는
▁문학 에서
▁중요 성은
▁중요 합니다.

사로 ,
▁실시 되면서
▁국민 은
▁유지 하며
▁염 증
▁유럽 으로
▁신라 시대의
▁신라 시대에
▁않는 다
▁관리 한다.

시켰 다는
▁종교 와
▁상태 였다.

▁팔 아
▁늘 어져
▁" 나는
▁뛰 어들
▁1월 에는
▁게 시
▁압 수
▁높이 에
▁혁 명은
▁인물 들의
▁제조 에
▁분포 하며,
▁설명 이
▁설명 하기
▁완전 하게
▁환경 과
▁트 란
▁찾아 내
▁반응 하여
▁찬 미
▁동시에 ,
re at
▁과거 와
mm 의
▁공급 자가
▁발행 인은
▁해안 은
▁G NP
▁클 래
▁터 득
ol i
▁아이 스
▁아이 슬
▁대학 생
▁상징 적으로
▁적용 하여
▁자본 을
▁자본 금은
문화재 로는
▁관할 구역을
▁파견 했다.

▁동물 과
▁도로 의
▁통치 에
·사 간
▁굴 뚝
▁자주 색
▁밤 이
▁산맥 은
▁출토 유
▁출토 되어
▁물리 친
▁기념 하여
▁해석 할
▁공업 은
°C 에서
▁감소 하는
▁시민 권을
▁척 수
▁옮겨 졌다.

▁옆 에는
om an
▁O n
▁프로그램 은
▁건강 에
▁묻 힌
업무 가
▁파괴 된
▁임진왜란 을
1년( 숙종
▁모여 서
▁요청 하기
▁신분 에
▁신분 으로
▁설정 된
▁뉴욕 의
지대 와
조참 의를
사건 (
▁오르 고,
▁옹 립
▁멸 치
▁꼬 투
▁충분 하다.

▁칸 의
▁바닥 은
▁개설 하여
▁붙여 서
▁연극 을
▁후손 이
▁실천 하는
▁옛날 에
.” 라고
마을 은
▁감염 이
▁굽 어
▁봉안 ,
▁창설 되었다.

▁백성 들에게
▁주인공 은
▁것인 지에
▁돌아와 서
▁답 습
▁짜 서
▁범죄 를
▁겉 면은
▁나폴 리
▁도착 했다.

▁다섯 째
▁재무 제
▁운반 하는
▁남녀 의
▁화폐 의
▁포기 하지
▁덴 마크의
▁수필 은
▁베르 사유
▁34 )
▁명예 를
▁신학 생활에
브리 엘
여래 입
▁성벽 은
▁풍자 한
▁흥미 로운
▁험 한
▁예외 적으로
▁인상 적인
▁비정 규
·구 리·
슈타 인
▁햇 빛을
바라 밀
▁권4 는
▁간략 한
▁카이사 르는
▁스테 인
▁무사 히
▁급진 적인
▁궁극 적으로
▁단단 하고
▁해협 을
충청 남도
▁히틀러 는
▁세월 을
▁거칠 고
▁조용 히
▁바그 다
▁알레 르기
▁양호 한
▁영등포 구
iz ation
▁도읍 을
▁사단 법인
▁마드리 갈
▁생동 감
▁소용 돌이
▁의사소 통
▁인조반 정
▁옥타 브
▁대표이 사가
▁바티 칸
▁간신 히
▁옅 은
( 5
1 호
3 .
4 가
5 개
A A
· 잡
· 추
· 치
× 10
▁ 文
▁ 닐
▁ 를
▁ 벅
▁ 져
▁ 콥
▁ 팜
▁ en
事 蹟
反 )
官 職
文 )의
文 土器
東 國
法 )의
硏 究
神 )
經 )
耆 老
臣 )
行 )을
賢 儒)의
가 곡
갔 으며,
강 습
거 의
거 주
격 과
경 사
공 간을
과 세
관 습
관 들이
글 러
난 히
답 (
답 게
대 승
더 니,
독 재
뒤 에
디 가
레 네
렉 션
른 베르크
맞 이
매 장
면 허
모 습
목 요
몸 의
묘 를
묘 표
문 제,
문 무왕
물 적
발 ,
발 전의
벌 (
벌 에
분 쟁
삼 문(
새 의
순 수
스 레
스 케
시 이다.

씨 름
아 카
압 을
애 의
약 사
오 른
외 의
우 로
원 (金
육 이
조 성
조 사가
종 목
주 석
주 에게
줌 으로써
지 원을
직 되었다.

진 행
집 약
철 강
청 색
체 제에
타 원
탄 소
파 이
평 론
평 왕
필 은
필 이
함 )
회 장
효 과가
훈 은
히 게
▁1 분
▁사 바
▁사 역
▁수 구
▁대 피
▁지 적인
▁가 한
▁전 화,
▁한 스
▁제 련
▁정 했다.

▁자 폐
▁자 리는
▁자 식이
▁중 에서는
▁2 호
▁주 모
▁주 자의
▁주 제와
▁보 며
▁아 케
▁경 전에
▁유 폐
▁유 네스코
▁관 제를
▁나 루
▁부 에
▁공 덕
▁동 검
▁동 참
▁서 부에
▁비 전
▁상 통
▁소 양
▁모 형
▁있는 가를
▁연 주를
)· 일
)· 자
▁신 춘
▁신 학자
▁3 인,
▁개 성을
▁문 관
▁문 물
▁문 자의
▁내 림
▁내 시
▁내 지는
▁도 청
▁성 과는
▁영 변
▁영 지를
▁해 탈
▁만 기
▁만 주의
▁통 도
▁통 정
▁통 할
▁장 명
▁장 군은
▁않 다고
▁오 자
▁무 르
▁선 제
▁선 명한
▁특 용
▁없 음
▁방 탕
▁방 면으로
▁분 양
▁분 량의
▁우 화
▁우 세한
▁실 리콘
▁반 가
▁현 감
▁현 유(
▁산 들이
▁산 하의
(1 68
▁노 여
▁종 으로
▁단 말
▁단 면을
▁양 극
▁양 대
▁진 작
▁명 동
▁명 부
▁‘ 불
▁‘ 천
▁두 툼
▁사람 들에
▁안 주
▁화 전
▁화 석이
▁' 도
▁' 유
▁' 조선
▁파 업
▁초 고
▁배 재
▁사용 해서
▁사용 함으로써
▁차 원
▁군 역을
▁권 상
▁권 13
▁포 크
▁입 자가
▁감 속
▁감 정의
▁학 파의
▁7 가지
▁달 구
▁달 을
▁호 국
▁금 과
▁확 대를
▁10 m
▁10 cm
▁광 양
▁크 며
▁크 레타
▁크 리스트
▁태 워
▁높 일
▁김 규
▁김 명
▁김 병
▁음 절
▁할 인
▁참 기름
▁15 편,
▁시작 했고
▁12 개의
▁백 제는
▁『 경국대전
▁자신 에
▁타 개
▁타 인
▁황 제를
▁( -)
▁( ▶
▁이루어 졌고,
▁이용 하기
▁정도 이며
)」 (19
▁곳 ,
er m
▁카 탈
▁고려 공산
▁취 한다.

▁손 쉽게
▁봉 산
▁끝 의
)로 써
▁문제 이다.

▁문제 였다.

▁볼 가
문화 는
▁제2 호로
▁극 심
▁≪ 한국
▁폐 허가
▁뜻 으로,
이었 는데
)’ 은
▁위치 :
지로 ,
▁별 도
▁별 이
▁만들 었는데,
▁협 약
▁접 목
교육 ,
▁주장 하면서
▁범 주
▁그것 도
▁유명 무
▁야 구
▁M e
▁사업 ,
▁루 마니아
▁유럽 ,
▁1, 6
▁관리 들의
▁임명 한
▁자료 의
▁양식 적
▁국내 에서는
▁곡 의
▁인정 되고
▁참여 해
▁불교 적
▁상황 과
▁계획 과
▁대통령 령으로
▁전개 한
▁정책 과
▁상당 수가
▁어린 이를
▁갖추 지
▁d i
▁핵 심을
▁핵 융합
▁칼 데
▁법령 을
▁북한 이
▁그대로 의
us s
▁익 혀
▁영화 로
▁지구 는
▁비판 적인
▁잔 인
▁잔 치를
▁태양 광
▁제시 된
▁적용 할
▁지급 받아
▁둥 지를
▁스페 인과
▁없어 진다.

▁굴 곡이
▁탑 이
▁가로 막
▁W e
il d
▁19세기 말
▁꾸 밈
▁작곡 을
▁감소 할
·이 탈리아
▁좌우 대칭
▁낭 독
▁기후 의
▁지휘 했다.

▁배경 과
▁185 8년
.0 5
▁체결 하고
▁인식 과
▁거두 고
▁보존 하고
ri m
박물관 으로
▁위험 에
▁붉은 색을
8년( 충렬왕
▁신분 의
▁상품 에
전문 가
7년( 고종
▁실현 하기
사건 ,
▁기둥 은
▁맹 세
▁워 즈워
▁유배 되었다가
▁반복 되는
▁침입 에
▁보관 하도록
▁고객 이
ul l
▁등록 된
▁제기 되었다.

▁가슴 을
▁계급 이
▁지내 던
다" 라는
▁가장자 리를
▁틀 에
▁그때 부터
▁단백 질을
▁영역 은
▁영역 이
▁빼앗 긴
·아 연
▁기대 할
▁달러 를
▁3· 4
▁추천 으로
평( 持平
▁포도 주
▁사유 로
디아 라비아
▁St .
▁흐르 다가
중추 부사
▁자손 을
▁없애 는
▁다니 엘
▁선전 포
▁성리 학에
제1 동은
고속도로 와
명세 서
▁선포 했다.

▁이별 의
▁Q u
▁얽 매
▁윈 난
▁관광객 이
▁깨닫 게
▁스케 이팅
▁그루 지야
▁궁극 적인
초등학교 로
▁간격 이
충청 북도
▁알맞 게
(2 000
▁1주 일
▁예문관 검
▁황태 자
▁소프트웨 어
▁두껍 게
▁조광 조(趙光祖
▁접어들 면서
고속 국도
▁〈삼국 사기
▁즈 음
▁금메 달을
▁조조 에게
기원 전
μm 이고
▁뒤집 어
▁Na +
▁불확 실
▁라이프 치히
▁그레고 리우스
[北 京
니터 링
▁설( 說)
▁챔피 언
▁쪄 서
천연 기념물
▁Ess ay
▁묽 은
고속도로( 고속국도
▁전주(全 州).
▁육계( 肉髻
▁현유( 賢儒)의
! 

B O
L A
W .
a ),
a ir
o z
s ch
· 월
· 독일
▁ .
▁ 今
▁ 놋
▁ 뷰
▁ 씀
▁ 옻
▁ 콰
》 ,
亭 )
亭 ),
代 )의
侍 中
僉 議
冬 至
團 )을
宋 朝
府 )로
掌 令
明 治
條 )에
法 )이
祠 宇
縣 )에
舍 利
詞 )
飡 )
간 에서
개 화
검 토
겁 고
결 이
계 사
곡 동
골 에
교 ·
구 입
궁 을
근 ,
기 법
기 구로
나 중에
난 (
남 에
노 프
놓 는
니 다

닐 라
단 위의
달 리
대 ·
대 방
대 전(
데 기
두 ,
드 라마
든 ,
든 지,
란 트
러 드
루 이
륜 의
르 카
리 라는
리 조나
문 집』
반 과
방 식으로
배 로
백 산
베 이스
벨 라
변 동
변 화를
부 품
붙 은
비 치
사 록
사 들의
생 엽은
서 사
선 인
성 리
센 트
소 작
속 도가
수 불
수 정
신 사
아 지
업 자가
오 자
옥 이
왕 후의
요 를
요 법
우 드
우 회
유 수
유 역
이 니
자 원의
작 전
재 산의
제 학·
졌 음을
족 으로
죽 은
쳤 으며,
축 에
치 연
침 ,
커 스
탄 과
태 는
필 의
하 신
합 창
행 위로
현 도
형 식을
화 이다.

훈 의
흥 을
▁이 뇨
▁이 교도
▁이 조판서
▁1 1년
▁1 cm
▁사 서(
▁사 형을
▁수 지
▁대 방
▁대 회에
▁지 면
▁지 시를
▁가 전
▁가 량의
▁것 만
▁기 교
▁기 러
▁기 운을
▁전 성기
▁정 4
▁정 종
▁정 성을
▁자 원이
▁일 면을
▁일 목요
▁주 시
▁주 자(
▁보 나
▁보 낼
▁보 자
▁보 상을
▁경 을
▁경 화
▁다 분히
▁유 연한
▁관 의
▁조 가
▁조 로
▁조 봉
▁인 형
▁나 간다.

▁부 리
▁부 산의
▁의 도가
▁공 리
▁공 장의
▁때 였다.

▁되 면,
▁서 원의
▁서 문에
▁비 석
▁비 싼
▁비 동맹
▁원 각
▁원 망
▁하 구
▁하 노
▁연 해주
▁발 이
)· 잡
)· 현
▁신 림
▁신 전의
▁신 대륙
▁세 력에
▁문 맹
▁문 서는
▁여 과
▁여 는
▁여 인이
▁내 구
▁내 로
▁내 쫓
▁도 제
▁해 답
▁교 사가
▁교 목은
▁만 듦
▁만 장
▁마 멸
▁장 면이
▁않 음
▁남 는
▁남 짓
▁남 으로
▁오 두
▁강 습
▁선 물을
▁방 대
▁방 패
▁불 충
▁실 각
▁실 수를
▁반 투
▁반 항
▁반 기를
▁반 대의
▁현 물
▁계 림
▁같 으나
(1 )
▁재 화의
▁〈 피
▁노 폐
0년 까지
▁당 당
▁당 연
▁단 아
▁단 연
▁단 위는
▁진 안
▁진 열
▁진 찰
▁명 실
▁명 복을
▁‘ 미
▁‘ 시
▁‘ 호
▁두 통,
▁예 전에
▁각 주[
▁각 광을
▁화 염
▁평 면은
▁함 몰
▁뒤 떨
▁뒤 에서
▁왕 자의
▁왕 국이
▁파 기
▁배 로
▁매 어
▁매 력을
▁매 개로
▁표 면에는
▁군 주가
▁추 는
▁추 세에
▁민 심을
▁약 하게
▁근 경이나
▁외 과
▁외 출
▁목 재를
▁저 소득
▁본 인
▁운 수
▁금 본위
사이 트
▁크 라
▁크 며,
▁태 종이
▁삼 고,
▁사회 민주
▁돌 보는
▁토 막
▁토 기의
▁김 우
▁20 %
▁이후 부터는
▁참 조)
▁「 도
▁천 민
▁일본 군이
▁『 심경
▁용 감
▁용 기
▁용 기를
▁구성 했다.

▁채 무를
▁모두 에게
▁( 200
▁( 5)
▁199 7
▁생산 할
▁정도 이고,
▁담 는
▁순 응
▁순 이익
▁지방 제도
▁활동 하면서
▁활동 하다가
▁갖 춰
▁앞 가슴
시키 게
시키 며
▁가운데 가
▁환 자를
▁손 수
▁손 은
▁손 의
▁영향 력은
▁드 리는
▁정치 ,
▁발전 할
▁문화 ,
▁줄 의
회의 소
▁논 (
▁논 하고
(李 适
▁의미 로는
▁검 교
▁일부 ,
▁폐 합
▁급 한
▁행정 구
▁질 적
▁“ 어
▁표현 과
▁암 스테르
대학교 ,
▁만들어 낸
▁좋 게
▁협 시
▁발견 되었는데,
▁섬 ,
▁둘 을
▁계속 되어
▁자유 가
▁자유 주의적
▁코 트
▁돌아 가는
▁좌 승
▁머 릿
▁모양 에
▁필요 는
▁붙 인다.

▁그림 자가
▁그것 과
▁유명 하며,
▁넓 다.

▁아버 지인
▁로마 가
▁궁 중에
▁윤 리의
▁넘 쳐
▁넘 는다.

▁190 6년에
문학 사
▁등으로 도
▁염 불을
▁곧 추
▁1, 1
▁관리 와
▁증가 와
▁증가 하면서
▁희 고
▁희 미
▁우리나라 가
▁30 만
▁건설 로
▁차지 하였다.

적이 면서도
▁양식 이다.

▁종류 에는
▁벽 은
▁벽 이
▁지나 가
▁패 러
▁늘 려
▁인정 받을
▁녹 여
생활 과
생활 은
되면서 부터
▁디 즈
▁러시아 ,
▁발표 하면서
▁않았 다.
▁어려 웠
▁군사 력을
▁나무 껍
▁서식 하고
▁와 세다
▁겸 하고
▁겸 하였다.

▁플 래
▁제공 한
▁예술 에
▁반응 에
▁업무 는
▁습 윤
▁소장 

▁훈 구
시설 로는
km2 에
▁자동 적으로
▁고구려 를
▁주민 들을
▁드러 나는
▁0 .7
▁0 .4
ol y
▁비판 하였다.

▁건물 에
다.” 라는
대회 ,
ro w
as h
▁분석 한
▁가치 의
▁뒷 면은
▁통치 했다.

▁민주 주의의
▁편찬 했다.

▁개편 하여
▁밤 낮
▁화학 제품
▁들어가 면
▁풍부 하여
▁수용 하는
°C 이다.

▁없었 으며,
▁오른 손
▁짓 기
▁교황 은
▁수준 에서
▁유리 하게
▁세운 다.

▁명의 로
▁영토 로
om e
▁사망 하자
▁대륙 붕
·고 려
▁갈라 지며
▁노출 되어
▁엘 레
보살 의
▁183 2년
▁서울특별시 공고
▁외교 관계를
▁참고 하여
박물관 에서
▁신청 하는
▁높아 져
▁기울 어
▁전설 은
사람 들은
▁c ar
▁통과 한다.

▁꼬 리는
▁회복 을
▁칸 트
▁하천 이
우( 崔
▁까 다
▁승려 들이
▁부담 하는
▁제9 8
▁하면서 ,
▁조절 할
▁수학 하였다.

▁주인공 으로
▁숲 을
▁소송 의
▁비난 하는
▁맨 체스터
▁혼란 에
▁일치 하지
▁유기 화합
조건 에
▁언급 되어
▁주교 관
▁제안 한
▁경찰 의
▁뼈 를
▁베네 수엘
▁남한 의
▁개별 적으로
▁소금 으로
▁활성 화를
▁기사 작위를
▁구입 한
▁앨 런
▁급속 하게
▁패배 한
▁국왕 을
▁꾀 하는
▁둘레 에
▁연대 기
▁끈 질
▁미래 에
기록 을
▁In s
▁성벽 의
▁수백 만
▁수컷 이
▁국무 총
▁병합 하여
▁영혼 이
▁쏟 았다.

▁피아노 를
▁창의 적인
▁간략 히
▁화강암 으로
大學 ]
▁개관 하였다.

계열 의
▁편평 한
▁짝 을
▁개국 공신
▁세자 시
▁구석기 시대의
▁습격 하여
▁자산 총액은
춘추 관
▁배향 하고
▁빈번 히
▁강남 구
▁세월 이
▁뭉 쳐
▁자생 한다.

▁모자 이크
▁모호 한
▁개구 리
▁롤 러
▁2014.8 .7
슬로 바키아
▁결심 했다.

·간 행
▁무의 식
▁돌무지 무덤
▁생원 시에
▁썩 은
中樞 院
▁카자 흐
oh n
▁주요농 산물은
▁이성계 (李成桂
▁김옥 균
▁골든 디스크
▁애니 메이션
▁전봉 준
▁중요민속 자료
▁낡 은
▁이목 구
▁껴 묻
ilos oph
▁어디까지 나
▁수마 트라
▁영업이 익
▁1통 씩
▁區 制度
( 0
( 4
( h
( 相
/ T
/ 아
1 )에
M .
P C
R e
c tion
i us
o ve
r uc
s )
u ch
· 9
· 적
× 4
▁ 돛
▁ 롱
▁ 멧
〉 도
二 十
使 )의
儀 )·
元 帥
太 平
島 )
年 間
延 安
敎 )를
植 )
植 )의
檢 校
熙 )
穴 式
遼 東
釋 奠
集 )
감 정
갑 (
계 곡
골 은
구 이다.

규 제
극 과
기 즈
기 구,
나 트륨
녀 와
노 란
놓 을
다 리는
단 풍
당 하여
대 군
대 상으로
덴 부르크
돈 을
두 산
뜨 려
라 ·
론 에서는
루 아
루 크
마 ,
말 (
매 체
머 리는
물 질이
밀 직
보 스토
부 아
부 로부터
브 룩
비 명
비 판
사 상(
산 구
상 소
상 에는
색 이나
샤 바
셔 의
수 령
시 우스
여 지도
오 스트레일리아
온 은
원 들의
유 산
입 니다.”
장 관이
재 활
접 촉
정 지
종 사
중 주
집 트
참 봉(
척 은
충 선왕
층 인
칙 (
칭 (
커 피
태 가
투 를
트 릭
펀 들랜드
폐 (
포 스
필 ,
한 인
합 동
합 니다.
혈 관
화 시킨
환 율
후 견
흡 수
▁이 준
▁이 의를
▁그 랬
▁수 단의
▁대 주
▁대 평
▁대 학을
▁지 원,
▁가 다
▁것 들
▁전 과
▁전 술
▁전 한
▁전 류를
▁한 도
▁한 해
▁한 하여
▁제 트
▁제 헌
▁시 크
▁시 호를
▁정 이
▁자 랄
▁일 부분
▁일 부의
▁중 남
▁2 억
▁2 편의
▁주 원
▁주 일
▁주 며,
▁아 트
▁아 편
▁아 메리칸
▁유 산을
▁위 도
▁조 병
▁조 정을
▁인 력이
▁부 전
▁고 압
▁고 대에
▁의 용
▁의 사에
▁의 심을
▁공 문
▁공 판
▁공 주의
▁서 문은
▁비 누
▁구 역을
▁구 실로
▁상 영
▁상 인들이
▁원 뿔
▁원 하지
▁소 르
▁모 았다.

▁연 고
▁연 호를
▁연 설을
▁발 령
▁발 로
▁발 산
▁신 숙
▁신 조
▁신 전을
▁신 화의
▁3 인
▁3 00년
▁개 봉
▁문 의
▁문 익
▁문 체로
▁국 왕은
▁여 류
▁내 각의
▁해 치
▁만 수
▁통 증을
▁마 한
▁장 경
▁장 령
▁장 소가
▁장 보고
▁장 소에서
▁않 음을
▁않 으면서
▁남 았다.

▁오 구
▁오 미
▁바 ,
▁바 리
▁무 분
▁거 시
▁거 점
▁거 기에는
▁선 혜
▁특 색이다.

▁방 추
▁방 파
▁불 신
▁후 추
에게 만
▁계 의
▁계 층이
▁5 ~7
▁5 칸,
▁같 지
▁같 고,
▁산 조
▁산 성의
▁산 지에서
(1 75
▁재 선
▁결 집
▁형 제가
0년 의
▁당 을
▁단 념
▁단 면
▁단 을
▁단 장
▁단 위를
▁양 에
▁진 력
▁진 영
▁진 위
▁진 다.

▁명 제
▁명 맥을
▁‘ 유
▁두 뇌
▁두 었는데,
▁예 리
▁예 전의
▁안 구
▁건 넌
▁평 면이
▁그러 다
▁왕 명으로
▁파 문
▁파 리를
▁최 익
▁표 를
▁표 트르
▁군 벌
▁군 자
▁과 목
▁민 병
▁민 생
▁법 당
▁속 하여
▁점 액
▁감 면
▁학 예
▁학 과를
▁약 재로
▁외 주
▁외 부에서
▁증 강
▁본 받아
▁농 도
▁새 가
▁집 터
▁집 대성
▁크 기,
▁태 풍
▁삼 투
▁청 하였다.

▁사회 ,
▁돌 리고
▁20 개
▁심 미
▁심 포
▁음 식이
▁「 서
▁못 했지만
▁16 ,
▁열 강
▁들어 선
▁일본 군은
▁『 시
▁용 문
▁200 년
▁총 명
▁총 리를
▁죽 였다.

▁죽 으면
▁치 르
▁철 도는
▁당시 로서는
▁석 사
▁한국 적
▁황 화
▁이용 에
▁판 사
▁판 석으로
▁14 편,
▁곳 에서도
▁되었 기
▁되었 다가,
▁국가 적인
▁교육 과정을
▁이상 적
▁번 뇌
▁박 람
▁손 병
▁손 자인
▁언 론의
▁봉 래
cm 이며,
cm 이고,
▁베 드
(金 弘
in t
▁대표 이사
▁≪ 고려사
▁행정 소송
▁자연 적으로
▁질 서가
▁“ 나는
▁업 종
▁중앙 관
운동 (
▁리 튬
▁알려 지고
대학 원을
▁좋 고,
▁형성 한
▁능 률
▁준 하는
장이 란
▁육 지
기관 과
▁막 시밀
▁몸 짓
▁몸 으로
▁코 카
▁정부 로부터
▁C ar
▁모양 ,
▁S ystem
▁모습 의
▁독일 ,
▁악 기의
▁벌 을
도( 三
▁그리스 어
▁느 리게
▁흔 적은
▁옥 과
▁운영 의
적이 지만
▁벽 의
▁I .
▁곡 성
▁인정 된다.

▁요구 하였다.

▁10월 부터
▁초기 생애
▁일어나 자,
▁디 아
.1 5
▁골 수
▁8월 평균기온
▁물질 과
▁조선시대 에도
▁공동 체를
▁키 예프
산업 ,
▁혈 통
▁엄 마
▁엄 밀한
▁진행 할
▁기재 하는
▁자리 로
▁숙 주
위원회 와
▁1. 0
▁깨 어
▁상당 수
▁행동 과
▁띠 었다.

▁마련 하기
▁개념 의
▁클 수록
▁F or
▁0 .9
▁성장 하여
▁믿 어
▁부족 으로
▁수입 이
▁개최 하는
▁묘사 하였다.

▁오래 도록
무늬 ,
▁균 형이
▁뒷 면
▁올라 와
▁식물 로
▁상호 간의
소설 은
▁유형 으로
▁히 데
▁서비스 ,
▁소비 자가
▁캐 릭
▁관직 으로
천( 山川
▁꾸 짖
▁이르러 서야
▁푸 에르
▁칭 하였다.

(199 3).

보고 서를
▁케 인
▁안정 되어
▁가져 올
▁가져 오는
▁185 3년
▁털 어
▁대륙 을
0년( 현종
·고 등
▁묻 고
ri d
▁무역 의
▁그리스도교 를
▁확보 를
은행 은
am p
▁반란 은
▁2개 ,
▁재판 에
▁재료 에
▁잇 따라
▁부정 하는
〉( 200
▁어렵 고
▁중심지 였다.

▁기둥 이
▁20세기 초
▁대사 간
해지 기
▁페르 난
▁사고 가
▁명시 된
▁동맹 의
▁훌륭 하게
사무 소
▁황제 에게
▁입학 했다.

▁규장각 에
▁머물 고
구조 례
작용 에
▁양성 하는
스테 릭스
▁시절 의
▁층 을
▁법칙 은
▁덧 널무덤
▁범죄 의
▁음식 물을
▁고등 교육
▁저장 하는
▁『삼국 유사
▁인용 한
▁살해 되었다.

▁설득 력
▁복합 적인
▁급격 하게
▁확산 되었다.

▁앨 리스
▁편성 되어
▁점검 하고
언( 正言
▁수령 의
▁연평균 강수량은
▁득 점
▁성벽 을
▁올리 고,
▁가축 을
▁충실 하게
▁줄어 드는
▁부과 하는
▁전신 인
▁맞이 하여
▁출연 했다.

▁올랐 으며,
▁주( 周
▁칼리 지에서
레오 파
▁사임 했다.

▁중수 하였다.

▁가수 상
▁베풀 었다.

유적 에서
▁전념 했다.

▁안채 와
▁간섭 을
▁목록 을
▁인기 있는
▁해수 면
▁천황 의
▁펠 로
일지 라도
▁현저 히
▁보니 파
▁춘추 관
▁원활 하게
왕후 가
▁장방 형의
▁일종 이다.

▁예수 회
▁지극 한
작물 로는
▁Re v
▁앞뒤 로
▁튼튼 한
王后 )의
▁대다 수의
▁아세 트
부원 군(
▁셰익스피 어의
▁산타 마리아
해양 수산
▁영의 정에
▁구슬 을
▁진지 한
▁응급 의료
▁확고 히
행장· 묘갈명
▁이번 에는
▁교육목 표는
▁튀어나 온
▁촘촘 히
▁Ge ographic
▁제66 호에
플루 엔
▁위그 노
▁불필 요한
▁한마디 로
▁제네 바
▁무령 왕릉
▁나이지 리아
▁부칙 으로
▁스마트 폰
▁정유재 란
▁프로방 스
▁신춘 문예
. k
5 .
I M
N S
] 이다.

a :
o ire
w e
~ 23
· 차
· 향
· 12
’ 고
’ 이라고도
” 고
” 라는
▁ z
▁ 周
▁ 安
▁ 됩
▁ 쑤
▁ 캡
倉 庫
儀 禮
光 背
冠 )을
坐 像
城 )으로
實 錄
寺 刹
山 )에서
州 )·
府 尹
方 形
會 )가
石 )이
社 )를
衛 )에
西 京
諺 解
運 動
都 督
長 安
門 )·
가 치를
간 부
간 섭
감 자
경 세
경 (李
계 층의
공 사,
구 름
국 회의
나 로
남 대
남 이
낭 은
너 스
노 예
농 림
누 스와
니 우스
대 장을
대 상이
데 이터
델 베르크
뎅 이
도 화
동 리
동 에는
등 ,
디 에
디 와
랑 으로
랭 크
로 에서
릉 을
리 라고
맥 (
먼 의
문 제와
물 로서
물 리학
미 아의
변 은
변 한
본 이다.

봉 건
산 학
성 공
소 아
수 당
심 ,
쌍 의
아 주
악 과
야 기
예 금
예 방
오 르는
용 량
우 면서
운 용
움 ,
원 

이 는데,
인 식
일 부
임 대
자 이
장 도
장 (19
장 치가
저 가
저 는
정 부와
조 인
지 금
지 질
지 이며,
직 인
처 에서
천 도
탄 은
테 이너
통 성
트 나
팀 은
퍼 는
표 에
표 와
프 에
해 짐에
행 정을
현 ,
현 장
현 (李
홍 보
화 사(
효 과
희 (金
▁이 길
▁이 치
▁이 란의
▁있 으니,
▁1 조
▁1 세와
▁그 대
▁사 학
▁사 우(
▁사 례를
▁수 세
▁수 시
▁수 중
▁지 시에
▁지 각의
▁가 문을
▁가 구는
▁기 형
▁기 금을
▁기 구가
▁전 기는
▁제 약을
▁제 노바
▁정 적
▁정 직
▁자 존
▁자 칭
▁자 랐다.

▁일 이라고
▁중 생을
▁2 m
▁2 중
▁2 항
▁2 명을
▁2 ∼3
▁2 차례에
▁주 게
▁주 상
▁주 인의
▁주 문을
▁경 기의
▁다 닌
▁다 국적
▁유 로
▁유 식
▁유 영
▁유 추
▁유 약을
▁유 림의
▁위 로는
▁관 공
▁관 중
▁관 등은
▁인 도를
▁인 도로
▁고 분의
▁공 국의
▁때 마침
▁동 리
▁서 는
▁비 문을
▁구 청
▁구 스타
▁구 간이
▁상 가
▁상 시
▁상 부의
▁소 량
▁소 생
▁소 원
▁모 차
▁연 해
▁연 관이
▁발 각
)· 민
▁3 단
▁개 개
▁개 월
▁개 체가
▁문 리
▁생 계
▁국 회에
▁성 층
▁교 전
▁교 장에
▁작 전을
▁만 난다.

▁통 근
▁통 로를
▁마 가
▁장 원으로
▁남 이
▁오 경
▁무 릅
▁무 질서
▁강 인한
▁미 수
▁미 흡
▁거 예요.

▁선 산
▁선 한
▁선 형
▁후 천
▁후 한
▁계 엄
▁5 성(五
▁같 다.
▁재 산에
▁〈 모
▁〈 보
▁〈 비
▁〈 위
▁결 사
▁노 비를
▁설 계를
▁따라 가
▁당 은
▁양 면
▁양 조
▁양 지
▁받 들
▁진 실을
▁물 체에
▁명 창
▁‘ 비
▁알 폰
▁예 종
▁행 사는
▁' 가
▁변 했다.

▁변 동을
▁파 를
▁초 음
▁사용 되지
▁차 르
▁표 상
▁군 으로
▁그리 기
▁과 제를
▁북 부를
▁법 적인
▁속 하며
▁감 회를
▁학 위
▁7 명의
▁근 접
▁목 의
▁직 경은
▁증 식
▁편 곡
▁호 적
▁태 생
▁삼 사
다가 스카
▁합 의를
▁토 산
▁아니 한
▁김 안
▁김 이
▁20 세
▁「 진
▁15 ,
로서 도
▁백 제를
▁『 주
▁복 권
▁용 매
▁구성 원이
▁채 록
▁치 밀한
▁면 은
▁면 에서는
▁타 밀
▁석 전(
▁한국 독립
▁쓰 이며,
▁판 이
▁14 ,
▁14 세기에
▁197 7년에
▁정도 이며,
▁순 서를
▁198 3년에
▁196 2년에
▁카 타
▁취 미
▁취 해
▁봉 하여
▁드 로
▁걸 맞
▁사실 적
an k
(李 仁
(李 鍾
▁온 도에서
▁질 의
▁이것 으로
▁도시 인
대학교 (19
▁생각 에
▁침 묵
대학 (19
▁영국 군
▁영국 ·아일랜드
위원 에
▁송 도
▁기술 에
▁홍 천
▁막 스
▁밀 도
▁밀 랍
▁시행 한
▁C D
▁독립 운동에
▁A b
al es
▁주장 할
▁구조 

▁빈 틈
▁기능 도
▁결정 적으로
▁눈 앞
▁넓 히
▁민족 은
▁실시 한다.

▁국민 연금
▁거쳐 서
▁견 딜
▁음악 ,
▁이때 에
▁정보 에
is c
▁증가 에
▁흔 하게
▁옥 천
▁상태 ,
▁인정 했다.

▁격 하
▁1월 부터
▁뉴 클레오
▁디 킨
▁조각 으로
▁지정 되었으며,
▁과정 ,
▁월 터
▁법률 상
.1 9
사항 

▁통일 한
▁응 축
▁옮 기고
▁서식 으로
▁낙 향
▁낙 후
▁강조 하여
▁이동 을
▁테 일러
공업 단
▁제품 은
▁내려 다보
le t
▁싸 고
▁강화 되었다.

▁헤 엄
▁이론 적으로
it é
▁썼 던
▁울 창
▁하였 을
▁조사 된
▁비판 이
▁부르 고,
▁받았 던
▁받았 는데,
▁믿 지
되기 까지
▁농민 이
조직 인
▁빌 기
▁21 개
▁파견 한
15 년(
▁도입 되어
▁민주 적
▁개편 으로
▁근거 는
▁탑 은
▁귀족 들이
▁귀족 들은
▁유형 에
▁유형 이
▁부여 한
▁주도 적인
▁좌우 에는
6년( 숙종
▁지니 게
4년( 영조
▁185 9년
om b
▁서울특별 시에
0년( 숙종
▁184 0년
▁184 7년
▁능력 ,
▁거주 하던
보살 (
▁183 9년
1년( 선조
▁죄 가
▁금속 을
▁도덕 적인
▁2개 를
▁콜 레
7년( 숙종
▁위원 회는
▁가입 하였다.

▁전설 적인
▁창건 된
▁관심 의
▁절차 가
▁귀국 했다.

▁율 리아
▁생명 체의
▁은행 이
▁윌 슨
9년( 영조
▁바닥 을
▁독자 적
▁침략 에
▁연극 의
▁사고 로
▁민속 놀이
▁자치 구
▁그중 에서
▁창설 했다.

▁꼭 두
▁언제 든지
부장 관이
▁쪽 에서
▁이하 인
▁지리 적으로
조건 이
▁충돌 을
▁이집트 에서
▁인디언 의
▁범죄 에
프로 이센
▁언급 하고
▁바라 보고
▁세웠 던
▁181 4년
▁181 8년
운( 次
▁1970년대 에는
▁무너 져
▁숫 자는
▁벌어 지는
▁취득 했다.

▁도모 하기
▁회전 하는
▁선호 하는
▁풍속 이
▁전승 되고
▁노르 망
▁흐르 면서
▁마주 보고
▁없애 기
▁가축 의
▁아카데미 의
제1 동
▁형상 화
▁몬 테
수준 을
▁지진 이
▁보인 다

▁서울시 령
▁이별 을
▁신속 한
▁아름답 다.

▁제갈 량이
▁중건 하였다.

조좌 랑을
▁스테 로이드
▁초월 한
▁트로 츠키
▁현저 한
▁원효 는
▁궁극 적
▁밝히 고,
▁수수 께
▁폴리 네시아
▁가르쳤 으나,
▁배웠 고,
▁w ith
▁맏 아들
그래 프
▁스토 아
▁장로 교
▁가맹 점
▁메디 치
▁어지 럽
▁분동 되면서
층석탑( 보물
▁권7 에
▁콜로 라도
나르 도
▁모른 다는
▁이득 을
▁디오 니
편마 암
▁이벤 트
▁메트로 폴리탄
▁다행 히
▁이를테 면
▁연근 해
▁어쨌 든
▁5성(五 聖
( 8
( 고
2 +
2 m)·
L .
M W
R NA
S t
c al
r at
r and
v es
y right
· 윤
· 발전
· 출판
μ m이다.

▁ &
▁ 十
▁ 山
▁ 故
▁ 깍
▁ 눕
▁ 둠
▁ 앗
▁ 즙
▁ 츠
世 界
列 傳
司 )의
器 )
國 民
墓 〕
寺 ]
寺 ),
對 )
山 )으로
島 )에
所 )에
書 )로
氏 )이다.

湖 南
留 守
縣 )을
記 ≫
鄕 校
量 壽
門 )을
갈 이
강 우
객 의
거 는
고 금
곳 의
공 해
공 학의
관 도
교 리
교 양
구 이
국 (金
국 가로
권 대회에서
글 을
금 액을
기 금(
길 이가
꽃 의
남 산
노 르
논 문
놓 아
다 라
담 으로
더 는
덕 산(
동 물은
들 간의
디 를
라 로
랑 과
래 치아
략 을
료 (
마 산
만 화
멥 쌀
몬 테
문 

민 스터
방 전
벌 랜드
벨 은
별 (
병 사
보 니
보 드
복 한
북 도의
빌 라이
사 키
상 시
새 ,
생 (金
성 동
세 르
세 력은
수 소
슬 링
시 장과
신 에게
여 우
연 으로
영 언
왔 으나
왔 으며
움 직
원 서
웨 일
이 성
임 스
입 하여
장 

장 자
장 이다.

저 항
절 구
정 신의
지 였던
차 이
철 은
철 도가
총 회에서
출 이
취 는
치 아의
침 과
콤 한
태 의
트 기
트 롤
티 카
파 괴
파 라
파 한
판 결을
팔 래치아
펠 러
평 면
화 되기
회 복
회 화
히 트
▁이 지
▁1 단
▁사 흘
▁사 면은
▁수 려
▁수 법으로
▁대 뇌
▁대 류
▁대 구의
▁지 공
▁가 혹
▁가 하는
▁가 브리엘
▁등 극
▁기 호를
▁전 교(
▁제 압
▁제 왕
하고 는
▁시 조의
▁시 장은
▁시 인으로
▁정 순
▁정 원이
▁자 줏
▁자 질
▁중 기에
▁2 인을
▁2 명이
▁주 물
▁주 춧
▁주 주가
▁보 복
▁보 조를
▁아 픈
▁경 련
▁경 에
▁경 질
▁다 져
▁관 등
▁관 인
▁조 운
▁인 슐
▁인 체에
▁인 더스
▁나 눠
▁부 안
▁고 장의
▁의 지가
▁의 원이
▁공 소
▁공 주를
▁공 로를
▁동 로마
▁서 지
▁구 족
▁구 름을
▁원 장
▁원 자는
▁원 (元
▁소 통
▁모 리
▁모 터
▁연 간에
▁발 명한
)· 복
▁신 명
▁신 체는
▁3 65
▁개 로
▁개 에
▁세 입
▁세 례를
▁문 장에
▁생 물은
▁생 명이
▁여 긴다.

▁도 합
▁성 덕
▁성 서의
▁영 아
▁해 ,
▁해 동
▁해 적
▁해 설을
▁교 배
▁교 서
▁교 포
▁교 화는
▁만 물의
▁어 쩌
▁따 져
▁통 증
▁마 인
▁장 대를
▁오 다가
▁오 르게
▁바 쳤
▁무 오
▁미 치고
▁선 두
▁선 인
▁특 성으로
▁없 으니
▁불 명
▁불 투
▁불 경을
▁분 사
▁우 랄
▁우 회
▁우 부승
▁후 작
▁말 아야
▁반 도에
▁계 로서,
▁같 다는
▁산 성을
▁산 소의
▁재 주를
▁재 생산
▁〈 가
▁〈 고려사
▁〈 동아일보
하기 

▁형 상이
▁종 단
▁설 과
▁당 황
▁당 하는
▁당 국의
▁단 종
▁받 거나
▁진 급
▁18 현(
▁‘ 보
▁‘ 상
▁[ 해양수산
▁사람 들로
▁알 타이어
▁예 민
▁예 산을
▁역 참
▁행 하고
▁행 사의
▁각 이
▁각 지를
▁각 종의
▁화 북
▁' 불
▁' 자
▁' 한
▁평 온
▁것이 기도
▁파 이프
▁초 명은
▁적 법
▁적 성
▁적 힌
▁최 적
▁차 체
▁군 내
▁권 위에
▁권 세를
▁독 주
▁스 와
▁포 고
▁북 반구
▁임 해
▁법 안을
▁때문 입니다.

▁때문 이다.
▁속 성
▁요 인을
▁요 점을
▁약 혼
▁외 부로
▁저 승
▁조선 인민
▁조선 후기
)를 ,
▁10 ,
▁삼 단
▁사회 ·경제
▁합 치
▁김 태
▁김 대중
▁20 ~30
▁살 을
▁못 하다.

▁16 편,
▁열 람
5년 의
시대 는
▁『 오
▁용 액을
▁구성 하였다.

▁총 애
▁총 을
▁총 생산
▁항 쟁
▁연구 에서
▁석 비
▁황 록
▁사이 시
▁( 이
▁제1 장
▁쓰 던
▁199 4
▁로 베르
▁197 4년에
▁승 정원
▁활동 ,
▁에 스
▁풍 선
▁카 이
▁고려 청
▁11 5
▁손 익
▁봉 기를
▁향 로
▁정치 ·사회
▁갈 색을
▁비롯 ,
▁비롯 된다.

▁발전 되었다.

▁발전 시키는
▁프랑 켄
▁논 란을
an c
스트 가
▁잡 힌
▁온 도와
▁프랑스 어로
▁글 에
▁행정 관
지역 이다.

▁묘 사가
▁업 체에
▁암 석은
▁암 행어
▁만들어 서
▁리 우
▁누 룩
▁누 리
대학 [
대학 원·
▁축 으로
▁축 제가
▁조직 되었다.

)’ 와
▁능 선을
▁만들 었
▁협 박
▁송 달
▁인구 를
▁역사 ,
▁홍 경
▁홍 범
▁작성 하고
▁코 일
▁설립 해
▁A ,
▁주장 도
▁수도 원의
▁T im
▁필요 하다는
▁개발 제한
or i
▁연결 시켜
▁1, 2
▁빠 졌다.

사회 주의
▁우리나라 와
▁브 람
▁떠 서
▁제3 5
▁제3 자에게
▁I C
▁늘 어서
▁노래 이다.

사항 에
▁물질 적
▁공동 체적
▁인물 에
▁인물 인
▁응 하지
▁트 레
▁장식 하였다.

▁테 이
▁지도 자들은
▁성공 하였다.

▁습 격을
▁왜 구를
▁훈 민정
▁교회 ,
▁상당 수의
▁칼 라
▁규정 하여
▁규정 했다.

▁북한 에
▁클 라
▁고구려 에
도시 의
▁터 전을
▁187 7년
▁통합 된
▁성장 할
▁잔 류
▁건물 과
▁부족 을
▁수입 과
▁분석 하고,
▁술 에
▁가치 에
▁개정 으로
▁개정 되었다.

시간 과
▁제4 회
▁편찬 하였다.

▁식물 과
▁때까지 의
▁여성 들은
▁공부 했으며,
▁해석 에
▁식민 지를
▁수용 과
▁바다 와
▁칭 기즈
▁억 류
▁책임 자로
▁2, 7
▁2, 8
▁185 2년
▁수립 을
▁개칭 ,
▁1년 생
▁인식 하는
▁목적 의
▁제6 5
▁왼 손
▁금속 의
▁액 정
▁확보 하는
▁가격 의
▁빨 아
▁고용 보험
▁콜 리
▁좀 처럼
▁감독 의
▁감독 으로
▁선택 할
▁확립 되었다.

사람 의
▁이주 해
▁전후 로
▁무렵 부터
▁달라 지는
▁진출 하여
▁은행 은
▁워 낙
▁실천 적
▁춤 추
▁친구 들과
▁계산 하여
▁정기 적인
▁북동 부
▁흉 내
▁부동 산의
▁[생애 ]
▁팽 팽
▁마르 틴
▁대성 전에는
▁장기 적인
▁브라 만
▁틀 어
▁합병 되었다.

▁충돌 하는
▁연속 적인
▁약속 한
교회 와
▁족 장
▁한자 명으로
▁무너 진
▁무너 지고
▁대체 되었다.

▁선수 들은
▁짐작 하게
▁복원 되었다.

▁일으키 고
▁대전 광역시
▁합쳐 서
▁권3 ·4
▁교훈 을
▁부임 한
재판 소
▁붓 을
▁대해서 만
장애 ,
장애 가
▁북아메리카 의
평야 를
▁출간 했다.

법> 에
▁연꽃 잎
▁다니 며
▁수컷 의
▁DNA 를
▁맞이 했다.

▁띄 워
▁형상 화한
▁엄청 나게
大夫 )에
마저 도
▁옥개 석은
버섯 은
▁사립 학교
▁관청 에
▁매달 려
▁3,000 여
▁전세 계의
▁문양 은
▁고속도로 가
▁석방 되었다.

▁돌아오 지
▁국제연합 (UN
▁동성 애
▁캔 자스
▁싸우 다가
▁윤곽 을
(I n
▁3차 원
(U n
▁사우 디아라비아
▁신탁 통치
▁가볍 고
화나 트륨
▁평균기온 은
통지 서
▁입양 되었다.

방사 선
▁온건 한
▁월드 컵
▁옥타 비아
▁『삼국지연의 』
▁후임 으로
▁줌 으로써
▁승문 원
▁안타 까
▁서비 스의
▁풍수 지리
▁베네딕 투스
▁미네 소타
▁햇볕 에
▁Society 

(1980 ).

▁서둘 러
네티 컷
▁Cop yright
▁아이슬 란드
▁[해양수산 부령
( 7
- 11
. *
. 20
E n
M A
O S
R A
b le
c le
e u
g /
i en
t y
· '
· 최
· 함
· 관리
· 금속
’ 란
∼ 20
▁ 其
▁ 넬
▁ 랜
▁ 뤄
▁ 샛
▁ 웬
▁ 쳤다.

》 를
》 을
」 에는
化 )
堤 堰
官 )의
寺 )로
層 石塔
庵 )
成 均
文 )」은
生 )
石 )으로
經 史
縣 ]
縣 )의
蓮 花
西 )
記 )」는
龍 )의
가 이자
간 행
개 씩
개 척
거 리의
결 제
경 제를
계 도
고 /
고 구려
교 역
국 방
기 보다
기 반을
남 도의
느 라
는 지에
늦 게
단 결
대 명
동 물과
들 였다.

룡 은
마 립
마 치
물 품
배 나
벌 이
변 화와
보 안
보 았다.

부 주
부 채
부 사에
비 율
빈 은
사 찰
생 산의
석 에서
소 방
소 서
소 리의
소 프트
수 단을
시 까지
시 장으로
시 간에
신 (金
약 과
양 읍
외 (
욕 (
워 즈
위 이다.

율 시
음 보
인 증을
작 전을
전 인
점 도
정 교
정 구
정 운
주 재
중 심의
즈 가
질 수록
체 계에
촌 을
추 밀
층 에서는
친 (
캥 거
키 의
톤 의
퇴 적
특 정
포 화
폭 은
표 에는
하 모
학 원을
학 부·
혁 명을
형 무
형 법
화 엄
활 자본
회 담을
▁이 세
▁이 틀
▁이 자를
▁이 치에
▁1 항
▁1 km
▁그 나마
▁사 원이
▁사 신의
▁수 려한
▁대 목
▁대 간의
▁대 등한
▁지 킬
▁지 상에
▁가 신
▁가 락이
▁기 보
▁기 아
▁기 이
▁기 구의
▁기 원에
▁기 이한
▁전 류
▁제 동
▁제 이
▁제 나라
▁제 의를
▁제 자들을
▁제 각기
▁시 련
▁시 편
▁시 합
▁시 도를
▁정 계
▁자 산을
▁일 조
▁일 정을
▁중 문
▁중 신
▁중 등학교
▁2 ~5
▁주 역
▁주 체적
▁보 내고
▁아 흐
▁경 도
▁경 순
▁다 방
▁유 원
▁유 자
▁유 지에
▁유 물로
▁유 난히
▁위 쪽의
▁관 모
▁관 서
▁인 턴
▁인 격을
▁나 한
▁나 갔다가
▁부 왕
▁부 대는
▁고 (
▁공 손
▁공 자가
▁공 기는
▁서 까
▁서 운
▁상 공업
▁상 류에
▁원 에
▁원 만한
▁소 리와
▁소 아시아
▁모 반
▁모 아서
▁발 상
)· 누
)· 모
)· 초
)· 효
)· 서(
▁신 에게
▁세 제
▁문 이
▁문 서가
▁여 론의
▁여 왕은
▁도 급
▁도 선
▁교 류가
▁작 물
▁통 례
▁마 운
▁장 연
▁장 정
▁장 치는
▁장 비의
▁장 치가
▁남 자의
▁남 ·북
▁무 대에서
▁무 하마
▁강 압
▁미 아
▁거 센
▁거 푸
▁거 란의
▁불 사
▁4 50
▁4 80
▁4 칸의
▁우 위에
▁후 두
▁후 지
▁반 하여
▁반 죽을
▁현 세
▁계 명
▁5 부
▁5 명의
▁산 봉
▁〈 삼
▁형 제는
▁종 9
▁종 2품
▁설 리
▁단 과대학
▁단 단히
▁양 심
▁양 국의
▁진 휼
▁진 달래
▁명 당
▁‘ 한국
▁[ 변
▁안 악
▁안 은
▁화 면에
▁건 반
▁' 대
▁' 영
▁' 우
▁' 지
▁그러 면서도
▁변 속
▁변 조
)이 ,
▁사용 은
▁사용 되었으며,
▁적 석
▁표 로
▁군 림
▁추 수
▁스 텝
▁포 식
▁포 화
▁점 포
▁입 장은
▁요 하
▁감 동을
▁그러나 ,
▁근 심
▁회 령
▁조선 왕
▁달 랐
▁호 메로
▁데 다
▁데 모
▁처 지에
▁삼 강
▁피 지배
▁높 고,
▁돌 은
▁돌 면서
▁토 마토
▁아니 므로
▁20 2
▁「 장
▁12 세
▁못 하기
▁일본 과의
▁총 파
▁하나 만
▁치 며
▁치 켜
▁치 과의
▁항 문
▁철 도로
▁충 정
▁충 혜
▁타 파
▁타 인을
▁황 색이다.

▁제1 20
▁이용 ,
▁쓰 면
▁판 명
▁절 터
▁순 흥
▁이름 에
▁198 0
▁198 1년에
)」 에는
▁카 우
▁귀 부
▁번 이나
▁향 신
▁향 유
▁향 사를
▁드 루
▁13 세
▁발전 하기
km /h
▁195 2년에
스트 리아
▁투 기
▁의미 하며,
▁다양 성을
▁프랑스 령
▁암 석의
▁만들어 냈다.

▁발생 을
이었 으므로
▁누 리고
▁조직 해
▁조직 되어
〉(19 78
▁만들 며,
▁송 림
▁기술 로
▁접 착
▁둘 이
▁홍 순
▁노동 에
▁코 너
▁평가 할
▁메 릴
▁발달 하지
▁가능 성
연구 소에서
▁애 도
ar k
▁결정 적
▁로마 인들은
▁벌 써
▁벌 어져
▁국민 을
▁넘 게
▁유지 하거나
▁루 브르
▁깊 이가
▁흐 른
▁이해 에
▁수행 하여
▁제3 의
▁형식 적인
▁혹 독한
▁보고 하는
▁패 권을
▁녹 색을
▁요구 하고
▁뉴 기
▁게 을
▁월 북
▁개인 이나
방법 의
▁소설 로
▁추정 하고
▁분야 가
▁기재 된
▁트 럭
▁장식 하는
▁시대 구
▁시대 부터
▁농업 은
▁전개 되는
le ct
▁정책 으로
▁미술 을
▁인도 유럽
re d
it er
▁칼 뱅
▁규정 하였다.

▁클 레오파
▁움직 이게
전쟁 을
▁부르 봉
▁받았 을
▁받았 으나,
▁적용 될
자료 에
▁지급 한
▁자본 총액은
▁흘 려
▁그래 미
▁그래 픽
▁둥 그
▁납 치
▁처리 한
▁바뀌 고
▁배치 되었다.

▁무엇 인지
▁실험 에
과정 과
▁K .
▁좁 혀
▁케 플러
▁영토 에
▁무덤 에
▁배경 은
▁수립 된
▁가정 용
▁아름다 워
▁저항 하는
▁쿠 바
▁신앙 고
▁183 4년
▁183 7년
▁무역 에
▁흙 과
os s
박물관 ,
거래 에
▁이집 트를
트로 이트
▁확립 했다.

▁가입 한
▁신문 사
▁이주 민
▁민간 에서
▁오르 면
▁불리 며
▁천연 기념
▁179 1년
um an
▁자라 며,
▁콩 과
방( 성
·보 름에
▁3, 8
▁획득 한
▁소득 을
▁규칙 적인
▁부동 산에
▁태어 날
▁단백 질의
▁스타 일
▁그해 에
▁시절 부터
▁굳 은
▁5일 -
▁통해서 만
▁이념 과
▁177 6년
▁지키 지
▁혈액 이
▁서정 쇄
▁묶 여
▁분열 을
산맥 이
▁자녀 가
▁시각 적
▁방지 하는
▁덴 노
자들 로부터
혁명 당
▁껍 질이
▁가담 한
▁소멸 되었다.

▁둘레 가
▁바르 셀
용( 丁若
▁마주 나
▁나폴레옹 이
▁유도 하는
▁멜 로
▁지출 을
▁동작 을
▁언덕 에
▁누구 든지
▁꾸준 한
▁도쿄 [東京
▁고안 한
▁아미타 불
트리 올
▁깨달 은
▁호소 하는
▁상상 력을
▁대변 하는
▁감옥 에서
▁개통 되었다.

▁선구 적인
▁긍정 적
▁용이 하게
▁매달 아
▁선고 받았다.

▁감리 교
▁여의 고
▁일관 된
▁구석기 시대
▁자발 적
▁화살 을
조1 항).
▁어리 석은
(元 曉
▁형이상 학적
▁사물 이나
▁불행 한
▁〈삼국 유사
▁클리 닉
)·산 천(山川
▁이황(李滉 )의
▁무엇인가 ?

▁리보 솜
▁2015 .1
▁호기 심을
▁사업자 등록
▁폈 다.

교향 악
▁프톨레마이오 스
지방법 원에서
▁〈코 란
▁반( 反)
▁멤 피
▁마오 쩌둥
▁알성 문과에
▁초하루 ·보름에
▁볼로 냐
▁잠(箴 )
▁석전( 釋奠
▁18현( 十八
용(丁若 鏞
" 고
' 라고도
( 혹은
- P
- m
/ 에
1 km2,
8 m)·
F C
I A
O )
[ 長
b a
g h
i )
i ,
s c
· 리
· 팔
’ 에는
▁ 論
▁ 됐
▁ 촐
▁ 퓨
▁ ro
▁ 멥쌀
全 書
公 廨
命 )의
啓 )
姓 氏
布 )
所 )를
歌 )
法 )과
法 )으로
用 )
章 )을
童 子
箋 )
臺 )
舍 人
貢 擧
贊 )
錄 )」은
開 城
阿 彌陀
類 ),
鷄 林
가 격을
감 소
값 이
개 이다.

객 (
고 서
공 사의
관 ]
국 내
국 회
권 ·
기 회
기 부터
꽃 을
나 스
난 으로
네 스는
녕 (
다 르
다 한
단 체에
담 보
대 인
됨 과
들 로서
레 스는
루 스의
류 나
류 하는
린 ,
링 거
먹 는
몰 이
무 사
무 사(
무 역을
미 스
박 해
발 과
벌 ,
본 인
부 설
분 리
비 인
비 용을
삼 군
생 산(
속 대전
손 인
수 원
스 콘
승 계
시 장(
신 론
신 성
신 학
암 산(
어 말
연 에서는
오 카
우 조
움 에
원 선거
위 해
의 례
이 론을
인 상
인 지,
재 산을
저 녁
전 력
제 주
조 치를
졸 업
죄 의
중 간
지 상
진 동
진 사
차 대조
촉 성
촌 이
칙 ,
케 이트
토 바
톤 ,
티 모
펜 하
품 이다.

플 렉
하 느냐
학 문
햄 프
협 (
호 )을
화 살촉
황 후
▁이 그
▁이 극
▁이 학
▁이 라는
▁1 백
▁1 점
▁1 시간
▁1 )에는
▁그 들과
▁사 족
▁사 다리
▁대 궐
▁대 사가
▁지 그
▁지 대에
▁지 류가
▁가 기
▁것 까지
▁기 구는
▁전 주의
▁전 근대
▁한 원
▁한 중
▁한 쪽에
▁제 곱
▁정 태
▁정 당의
▁자 리가
▁일 률
▁일 직
▁일 시에
▁보 정
▁보 수를
▁아 베
▁아 들은
▁경 구
▁다 중
▁다 발성
▁위 는
▁관 대
▁관 세를
▁관 점을
▁조 조의
▁조 사에
▁인 내
▁나 자
▁나 그네
▁부 화
▁부 서,
▁고 스
▁동 심
▁동 기를
▁서 역
▁서 장
▁서 문을
▁비 둘
▁비 싸
▁비 아
▁비 추
▁상 향
▁원 유
▁소 로
▁하 반
▁하 니,
▁연 골
▁연 변
▁연 의
)· 불
▁세 공
▁세 종이
▁세 력으로
▁문 자와
▁생 후
▁여 부는
▁여 동생
▁내 리지
▁도 끼
▁성 불
▁성 서를
▁성 질은
▁해 시
▁해 인사
▁교 의
▁교 수는
▁만 연
▁통 로가
▁마 지
▁장 지
▁장 례를
▁남 구
▁바 하
▁무 고
▁거 사
▁거 리의
▁선 율을
▁방 이
▁불 국
▁불 렸던
▁분 장
▁4 분의
이라 면,
▁우 에
▁후 렴
▁실 학
▁현 상의
▁5 가지
▁재 외
▁〈 나
▁〈 내
▁〈 세
▁〈 연
▁〈 자
▁〈 화
▁결 별
▁노 량
▁당 국
▁당 파
▁양 끝
▁양 자의
▁물 적
▁‘ 내
▁[ 형성
▁예 (
▁예 일
▁안 마
▁6 .5
▁화 양
▁화 면을
▁왕 성
▁변 산
▁변 할
▁사용 하도록
▁적 개
▁차 의
▁매 립
▁추 장
▁그리 고,
▁간 직
▁간 추
▁독 살
▁민 첩
▁북 반
▁북 상
▁임 업
▁감 아
▁감 사의
▁약 수
▁약 용
▁근 위
▁외 관
▁목 은
▁목 에는
▁목 사가
▁직 위를
▁직 원이
▁직 전의
▁증 원
▁편 이며,
▁본 성을
▁호 로
▁호 수가
▁호 수는
▁호 랑이
▁데 다가
▁금 이
▁금 일
▁집 게
▁삼 지
▁피 폐
▁피 하는
▁피 하고
▁피 부에
▁김 광
▁김 소
▁심 의를
▁음 모
▁「 구
▁「 자
▁체 계의
▁시작 하여,
▁못 했
▁백 사
▁『 삼
▁『 석
▁『 주역
▁17 ,
▁식 료품
▁200 0년대
▁총 리로
▁철 골
▁철 종
▁병 원을
▁자신 만의
▁책 과
▁책 에는
▁쓰 임새
▁로 저
▁담 그
▁활동 도
▁에 밀
▁에 스키
▁196 3년에
▁카 트
▁고려 한
▁교육 부
▁취 리히
▁효 소를
▁번 도
▁환 자에게
▁박 승
▁언 해
cm )
▁향 교
▁정치 는
▁발전 ,
▁줄 지어
▁논 밭
▁사실 도
▁195 0년에
▁193 9
▁≪ 수
▁주요 항
▁얻 어진
▁자연 선택
지역 ,
▁표현 한다.

▁중앙 과
▁중앙 부에
▁중앙 행정
▁포함 되지
▁알려 준다.

는데 도
▁은 은
▁부분 인
▁별 을
▁능 통
▁꽃 턱
▁꽃 자루
▁노동 자들이
▁작성 ,
▁친 정
▁친 구를
▁자유 로
ti tu
▁먹 이는
▁주장 하며
▁수도 원에
▁아래 는
▁범 위와
▁평가 하기
▁관계 와
▁필요 하지
▁개발 해
▁S c
▁빈 약한
▁기능 적
▁폭 풍
▁애 팔래치아
▁존재 한다는
▁있을 까?

▁눈 길을
▁문학 사
▁놓 는
▁실시 해
▁잎 가장
▁산업 에
▁야 마
▁직접 적
▁맡 겼다.

▁그리스 ·
▁임명 하였다.

▁깊 이를
▁낮 에는
▁이야 기에
▁흔 하다.

▁옥 신
▁떠 받
▁제3 장
▁벽 과
▁I -
▁곡 창
▁녹 색이고
▁참여 했으며,
▁노래 하는
▁게 임을
▁넣 으면
▁망 간
▁망 명한
▁소설 ,
▁풀 을
▁플 롯
▁등장 하면서
▁퇴 위
▁활용 하고
▁가족 ,
▁성격 으로
계약 은
▁다르 며,
▁다르 다는
▁드러 낸다.

▁터 를
▁유래 한다.

▁187 1년(고종
▁2. 4
ra y
▁부르 며,
▁전시 회
▁적용 하는
조직 과
▁오래 전부터
▁결혼 하여
▁N .
▁지속 되는
현( 宋朝
▁올라 간
▁통치 권을
▁도입 ,
▁판매 를
▁돈 다.

▁근거 지로
▁소재 가
구역 의
▁제정 되어
▁밤 에는
▁여성 에게
▁[개 관]
▁지원 했다.

▁관찰 하고
예술 의
▁쌍 방
▁《 삼국
▁근로 의
리지 느러미
.3 %,
▁좌우 의
▁참가 하는
▁정리 하고
▁가져 오
▁봄 과
적( 古蹟
▁위해서 였다.

▁엘 레오
▁뇌 물을
▁183 3년
▁니 카라
▁확보 할
▁흙 이
기능 의
▁지적 했다.

▁지적 하였다.

▁벼슬 이
▁소개 하는
▁위원 회가
▁주고 받
▁꼬 리가
▁이르기까지 의
▁179 3년
모양 을
▁숨 은
▁제국 주의
▁남서 쪽에
▁근본 으로
▁늘어 날
▁까 치
▁확장 되었다.

▁단체 인
사무 소를
▁그중 에는
▁겹 처마
▁수집 하여
▁178 9년
▁제7 8
▁전파 를
▁주택 의
형태 가
형태 의
▁취임 하여
▁표기 되어
▁182 1년
▁혼란 과
▁모래 를
▁물러 났
▁오페라 를
▁인디언 들이
▁극복 하는
▁개화 파
▁채권 자가
▁갔 을
▁총독 부
▁주관 하는
▁주관 적인
▁신의 주
▁90 %
▁두드러 진다.

▁채무 자의
43 년(
▁무기 력
▁일으키 게
종교 적
▁요소 들을
▁집안 이
▁읊 었다.

▁신학 제
▁받아들여 지지
▁가득 한
▁하느님 을
ell a
주식회 사를
▁공헌 했다.

▁In ternational
▁성벽 이
▁멜 라
▁6·25전쟁 으로
▁형제 자
▁신비 주의
▁고안 된
▁기슭 의
▁유아 교육
▁삼국시대 부터
▁타원형 이고
자동 화
功臣 )에
▁덜 어
▁은퇴 한
▁자살 을
▁Q .
▁첨부 된
▁얽 혀
▁지방자치 단체
▁성질 에
▁궁정 에서
받았 으나
▁존중 하는
▁수양 대
▁연락 처,
▁모서 리에
구멍 은
▁대처 하기
▁암술 은
▁원활 히
▁자전 거
▁공무 원의
▁비늘 이
▁떡 을
▁프란 츠
▁사랑채 는
▁앵 글로
▁짐승 의
사범 학교
▁천거 로
▁압도 적으로
▁양주 군
▁헤이 그
▁상처 가
▁마찬가지 였다.

▁앓 고
▁선보 였다.

문헌 비고
▁부당 하게
春秋 館
역할 을
▁뺀 다.

부동 산
▁우두 머리
▁추세 이다.

▁1쌍 의
▁백과 사
▁툇 마루
▁아바 스
▁블라디 보스토
▁정인 홍
▁입출 금
▁궁내 부
▁두터 운
▁제169 호-
ven tion
▁집어 넣
▁갑오경 장
폐기 물
▁기묘 사
▁애썼 다.

▁인적사항 과
▁무서 운
식돌 방무덤
▁무수 히
▁고랭 지
樞密 院
▁푸에르 토
' ·'
- ,
- C
- b
- p
3 km2,
f er
i x
m 이며
n al
u tion
u ro
y e
~ 75
· 귀
· 칠
· 판
· 연구
· 문학
· 판매
′ ,
▁ 上
▁ 굉
▁ 깐
▁ 룸
▁ 쑨
▁ 앱
▁ 엥
▁ 짖
▁ 틴
事 )로서
原 從
學 )과
山 )을
川 )·
州 牧
州 )를
德 )
政 策
新 羅
早 稻
明 )
明 )의
武 帝
河 )
法 )에
洛 陽
相 )
碑 )
系 )
致 遠
語 )
賢 ),
鎭 )
陀 羅
靑 年
靑 磁
가 입
각 서
갔 고,
거 리에서
계 에는
고 사
곽 (
극 에
금 고
금 성
너 지
누 가
니 어
다 리가
대 전을
도 인
도 리를
되 나,
락 으로
러 ,
레 트
룡 의
룰 로
리 라
만 t
맥 은
명 (李
모 호
무 스
문 토기
민 중
밟 기
밤 에
번 역
봉 인
부 윤
부 대를
브 는
빈 이
빌 딩
생 에
선 원
세 지
순 문
슈 바
악 부
알 을
암 에서
았 다가
양 주
여 행을
영 역
웅 (
워 져
워 하는
원 에는
유 적,
육 상
이 은
잎 으로
자 미
장 비의
재 (李
저 민
적 (李
중 독
지 곡
지 식을
지 구의
진 주
차 관
찬 의
채 널
채 용
처 와
천 시
체 로서
캄 브리아
토 [
토 기가
통 일을
투 리
투 자가
트 웨
페 스
포 인트
폭 이
푸 는
피 ,
할 수록
헤 이
현 (金
형 에서
황 은
휴 가
▁이 문
▁이 슬
▁이 하는
▁1 급
▁1 큰술,
▁사 물에
▁사 설을
▁수 몰
▁수 소와
▁수 분이
▁수 꽃이
▁대 종교
▁대 단위
▁지 사
▁지 위와
▁가 내
▁가 다가
▁가 졌고,
▁가 락을
▁등 기를
▁전 경
▁전 일
▁전 직
▁시 력
▁시 속
▁시 조가
▁정 범
▁정 예
▁정 작
▁정 사(
▁정 당은
▁정 밀하게
▁19 )에
▁자 그
▁자 사
▁일 가
▁일 했으며,
▁주 며
▁주 기로
▁보 임
▁아 님을
▁경 조
▁경 위를
▁경 주를
▁다 해
▁다 수가
▁유 충
▁유 방이
▁위 계
▁위 배
▁조 목
▁조 미
▁조 총
▁조 국을
▁조 식(
▁나 이는
▁부 신
▁고 르지
▁의 욕
▁되 지만,
▁동 계
▁서 간
▁서 고
▁서 반
▁서 적을
▁비 대
▁비 료
▁비 대칭
▁구 양
▁구 원의
▁상 좌
▁원 으로
▁원 인과
▁원 기둥
▁소 ,
▁소 현
▁소 론의
▁하 려고
▁모 노
▁모 테
▁모 함
▁있는 ,
)· 심
)· 토
▁신 하가
▁3 품
▁3 00m
▁3 학년(이준용)
▁개 헌
▁개 성부
▁문 중
▁문 장은
▁문 명이
▁문 서에
▁생 강
▁내 성
▁내 전
▁내 면의
▁내 셔널
▁도 내
▁성 상
▁성 당의
▁성 실한
▁영 지
▁영 현이
▁영 광을
▁해 왔다.

▁어 간
▁어 음의
▁통 권
▁통 역
▁마 모
▁장 부
▁남 작
▁남 부와
▁오 류를
▁바 울
▁무 가
▁무 대를
▁무 자비
▁강 렬
▁미 미
▁미 지
▁미 타
▁방 화
▁4 분
▁4 책.
▁4 00m
▁우 즈베
▁반 을
▁반 출
▁반 감을
▁현 손
▁현 을
▁현 명한
▁산 골
▁산 티아
▁많 다는
▁재 치
▁재 정의
▁재 주가
▁〈 한국
▁노 론의
▁형 벌을
▁종 말
▁종 6품
▁단 련
▁양 재
▁대한 체육
▁물 자
▁명 성은
▁명 령으로
▁‘ 마
▁‘ 여
▁‘ 주
▁‘ 해
▁사람 .
▁예 부터
▁안 식
▁안 정한
▁안 드레
▁역 (
▁역 학
▁행 한다.

▁것이 었
▁것이 오
▁것이 다.”
▁변 종
▁파 운
▁사용 했으며,
▁매 주
▁매 화
▁출 병
▁군 을
▁권 리는
▁권 12
▁간 과
▁포 상
▁포 스터
▁북 방의
▁임 종
▁임 기는
▁속 했다.

▁입 상
▁입 이
▁요 가
▁것으로 도
▁약 칭
▁경우 로
▁8 ~9월에
▁외 식
▁목 재는
▁증 빙
▁달 은
▁호 와
▁지역 별
▁농 장에서
▁처 단
▁광 택
▁크 랭크
▁태 생의
▁청 국
▁청 록
▁청 백
▁청 에
▁피 장
▁합 친
▁토 성
▁토 양이
▁김 주
▁20 )에
▁심 (
▁심 층
▁참 배
▁살 롱
▁살 피는
▁15 )에
▁체 신
▁17 세
▁죽 지
▁죽 고,
▁철 근
▁철 로
▁병 든
▁병 렬
▁타 지
▁석 불
▁통해 ,
▁사이 트
▁사이 에서는
▁이루어 지며
▁판 서
▁로 베
▁절 은
▁198 9
▁활동 이나
▁되었 지만
▁196 5년에
▁풍 기
▁194 6년에
▁박 아
▁박 제
▁봉 행
▁영향 도
▁베 아
▁문화 체육
▁경제 활동
▁논 산
▁195 9년에
▁193 8년에
▁193 1년에
▁온 다.

(金 元
(金 時
▁투 신
in es
▁프랑스 에서는
▁제2 9
▁표현 ,
▁표현 에
▁표현 하기
대학교 는
▁발생 하기
▁침 탈
▁날 로부터
▁날 아가
▁위치 하며
▁송 환
▁송 나라의
▁기술 하는
▁준 비가
▁접 할
▁특징 적이다.

▁B ro
en 〉(19
▁계속 적으로
▁육 조
▁육 지와
▁육 체적
▁홍 제
▁힘 찬
▁막 혀
▁자유 무역
)』 에서
▁메 르
▁필요 했다.

▁개발 하기
▁남아 있다.

▁애 리조나
▁결정 하였다.

▁버 금
산( 6
▁민족 문화
▁제작 ,
▁연결 되었다.

▁서로 의
▁페 이스
▁P e
▁관리 들이
▁맡 았으며,
▁그리스 에서
시켰 고
▁빠 지고
▁이야 기와
▁30 개
▁건설 기계
▁자료 들을
▁이해 된다.

▁브 레이
▁인정 되었다.

▁품 질을
▁길이 와
▁대통령 에게
▁러시아 에서
▁않았 는데,
사항 이
▁정신 에
▁갑 옷
▁딸 로
▁헌 법의
▁와 해
지방 자치
▁낙 산
▁규모 이다.

▁제공 할
▁숙 종이
25 0
▁업무 와
▁습 관을
▁인도 ,
▁역임 하였으며,
▁이론 으로
▁d el
▁하였 고
▁드러 냈다.

▁터 미널
▁유래 를
(大 韓
▁놀 랍
▁흑 백
▁흑 갈색
▁제시 하여
▁남북 대
▁거래 에
▁통치 자
▁기계 적
▁첨 예
▁분리 하는
▁때까지 는
▁경험 한
▁산맥 ,
ur n
▁기관 에서
▁시설 과
▁측면 은
▁자동차 ,
▁쌍 극
▁쌍 을
▁근로 자에게
▁공업 의
▁식민 지의
▁하늘 로
▁감소 하였다.

동의 보감
▁소속 으로
▁소속 되었다.

▁척 도
▁얼굴 의
▁2, 4
▁집단 에
▁살아 온
▁사용하는 데,
0년( 공양왕
▁일제 히
▁즉위 하여
)인 데
▁184 3년
업무 와
▁목적 에서
▁니 켈
▁제출 하도록
▁요청 으로
▁알아 차
▁떨어 질
▁평양 에
복지 시설
▁고전 소설
전문 대학으로
79 년(
▁민간 신앙
▁생성 된다.

▁생기 기
▁진출 한
▁워 터
▁바닥 이
▁침입 하여
▁보관 한다.

▁159 7년
▁죽음 과
▁자라 서
▁절대 적으로
▁보급 에
▁냉 전
▁뽑 은
▁화가 들의
▁핵심 은
▁사고 의
▁증거 는
▁어깨 와
▁굽 은
▁굽 이
▁유물 들이
▁흉 년
▁언제 부터
(198 9
▁찍 혀
▁혼합 된
▁창립 된
▁접근 할
▁깔 아
▁들어서 면
▁승진 하였다.

▁번째 는
관찰 사·
▁계절 풍
▁181 2년
▁139 0년(공양왕
청년 동맹
▁들어와 서는
▁호흡 곤
▁호흡 기
▁빠져 나가
▁한자 어
▁방지 하고
▁포기 했다.

▁초상 화는
▁내륙 의
▁창간 했다.

▁덩 이
▁채무 의
▁채무 자가
▁예상 된다.

▁예상 되는
▁웃 음
▁웃 음을
▁140 1년(태종
▁늘어나 면서
▁오스트리아 와
▁유역 에는
▁낮아 진다.

▁모방 하여
▁연꽃 을
▁어긋 나고
▁병합 되었다.

▁공유 하는
▁DNA 의
▁경사 진
기구 인
수준 의
▁서남 쪽
▁거절 했다.

▁투쟁 의
▁낭만 적인
▁첨부 하여
▁제갈 량은
▁선비 들이
▁컬 렉션
▁카이사 르의
▁선고 받고
▁조카 인
▁초과 하는
▁척추 동물
▁일컬 어지는
▁펠 리페
▁콘스탄 티
▁여의 도
▁스케 치
▁태백 산
▁정서 적
▁착공 하여
▁총괄 하는
▁고립 된
▁대다 수
▁갇 혀
▁신생 아
▁불편 한
▁강수 량은
▁마라 톤
보유 자로
▁정체 성을
▁셰익스피 어
▁군데 군데
▁광해 군이
▁보컬 ,
▁이순 신
▁불완 전한
▁한라 산
▁홍문 관의
▁돋보 인다.

▁브리 튼
▁수온 이
▁시나 리오
▁재활 용
▁신랄 한
▁돌아다니 며
▁몸무 게
▁자급 자
▁쓰레 기
▁『고려사 』
▁제117 2
▁각성 촌
바이오 틱
▁올바 르게
▁룩 셈부르크
▁에른 스트
▁미켈 란
슐리 외
▁장의( 掌
▁콥 트
▁일목요 연하게
▁18현(十八 賢)의
' 인
( 아
( 朝鮮
- A
4 km2,
: 19
F .
G .
P S
U n
a is
c k
f l
g el
k a
o e
o ir
s on
v i
· 거
· 납
· 손
· 집
· 회
· 종이
· 시행
▁ ̊
▁ □
▁ 中
▁ 西
▁ 귓
▁ 님
▁ 얄
□ □
元 )의
吉 林
四 端
城 )의
夢 周
大 全
天 王
官 )·
將 )으로
小 學
巖 )
建 置
新 興
橋 梁
正 義
江 ]
法 )·
浮 屠
祖 師
者 )의
自 治
記 )가
論 )에
郡 守
鎭 )의
가 죽
강 연
거 리로
겅 퀴
게 임
계 통의
교 회(
구 균
국 대학교
권 자
권 에서는
균 형을
금 치
기 일
기 (李
길 ,
꾼 들이
난 방
남 면·
내 각
노 조
뉴 얼
다 툼
단 체는
달 은
대 좌
더 의
동 백
동 자
동 면·
두 품
들 까지
들 만이
디 언
땅 콩
레 앙
레 저
레 지
련 은
례 와
루 에서
릉 이
리 나는
몽 (
미 사
박 씨
배 는
버 리고
번 은
보 (李
부 호
부 대의
불 에
브 의
빛 의
사 냥
사 설
상 환
선 문
섭 의
손 실
승 은
시 온
시 간의
썰 기
애 플
어 사(
엄 (
연 지
염 불(
옥 ,
옥 과
원 으로서
위 사
음 음
이 우
이 츠
자 주
자 리의
잡 한
장 교
저 히
전 통
정 당
조 화
족 에게
지 름
직 원의
짐 .
집 중
차 이나
철 한
초 급
총 관
치 료를
코 의
콜 릿
큐 멘
턴 이
티 가
파 에서
판 도
편 에서
피 부
하 에서는
함 수
해 제
해 놓은
향 약
현 감(
홍 색
활 용
▁이 국
▁이 긴
▁이 두
▁이 안
▁이 영
▁1 ]
▁그 치고
▁사 원을
▁사 르트
▁수 매
▁수 업을
▁대 학과
▁지 루
▁지 도가
▁지 었는데,
▁기 금
▁기 른
▁전 권
▁전 소
▁전 류의
▁한 니
▁제 비
▁시 비
▁시 주
▁시 체
▁시 정을
▁정 안
▁정 계에
▁19 ,
▁일 (
▁일 행은
▁2 의
▁주 걱
▁주 심
▁보 기는
▁아 데
▁아 내는
▁아 드리아
▁다 우
▁유 려한
▁위 함
▁조 정은
▁인 노
▁인 문과
▁나 노
▁나 카
▁부 자가
▁부 위의
▁부 산·
▁고 트
▁고 한
▁의 리
▁의 지와
▁공 자는
▁비 방
▁비 참한
▁구 도를
▁상 점
▁원 만
▁원 심
▁원 이
▁소 는
▁소 총
▁소 나무·
▁모 가
)· 충
▁신 식
▁신 부가
▁신 선이
▁신 체에
▁3 D
▁3 60
▁세 밀한
▁생 을
▁내 각을
▁내 분비
▁도 립
▁도 서와
▁성 간
▁성 으로
▁영 역의
▁교 감
▁교 관
▁교 주
▁교 리에
▁교 수,
▁만 민
▁만 으로
▁마 취
▁장 내
▁장 비가
▁바 느
▁무 거
▁강 신
▁미 의
▁선 공
▁없 는데,
▁방 제
▁우 왕
▁후 미
▁실 망
▁실 적은
▁반 입
▁반 발을
▁현 종의
▁현 상에
▁계 측
▁5 종
▁5 개월
▁많 지만
▁〈 로
▁〈 백
▁〈 중
▁결 재를
▁노 조
▁종 아리
▁단 계가
▁양 화
▁진 술을
▁‘ 도
▁[ 경과
▁알 타이
▁알 브레
▁예 와
▁역 대의
▁역 학적
되었 는지
▁각 형
▁화 훼
▁' 공
▁' 예
▁평 산
▁함 유한
▁왕 들이
▁변 의
▁변 하고
▁변 하게
▁초 식
▁적 발
▁적 고,
▁최 상의
▁매 혹
▁권 농
▁권 두
▁권 신
▁권 세가
▁권 력에
▁간 소
▁활 짝
▁포 용
▁포 세이
▁북 대
▁임 계
▁점 성
▁입 고,
▁목 소리가
▁직 제
▁본 인이
▁달 하였다.

▁필 적
▁지역 이었다.

▁데 쳐서
▁농 작물
▁금 오
▁광 무
▁광 희
▁태 종은
▁태 풍의
▁삼 을
▁삼 화
▁청 하는
▁피 드
▁피 부를
▁9 ,000
▁사회 경제
▁토 기를
▁아니 지만,
▁김 문
▁김 부
▁심 하다.

사( 興
▁「 관
▁「 논
▁「 대
▁「 정
▁천 상
▁체 에
▁12 세기에
▁못 했기
▁열 정을
▁작품 에서는
▁일본 인들이
▁많은 데
▁길 림
▁길 흉
▁복 장
▁구성 에
▁치 환
▁면 도
▁병 원에
▁석 장
▁되어 서야
▁199 3
▁판 화
▁생산 하여
▁담 을
▁절 로
▁절 이
▁승 지
▁에 이크
▁196 1년에
▁갖 도록
▁카 지
▁11 ,
▁효 소가
▁효 소는
▁귀 화
▁194 6
▁194 0년대에
▁이르 며,
▁중국 과의
▁환 관
▁환 상적인
▁박 문
▁언 젠
▁봉 급
▁정치 권
▁갈 고
▁갈 색의
▁줄 여서
▁사실 의
▁195 0년대에
▁193 6
▁방법 으로는
in n
▁제2 2
▁제2 6
▁극 적으로
▁얻 었으며,
▁묘 역
▁“ 아
▁인간 적인
▁암 송
▁변화 시키는
▁생각 하면
▁발생 하였다.

▁침 엽수
▁날 의
▁은 제
▁능 을
〉(19 48
〉(19 46
▁준 다는
▁접 경
▁섬 진
▁홍 영
▁지식 인들의
▁코 네티컷
▁혼 례
▁C T
▁좌 정
▁측 면의
▁국제 금융
▁A c
▁않고 도
▁결과 이다.

▁구조 이다.

or ea
▁폭 을
▁폭 의
▁애 완
▁애 착
▁유명 해졌다.

▁민족 을
▁중요 하다고
▁독일 어
▁독일 을
▁잎 에
▁잎 담배
▁산업 화
▁야 근
▁190 8년에
▁190 9년에
대한 민국
▁염 료
▁염 증이
▁M ad
▁M RI
▁루 벤
▁떨 쳤
▁그리스 와
▁널 려
▁이야 기,
▁옥 외
▁운영 하였다.

▁30 )
▁자료 로서
▁벽 화가
▁인정 되어
▁격 자
▁밑 은
▁뉴 펀들랜드
▁사건 ,
▁디 트로이트
▁시간 적
▁조각 과
관계 로
▁월 폴
조선 일보
▁땅 은
▁확인 하고,
▁정신 분석
▁물질 ,
▁나무 나
▁정확 하고
▁키 우
▁와 인
▁와 중에
▁엄 지와
▁제공 해
▁주변 을
▁장식 되었다.

▁테 르
▁뒤에 야
▁농업 용
▁깨 뜨
le x
▁휴 대전
it al
▁활용 해
▁핵 분열
▁마련 하는
▁마련 이다.

▁기타 는
▁착 의
▁개념 과
▁고구려 ·백
▁작용 하고
▁드러 났다.

▁촉 발
▁유래 는
▁분류 하고
▁F M
▁확대 된
▁아이 들
▁적용 을
▁농민 을
▁동쪽 에서
▁개정 된
▁50 m
▁파견 해
▁경영 하는
▁노력 한
~3 5
▁기계 나
▁개편 된
▁처리 하기
▁방송 의
▁자주 적
▁조건 은
▁소재 의
▁소재 지,
▁작가 들은
▁경험 에
▁화학 적으로
▁여성 들이
▁평균 수
▁표시 된
▁표시 하고
조합 의
▁푸 는
▁짓 게
▁휘 트
▁구별 하기
▁주의 해야
▁연합 군의
종( 種
▁전달 할
▁낳 게
▁낳 아
om a
▁개칭 되어
▁제5 대
▁184 2년
▁지지 하고
▁183 8년
1년( 순조
ri b
▁이래 ,
▁3년 제
▁액 체를
▁흙 에
▁광복 과
▁블 록
▁건립 하였다.

▁J our
상태 에서
▁있음 에도
▁준비 방법
▁재정 적인
▁짐 승을
정치 가
▁상품 이
▁갈등 은
▁독특 하고
▁부근 에는
▁뚜렷 하다.

▁선택 한
지대 인
▁않을 까
▁탁 자
인에게 는
▁선정 된
5년( 성종
▁의무 교육
▁권한 은
▁다스 린
▁다스 릴
▁을 해
▁진출 하는
동( 安東
▁전형 적으로
▁저서 인
보험 ,
▁179 9년
▁179 2년
▁보급 되었다.

▁뽑 혔다.

▁화가 들이
▁후손 으로
▁18세기 의
▁내외 로
▁학습 을
▁방문 했다.

▁계곡 과
▁평화 적
지면 적
▁만주 와
▁주인공 인
▁지내 기도
od e
▁선박 을
▁대응 하여
▁값 은
▁굳 어
▁가마 의
▁극복 할
공화 국이
▁관장 하게
▁접촉 하는
방향 의
▁관하여 는
▁탄생 한
▁달러 의
學校 )로
▁궤 도를
▁일으키 자
▁감각 적
▁생애 에
▁확산 되어
▁사유 가
▁상실 하게
▁하이 델베르크
속( 風俗
▁구름 과
▁까닭 을
~10 월에
書院 ),
▁드러나 고
중추 원
▁나폴레옹 은
▁탕 평
▁주지 사
▁준공 하였다.

ab le
▁사직 하고
▁대두 되었다.

大夫 )
▁유용 하게
▁칼리 프
▁건의 한
▁사임 하고
▁그렸 는데,
▁후계 자인
▁벤 저민
▁기다 리고
▁의거 해
▁네트워크 를
▁신뢰 를
ill iam
▁휴대 용
▁옳 지
▁원효 (元曉
oci ation
▁원통 형
주인 수
▁간결 하고
▁움직임 은
▁싸우 다
▁나아 가지
▁가리키 기도
▁튼튼 하게
▁성( 性
▁앞장 섰
▁나뭇 가지
▁東 國
▁어귀 에
▁탓 에
▁문답 한
▁전압 을
ous e
▁안팎 의
▁어지 러
▁기쁨 을
▁어우 러진
▁재편 성
▁모으 고
▁엘리 엇
▁소극 적인
▁명월 관
▁인위 적으로
▁플루 토
▁람 세스
▁조심 스럽게
▁특산 물로
▁툇 마루를
염색 체
▁{ {
▁기숙 사
▁교직 원은
▁좌천 되었다.

▁장신 구
▁카사노바 는
▁무엇일 까?

▁루이지 애나
▁클레멘 스
▁뇌하수 체
▁넓적 다리
▁제163 호로
〉(2 권,
▁시드 니
▁랍 비
▁심오 한
▁맞닿 아
사기(史 記)
5개 년
▁5성(五聖 ),
▁삼단 논
▁미켈란 젤
( 表
) /
- B
6 가
A L
E E
H 2O
I V
Y MCA
[ 東
c es
c ul
r al
s ,
· 설
· 행
· 건축
· 프랑스
▁ ᄂ
▁ 有
▁ 땔
▁ 숱
▁ 쿡
▁ 팩
▁ 에서
事 實
佛 )
公 )의
典 籍
博 士
和 )
坊 里
天 地
帶 )를
序 )」는
政 )의
新 )
族 )
會 )에
柱 )를
正 字
水 軍
烽 燧
而 不
臣 )의
萬 戶
贊 成
輿 地
道 )에
邑 誌
部 )의
鄭 夢周
閣 )
院 )을
가 마
개 방
개 비
객 들이
것 은
겨 운
공 사로
공 주(
공 장과
과 정이
관 이나
광 ,
교 수가
교 리·
구 락
구 성은
군 ·
군 관
굿 은
규 는
규 정이
기 생
기 구는
기 름을
까 치
꾼 의
끄 러운
난 한
남 자
놀 이가
는 다는
대 고
대 제
대 비의
도 나
도 에는
동 

되 기를
둥 근
득 (
등 성이
라 코
라 기보다는
랑 이에
러 리
로 동
마 일
막 과
맷 돌
미 군
바 와
박 은
박 자
발 굴
밭 에서
법 사
법 사(
법 원에
베 이터
병 원,
보 르
봉 안
부 서
부 인이
분 지
사 당
상 실
석 (李
설 에는
성 이라고
세 요.

순 절
슈 누
슈 는
스 에게
슬 라
시 모
시 리즈
신 분
안 에는
연 속
연 대가
왔 을
요 양
울 한
원 숭
웨 스트
위 성
음 료
일 지는
적 벽
적 이었던
절 요
젊 은
점 인
정 밀
정 (金
정 벌레
좋 은
주 름이
지 이며
집 단이
차 량
창 고
청 문
총 무
총 서
총 연맹
콜 로
클 러
테 로
테 를
토 목
토 리오
페 이지
편 한
하 곤
하 도
하 느님
함 .

해 에서
회 원으로
훈 과
훈 장을
히 면
▁이 명
▁이 소
▁이 조
▁이 사,
▁있 더라도
▁1 %
▁1 위
▁1 .1
▁그 에게는
▁사 군
▁대 적
▁대 개의
▁대 량의
▁지 팡
▁가 급
▁가 선
▁가 리는
▁가 문과
▁기 괴
▁기 마
▁기 단의
▁기 묘한
▁전 보
▁전 함
▁전 하를
▁한 대(
▁제 사지
▁시 급
▁시 모
▁시 에서는
▁정 미
▁정 찰
▁정 점으로
▁19 개
▁자 오
▁일 하게
▁일 들을
▁일 자와
▁중 부와
▁중 일전쟁
▁2 

▁주 면
▁주 산
▁주 식으로
▁주 채무
▁보 필
▁보 상이
▁아 조
▁아 그리
▁아 돌프
▁경 사(
▁다 리에
▁유 황
▁유 무를
▁위 구르
▁관 능
▁관 립
▁관 우
▁인 척
▁나 며
▁나 며,
▁부 기
▁부 러
▁부 용
▁부 제
▁고 가
▁고 이
▁고 사를
▁고 원의
▁고 양이
▁의 원을
▁공 물을
▁동 창
▁서 두
▁서 경(
▁비 공식
▁소 책
▁소 탕
▁하 얗
▁하 거나,
▁모 욕
▁연 례
▁발 각되어
)· 계
)· 좌
)· 치
)· 해
)· 환
)· 기(
▁신 격
▁신 디
▁신 부의
▁신 화와
▁신 주인수
▁개 성이
▁세 척
▁세 자를
▁문 (
▁문 단
▁생 물을
▁여 타
▁여 건이
▁내 화
▁내 리게
▁내 놓은
▁성 기
▁성 에서
▁성 문을
▁교 장이
▁교 역을
▁만 호
▁통 견
▁통 하지
▁통 견(
▁마 다가스카
▁장 으로
▁장 수를
▁않 겠
▁않 던
▁남 용
▁남 부는
▁오 게
▁오 줌
▁오 페
▁바 뀔
▁바 는
▁바 우
▁바 치고
▁무 료로
▁미 들
▁거 기
▁거 둘
▁거 장
▁거 리에서
▁선 배
▁선 상
▁방 콕
▁불 멸
▁분 립
▁4 

▁4 단
▁우 산
▁말 년
▁말 하였다.

▁실 종
▁실 태
▁반 감
▁반 동
▁계 책을
▁5 명
▁5 000
▁재 화를
▁노 는
▁형 산
▁형 제의
▁형 제와
0년 부터
▁종 이의
▁종 이에
▁설 화는
▁당 국은
▁양 서
▁진 골
▁진 핵
까지 로
▁물 기가
▁명 단
▁‘ 반
▁‘ 안
▁‘ 우리
▁두 었던
▁알 은
▁알 렸다.

▁예 쁜
▁안 개
▁안 보
▁안 평
▁안 드로
▁안 동(安東
▁6 ~8
▁함 안
▁왕 에
▁사용 에
▁사용 되었고,
▁차 는
▁매 번
▁표 범
▁표 창
▁권 선
▁권 15
▁등이 고,
▁과 태
▁포 획
▁민 무늬토기
▁북 두
▁북 송
▁북 부는
▁법 ,
▁때문 이
▁때문 이라는
▁속 칭
▁속 하지
▁속 성은
▁입 자의
▁감 가
▁감 성
▁학 과가
▁근 대에
▁증 권을
▁저 고
▁농 구
▁새 기고
▁처 지를
▁처 분을
▁광 덕
▁광 경을
▁크 다고
▁삼 국의
▁삼 도(三
(19 4
▁돌 궐
▁아니 기
▁심 신
▁참 회
▁살 린
▁「 무
▁「 인
▁시작 될
▁우리 말로
▁규 방
▁열 두
▁작품 들이다.

▁백 암
▁일본 군과
4년 의
▁『 성
▁용 강
▁용 을
▁구성 할
▁죽 어서
▁하나 이며,
▁치 르는
▁항 구를
▁항 산화
▁면 내를
▁병 은
▁한국 지리(
▁황 실
▁사이 는
▁( 민법
▁제1 10
▁제1 호,
▁로 코
▁생산 하기
▁생산 량은
▁순 상
▁승 선
▁196 6년에
▁교육 인적자원
▁이상 에서
▁언 더
▁봉 헌
▁베 다
▁서울 ∼
▁192 9
▁논 하였다.

▁193 6년에
(李 穡
▁잡 게
▁투 르게
▁동안 ,
▁의미 에
▁제2 8
▁자연 사
▁업 고
▁누 정의
▁날 은
▁좋 다고
〉(19 35
▁만들 거나
▁준 용
▁섬 들이
▁육 식
▁역사 적·
▁< 유
▁< 이
▁노동 자들은
▁프로 바이오틱
▁친 위
▁막 았다.

▁코 ,
▁시행 했다.

▁머 무는
ti ve
▁평가 는
▁붙 어서
▁빈 도가
▁가능 하며,
▁그림 들은
▁악 화되어
▁국민 훈장
▁궁 녀
▁윤 선
▁넘 은
▁역할 에
▁M o
주( 鄭夢周
▁깊 다.

▁증가 한
▁증가 함에
▁운영 은
▁건설 과
▁건설 의
▁상태 는
▁차지 하여
▁브 란
▁189 6년에
▁떠 나는
▁국내 로
▁벽 화를
▁마을 인
▁품 의
▁격 식을
생활 이
▁커 지는
계획 서는
계획 표,
▁잠 정
관계 에서
▁대통령 과
▁대통령 표
▁발표 해
▁확인 한
▁학교 와
▁소설 에서
▁분야 에서는
▁대신 할
▁겸 한
▁겸 비한
▁오늘날 과
▁오늘날 에
위원회 ,
▁덕 에
▁달리 하는
▁흥 행
▁퇴 계
▁휴 머니즘
re t
▁현실 이
▁R es
▁띠 며,
▁겨 냥
▁명칭 도
▁G u
▁결합 해
▁작용 은
▁드러 내기
▁태양 과
▁받았 지만
▁거래 되는
▁소유 자
▁개정 하여
▁제4 차
▁통치 하는
▁노력 의
▁흰 색이고
▁바람 과
▁바람 은
▁서쪽 과
▁밤 의
▁점에서 ,
▁22 )에
▁다루 면서
▁부여 하고
▁옷 은
▁자동차 관리법
▁쌀 의
▁해석 한
▁곤 궁
▁퍼 진
미술 의
▁식민 지로
▁식민 지가
▁읽 으면
▁꾸 려
▁푸 아
▁구별 하는
보고 서

▁상업 의
▁2, 3
▁살아 갈
▁임금 과
▁27 0
▁안전 보
▁위해서 이다.

업무 에
▁겨울 이
▁신앙 은
▁183 5년
▁제거 할
방송 국
▁부산 에서
▁가격 에
▁유일 의
▁행사 했다.

▁신청 할
은행 ,
▁있음 은
▁재정 비
2년( 고종
▁사무 총
▁결성 하였다.

▁높아 진다.

▁재료 의
▁s p
▁저술 하였다.

사람 이
ter s
▁경우에 만
▁중심지 이며,
▁농촌 에서
▁슈 트라
▁옹 진
▁회의 에
▁공사 명,
▁생기 기도
▁불리 며,
▁유행 했던
▁통과 할
▁전형 적
·가 죽
▁하천 을
9년( 고종
▁합격 하고
▁일상 생활에
▁냉 장
▁왕실 과
▁컴퓨터 의
▁명시 하고
▁선언 하고
▁발간 하였다.

▁영양 분을
마을 의
▁가슴 이
▁굽 타
▁굽 다리
▁봉안 하고
▁제7 회
▁주택 을
▁백성 들은
▁대성 당의
▁사찰 을
▁182 6년
▁행위 와
▁1980년 에는
▁짜 는
▁학술 원
▁충돌 이
▁물러 난
▁굳 건
▁f rom
▁공통 적인
33 년(
시험 을
▁남동 부
▁위협 하는
▁139 2년
▁기생 충
▁2009년 에는
▁서정 적인
ha 로
▁적합 하다.

▁화합 물의
▁합류 했다.

▁어디 로
기준 을
▁방언 을
▁식품 가공
·오 스트레일리아
▁참석 하여
▁두루 마
▁편리 하게
실록 』
▁밭 농
▁공정 하게
▁소작 료
▁쇠퇴 하기
▁전공 한
▁회계 장
▁방출 하는
▁하느님 이
비로 자나
▁두께 로
진흥 왕
장애 인
주식회 사로
▁중추 신경
▁아메리카 의
▁합리 적으로
▁도달 하는
▁동작 으로
▁줄어 든다.

▁멋 은
▁성리 학을
▁분비 되는
▁몬 트리올
▁바닷 가
▁솜 씨를
▁물려 받은
상황 에
▁고통 과
ov er
▁곁 들
▁세련 되고
▁판결 에
▁불러일으 켰
▁개체 군
▁교향 악
▁피고 인의
ber t
▁의심 할
▁국한 되어
▁복구 되었다.

▁피렌 체의
▁걷 는
▁헝가 리의
▁급진 적
▁아침 에
▁남아메리카 의
▁델 라
▁이자 겸
▁불규칙 하게
▁중종 반
▁이관 되었다.

▁직원 들의
▁구덩 이
▁모르 겠
▁포유 류
)·고 적(古蹟
스파 시아
▁타협 을
▁중립 을
▁사간 원정
▁일방 적인
▁드물게 는
▁바그 너
▁힘들 다.

▁방정 식
▁마케도 니아의
▁지녔 던
▁과장 된
▁손꼽 힌다.

▁섬세 하게
2가 ・
▁다투 어
▁비평가 들은
▁웨스트 민스터
▁정약 용(丁若鏞
▁모으 는
·복 숭아
▁행정동 제가
▁떠올 랐다.

문답 (
▁청량 리
▁어긋나 며
▁대한민국임시 정부
요청 서
▁인왕 산
▁세미 나
▁프랑크 푸르트
▁느꼈 다.

▁끌어들 여
▁계룡 산
▁노르웨 이의
▁불합 리한
▁이이(李珥 )의
▁한(漢 )나라
▁알아보 자.

혁( 建置
루시 초
▁<아 스테릭스
.)」( 《
▁위( 魏
▁스톡 홀
▁콜럼 버
▁아나톨 리아
치연 혁(建置
▁논( 論)
생산( G
▁장의(掌 議)
이우 평)
▁인노 켄
▁통견( 通肩
▁한국지리( 이우평)
치연혁(建置 沿革
( t
( 知
( 대
/ 2
0 x
8 .
8 ~1
8 km2,
H 2
I MF
R O
g o
m p
r um
s p
u ra
y r
~ 익
· 갈
· 왕
· 탄
· 인도
∼ 200
∼ 30
▁ 乃
▁ 子
▁ 벡
▁ 섰
▁ 옌
▁ 챙
▁ 쿤
▁ 핫
▁ 헝
七 情
侍 郎
圖 ),
地 理
川 )의
川 )과
志 )
敎 )의
日 報
書 館
樂 府
民 )의
碑 )가
社 )
節 目
義 湘
號 )를
觀 音
가 니
가 들을
겐 의
고 지
골 로
구 덩
구 슬
국 어의
군 단
굿 의
궤 (
글 라
다 섯
단 계에
당 할
도 들이
됨 이
람 (
래 (
률 과
리 더
립 이
마 켓
만 여
모 꼴
목 사로
미 [
바 깥
바 논
백 (李
베 스
벽 돌
별 의
보 내
보 며
부 도(
북 동
북 부
분 자
브 고로
비 료
비 상
쁘 게
산 술
살 (
살 ,
삼 (
삼 사
상 량
생 산을
선 종
세 자
소 음
쇠 를
쇼 핑
수 나
숙 의
스 나
승 지를
시 도
시 하는
신 장
아 /
악 에
앉 아
았 지만
액 에서
야 ,
양 성에
양 식은
어 족
엄 한
연 성이
연 대를
영 )
오 ,
오 에
왔 다는
왕 에게
왕 십리
외 로
요 .”
움 은
원 이다.

유 학생
음 ),
읍 에서
이 후
익 은
임 용
잡 기
장 치의
적 응
정 계
정 권은
제 5
제 사
제 이다.

조 류
존 의
좌 (李
주 부(
지 리·
쯤 에
출 (
출 납
커 의
크 에서
키 우스
탑 의
폐 지
표 지
하 구
하 느냐에
해 갔다.

형 식의
호 (李
화 강
화 학·
회 전
▁이 음
▁이 응
▁있 듯이,
▁1 을
▁1 위를
▁1 가지
▁1 단의
▁1 세를
▁사 옹
▁사 정에
▁사 정이
▁사 소한
▁수 교
▁수 식
▁수 산화
▁대 롱
▁지 대가
▁가 며
▁가 하여
▁가 스를
▁가 설을
▁것 에는
▁기 년
▁기 적
▁기 른다.

▁전 날
▁전 범
▁한 민족
▁제 를
▁제 물을
▁제 50
▁시 선
▁시 전
▁시 키
▁시 장으로
▁정 관
▁정 여
▁정 의의
▁정 권에
▁자 람
▁자 성
▁중 견
▁2 권의
▁2 시간
▁2 ·3
▁주 면서
▁주 기를
▁아 테
▁경 마
▁경 종
▁경 지는
▁경 주(
▁다 대
▁다 수를
▁유 물의
▁유 교를
▁유 프라테스
▁위 쪽으로
▁관 원으로
▁관 원은
▁관 향으로
▁인 두
▁인 제
▁인 테
▁인 조가
▁인 력의
▁부 와
▁고 갯
▁고 관
▁고 달
▁고 로
▁고 착
▁고 칠
▁의 지의
▁의 례를
▁공 납
▁공 수
▁동 족
▁서 상
▁서 원을
▁서 사적
▁비 장
▁구 산
▁상 으로
▁원 작
▁소 리에
▁소 정의
▁소 크라테
▁하 원
▁하 중
▁하 향
▁하 에서
▁모 바일
▁연 좌
▁연 강수량은
▁발 문
)· 각
)· 개
)· 묘
)· 옥
)· 육
▁신 당
▁신 동
▁신 촌
▁3 20
▁세 자의
▁세 대가
▁세 브란
▁문 교부
▁생 원이
▁국 도와
▁여 자와
▁도 로,
▁도 저히
▁영 일
▁영 업을
▁해 양의
▁해 바라
▁교 목
▁어 허
▁통 사
▁남 과
▁남 인이
▁오 귀
▁바 디
▁바 투
▁무 리로
▁무 당이
▁무 제한
▁강 계
▁강 홍
▁거 점으로
▁선 은
▁선 후
▁방 침을
▁불 만이
▁분 과
▁4 ~8
▁반 쯤
▁5 %
▁5 억
▁같 게
(1 39
▁재 상이
▁〈 관
▁〈 예
▁〈 조
▁노 바
▁단 적으로
▁단 종의
▁단 어는
▁양 질의
▁진 남
▁진 단이
▁명 단을
▁예 조참판
▁역 동
▁행 성을
▁행 사로
학교 수가
▁화 덕
▁화 재가
▁' 그
▁' 라
▁' 만
▁것이 었고,
▁왕 희
▁왕 권이
▁변 방
▁초 전도
▁사용 하며
▁간 첩
▁활 쏘
▁활 엽
▁활 력을
▁활 약을
▁과 학과
▁독 과
▁독 려
▁스 쿨
▁포 토
▁북 간
▁북 벌
▁속 옷
▁속 현으로
▁점 수
▁입 게
▁입 안
▁입 혔다.

▁요 오
▁요 소의
▁7 .5
주의 자들이
▁근 세
▁회 양
▁목 조건
▁직 선으로
▁증 조
▁저 서에
▁더 럽
▁필 름
▁필 두로
▁지역 에서도
▁확 인을
▁10 ~20
▁태 도에
▁삼 일
▁청 화
▁사회 개혁
▁사회 (이
▁높 임
▁높 이를
▁토 를
▁토 리노
▁아니 다.
▁김 좌
▁심 부
▁살 림
▁「 만
▁「 삼
▁「 소
▁「 전
▁체 제에
▁시작 하였고,
▁시작 되었고,
▁시작 했으며
▁못 하자
▁『 사
▁17 00년
▁식 욕
▁복 고
▁총 대주교
▁채 소를
▁치 아
▁치 적을
▁철 의
▁석 재로
▁황 후의
▁모두 에
▁( 2
▁( 주)
▁이용 이
▁이용 하기도
▁책 머리에
▁생산 성을
▁담 양
▁절 지
▁절 정을
▁198 5년에
▁에 크
▁풍 류를
▁귀 걸
▁귀 금속
▁이상 )
▁박 씨
▁봉 해진
▁향 교의
▁드 릴
▁베 스파시아
▁걸 작으로
▁13 ,
▁발전 기
(李 德
▁잡 지를
▁잡 는다.

▁허 브
▁의미 했다.

▁이어 받은
▁≪ 성
▁≪ 무량수경
▁글 루
▁글 자는
▁“ 내가
▁표현 된다.

▁리 치
▁누 르고
▁누 리게
▁날 려
▁형성 하여
▁능 인
〉(19 49
▁만들 었고,
▁기술 ,
▁발견 하였다.

▁B ar
▁역사 소설
▁친 한
▁탄 수화
▁자유 롭고
▁코 메
▁모양 이나
)』 과
▁메 밀
▁개발 되고
▁남아 있
▁구조 물
▁구조 적으로
▁빈 혈
or ia
▁애 기
▁문학 상을
▁국민 장이
▁산업 자원
▁야 당
▁야 훼
▁야 마토
▁얼 음이
레이 트
▁색 다른
▁유지 해
▁M ag
사업 법
▁페 트로
▁P rin
시켰 다고
▁깊 이는
▁증가 하게
문( 祭
▁운영 되었다.

▁30 ∼
▁건설 ,
▁제3 1
▁제3 7
▁인정 받
▁품 계를
▁요구 한
▁커 지면서
계획 서

▁조각 가
▁지정 되었고,
▁계획 하고
▁9월 부터
▁법률 로
▁법률 은
▁먼 지,
▁제조 하는
▁키 우는
▁혈 관을
▁레 슬링
▁기재 한다.

▁결국 에는
▁예술 은
▁장식 했다.

▁테 마
▁테 이프
▁덕 천
▁성공 회
▁1. 3
▁100 %
▁습 관
▁공포 는
▁기초 하여
it ed
▁발행 되었다.

▁착 한
▁공격 한
▁해안 과
▁전기 적
▁이탈리아 에
▁이탈리아 와
▁주민 들에게
▁전해 졌다.

▁다르 고
▁다르 지
▁익 으면
▁익 숙한
▁영화 감독
▁분류 한다.

▁고대 부터
▁확대 하여
▁아이 들의
▁비판 의
▁통합 되면서
▁성장 하는
전쟁 이
▁남북 조
▁거래 의
▁벼 랑
▁편집 했다.

▁묘사 되었다.

▁자본 이
▁술 잔
▁스페 인은
▁뒷 지느러미
▁흰 색이다.

▁전자 상
▁23 0
▁40 만
▁굴 욕
▁탑 재
노동 을
▁산맥 [
▁기관 인
▁다루 어
▁가로 로
▁성립 하는
▁토지 조사
▁토지 이용
▁원칙 은
▁근로 자를
▁19세기 에는
▁배치 하고
▁수용 하여
°C 로
°C 이며,
▁없었 으므로
▁이르러 서
▁수상 한
▁감소 하여
기업 이
▁콘 월
6년( 선조
▁억 지로
▁전반 을
▁상업 적인
▁옆 에서
4년( 선조
▁배경 ]
▁27 )
▁대륙 에서
0년( 태조
▁제5 회
.0 9
▁묻 혔다.

▁184 5년
▁제6 회
▁겨울 철에
가( 家
▁혁명 에
▁연안 에서
▁참고 가
▁공산 당의
▁기여 하는
8년( 선조
▁벼슬 아
▁갈등 과
▁갈등 의
▁소개 되어
▁설정 하는
7년( 선조
▁위원 장을
▁확립 하는
지대 에서는
▁기울 이고
▁재직 중
▁항목 이
ter p
▁어렵 기
▁무렵 ,
▁무렵 의
▁효율 적
▁꼬 리지느러미
▁생명 과
제품 과
▁가을 에는
9년( 선조
9년( 예종
▁바닥 에는
▁의료 기관
▁부록 의
▁출발 하는
▁벗어나 기
·중 국·
▁선언 을
▁단체 교섭
▁계곡 에서
▁제9 6
▁70 %
▁웨 이
▁판단 하여
▁소득 이
▁대비 되는
씨( 姓氏
▁것인 가를
▁숲 에서
▁헨 리는
▁느끼 지
▁정교 하고
▁깔 때
▁보건 소
스티 벌
▁겉 으로
▁바라 본
▁질환 의
리우스 가
확인 서

생물 학
▁오염 된
▁축조 한
▁개별 적
▁알렉산 드
▁공장 들이
▁수필 의
▁배열 된
▁덩 어리
▁팀 을
▁이기 지
▁밭 을
▁요소 들이
▁집안 에
▁행정구역 은
▁홈 을
▁158 9년
▁성직 자가
▁내세 웠다.

▁162 4년(인조
ers on
▁구름 의
분야 에서
▁발원 하는
▁물건 이
▁두께 가
▁헬 싱
주식회 사(
량( 橋梁
언( 堤堰
▁멸망 한
▁협력 하여
▁똑 같
물( 人物
▁집권 한
▁나이 애가
▁공유 결합
▁타원형 이다.

▁3·1 운동이
공립 보통학교
▁구부 러
▁받침 이
▁규범 을
▁농산 물의
▁사헌 부의
▁곁 에
▁옥개 석의
▁들여 다
▁옹호 하는
▁불러일으 키
▁전념 하였다.

▁식용 한다.

▁야생 동물
▁총리 령
▁꽃잎 이
▁붙잡 혔다.

▁속담 은
▁부조 리
▁해설 한
▁홍문관 부
▁베이징 [北京
▁아시 안
▁가르침 에
룡( 柳
방정 식
▁연희 전문학교
▁가루 로
▁소( 小)
▁리얼리즘 의
▁영산 강
부승 지·
▁광배 (
▁원로 원
스파 냐
로드 라마
▁밀집 되어
▁알레 르
▁발탁 되었다.

맞춤 법
묘지 명·
▁손꼽 히는
▁갱 신
▁불평 등
▁랭 커
▁것일 까?

▁홑 처마
▁돋보 이는
다’ 고
▁인위 적인
▁연평균기온 은
라리 넷
▁노스 캐롤라이나
▁쿠데타 를
▁병마 절도
▁펀 드
▁본떠 서
▁밋밋 하다.

▁성가 대
▁블라디 미르
▁루스벨 트
▁부풀 어
▁베스트 셀
▁조선노동 당
▁비( 非
▁버무 려
府院 君)에
▁을사조약 이
密直 司
▁바쿠 후
▁자코 뱅
)·풍 속(風俗
▁근래 에는
▁엄지 손가락
▁사과· 배
▁미하 일
典校 )
▁산스크 리트
▁Ass ociation
(李适 )의
▁무릅 쓰고
▁전교( 典校)
▁개발제한 구역
방(성 외
▁한대( 漢
▁사회(이 영민)
) 들을
- n
- 아
2 ).
E T
S oci
h ar
m 나
r it
· 뉴
· 심
· 표
· 산업
· 행정
▁ ᄆ
▁ 人
▁ 水
▁ 白
▁ 갠
▁ 랩
▁ 빻
▁ 뿜
▁ 쐐
▁ 젠
▁ 줍
▁ 췌
▁ 펑
▁ 핍
乎 .
儀 軌
君 子
問 目
善 )
地 )
安 )
宮 )
寺 )와
山 :
山 )이
平 ).
形 勝
文 庫
本 )으로
樓 亭
武 )
理 )를
矣 .
積 石
菩 提
語 錄
論 )이
身 光
進 貢
道 場
部 )에
部 )를
閣 )을
驛 院
高 等
齋 )
거 리에
검 을
경 까지
경 제가
곡 사
곤 (
공 에
공 학·
광 업
교 황
국 화
군 수로
굴 (
궁 으로
귀 는
규 정을
그 늘
그 리고
께 서는
노 파
농 가
다 나
다 양성
닫 이
담 에
도 라
도 지
둔 다.

등 분
디 ,
뛰 기·
라 /
락 ,
럴 럴
레 노
록 의
마 늘
막 에서
만 호
매 화
맵 시
면 .
면 체
명 부
명 에서
명 령을
몽 골
무 대
무 와
문 명의
뮤 직
민 으로
발 에
밭 에
백 만
백 에
법 원이
법 연화
벽 화
벽 으로
부 문의
사 

산 유
살 바
삼 성
상 (李
선 ·
설 턴
소 리와
송 정
스 위
승 ,
시 다
쓰 는
약 정
언 은
엔 트
연 간(
열 전(
온 천
와 (
우 면서도
욱 (
원 장
유 로
유 출
육 을
이 상의
인 지는
일 상
일 (李
자 극
작 성
작 이다.

장 소
장 비를
정 직
제 문
제 문·
조 도
족 들이
족 들은
증 산
집 마다
째 로
참 (
척 사
척 수
천 사
천 왕
총 회의
치 마
친 화
침 으로
크 트
키 (
타 ,
타 를
타 우
탄 올
탈 의
파 니
파 시
팔 경
평 은
폭 의
피 아의
하 듯이
해 졌고,
협 동
호 )와
화 시켰다.

확 장
▁이 사를
▁이 조판서에
에서 처럼
▁사 구
▁사 선
▁사 의
▁사 적을
▁수 태
▁대 광
▁대 양
▁대 상과
▁대 안을
▁지 녀
▁지 략
▁가 우
▁가 사가
▁가 사로
▁등 으로,
▁것 들도
▁기 니
▁기 미
▁기 대를
▁기 법과
▁전 단
▁전 지를
▁전 기(
▁한 복
▁제 방
▁시 문에
▁정 국
▁정 혜
▁자 칫
▁일 진
▁일 행이
▁중 생의
▁2 7년
▁주 당
▁주 체는
▁보 들레
▁경 멸
▁다 윗
▁다 이어
▁유 약
▁유 적을
▁관 은
▁조 상을
▁조 치에
▁인 조의
▁나 바
▁나 이를
▁부 작용을
▁부 득이
▁공 자
▁동 부를
▁서 문,
▁비 영
▁비 용으로
▁구 어
▁구 역의
▁상 비
▁원 격
▁원 반
▁원 이다.

▁원 수를
▁원 숭이
▁소 견
▁소 박
▁소 셜
▁하 북
▁모 면
▁있는 가?

▁연 두
▁연 천
▁연 기가
▁연 회를
▁연 료를
▁연 락을
▁발 매
▁발 문은
)· 건
)· 아
▁3 m
▁3 /4
▁개 진
▁세 밀하게
▁문 장으로
▁국 을
▁국 방의
▁내 란
▁내 밀
▁도 총
▁도 드라
▁성 냥
▁교 류의
▁작 자가
▁따 를
▁마 녀
▁장 은
▁않 다가
▁남 자와
▁오 징
▁바 르고
▁무 능
▁무 수한
▁강 가
▁강 성
▁미 시간
▁특 파
▁불 화의
▁분 자를
▁4 부
▁우 주(
에게 로
▁말 라고
▁실 감
▁실 상
▁반 음
▁계 통을
▁5 량
▁같 지만
▁〈 목
▁〈 선
▁노 선이
▁종 주
▁설 화를
▁설 화의
▁당 이
▁단 열
▁단 정한
▁단 체로
▁양 구
▁양 보
▁양 상
▁양 자로
▁물 속에
▁‘ 자
▁‘ 장
▁두 레
▁[ 환경
▁[ 특징
▁알 베르
▁예 수가
학교 수로
▁화 가의
▁함 대를
▁것이 어야
▁왕 비는
▁파 장
▁파 트
▁적 자
▁최 적의
▁차 (
▁차 세대
▁매 킨
▁표 트
▁표 지에는
▁군 복
▁군 주를
▁추 사
▁권 14
▁권 력은
▁활 엽수
▁스 리랑
▁북 부에서
▁때문 일
▁속 현이
▁점 거
▁점 각이
▁입 단
▁입 혀
▁입 구를
▁요 사
▁감 내
▁감 람
▁감 싼
▁학 업을
▁약 물을
▁경우 (
▁목 회
▁증 감
▁본 부는
▁농 장을
▁처 방
▁태 아의
▁삼 남
▁청 춘
▁피 진
▁피 우스
▁높 지
▁돌 린
▁합 의가
▁토 론을
▁김 만
▁김 복
▁음 식의
사( 金
▁참 새
▁살 균
▁천 체의
▁체 득
▁못 하며,
▁못 했으며,
▁못 했고
▁못 했지만,
▁규 약
▁16 년
▁『 서
▁『 화엄경
▁17 25
8년 의
▁의해 ,
▁용 의
▁용 액의
▁채 석
▁중심 인
▁연구 도
▁충 원
▁충 전
▁석 곽
▁황 제와
▁이용 될
▁이용 을
▁책 무를
▁쓰 나
▁로 즈
▁14 세의
▁14 13년(
▁197 8년에
▁절 경을
▁순 번,
▁완 비
▁승 용
▁승 차
▁카 노
▁현재 도
▁취 락
▁효 성이
▁효 종의
▁박 순
▁봉 림
▁향 사
▁끝 과
▁끝 부분에
▁갈 아서
▁경제 기획
▁문제 도
km 이며,
▁논 술
▁사실 들을
)와 의
▁193 0년에
▁193 9년에
▁볼 리비아
▁동안 이나
▁설치 되면서
▁검 사의
▁글 로,
▁들 러
▁들 에서
▁행정 에
▁질 서의
▁묘 가
▁묘 비
▁묘 소
▁중앙 은
▁중앙 집행
▁도시 에서는
▁도시 국가
▁암 갈색
▁191 1년에
▁만들어 낸다.

이었 다

)에서 부터
▁포함 해서
▁리 슐리외
▁침 착
▁누 르
▁축 을
▁은 (
▁은 신
)’ 이다.

▁능 숙하게
▁둘 렀다.

▁계속 된다.

▁꽃 피
▁< 구
▁노동 관계
기관 으로서
▁자유 분
▁시행 령
▁C or
▁머 슴
▁국제 연맹
▁난 민
he l
▁밝 힐
▁아래 서
연구 ,
연구 와
▁존재 에
▁버 림
▁버 티
▁넓 이
▁민족 과
▁아버 지로부터
▁모습 

▁벌 목
▁190 5년에
▁운동 ,
▁염 려가
▁염 기성
▁염 화나트륨
▁M em
▁루 시
▁P er
▁관리 로
▁흐 를
▁흐 루시초
▁기본 권
원( 崔
원( 驛院
▁우리나라 에서도
▁30 %
▁브 뢰
▁189 5년에
▁떠 돌아
▁제3 6
▁종류 도
▁보고 한
▁지배 가
▁구분 은
자( 孔
▁녹 색의
관리 와
▁격 차가
▁격 렬하게
▁건축 은
▁나누 고,
계획 은
▁이유 에서
▁개인 은
▁물질 이다.

기술 과
▁응 고
ic s
▁소설 이다.

▁제조 ,
▁옮 길
▁헌 법이
▁와 카
▁레 온
▁레 인
▁에너 지,
▁낙 관
▁풀 과
▁방향 에서
▁찾아 와
25 년(
▁덕 산
▁국립 공원
▁제품 이나
▁싸 운
▁미술 품
▁역임 하면서
▁역임 하였고,
화가 인
▁출신 이다.

▁경향 에
▁공격 으로
▁점차 적으로
▁이탈리아 로
▁G ra
▁클 린
도시 계획
▁조사 나
▁조사 해
▁분류 하여
▁성장 하였다.

▁잔 여
▁잔 치
ra d
▁흑 사
▁부르 는데,
▁부족 하여
▁편집 국
▁편집 ·간행
▁결혼 은
▁재배 되며,
▁파견 하였다.

▁제4 9
▁대중 을
15 년에
▁노력 에
▁추진 한
▁추진 할
·사 헌
▁납 세
▁스스로 가
▁굴 착
▁처리 해야
선( 崔
▁씨 름
▁약간 씩
▁서비스 가
▁효과 에
▁부여 의
▁부여 했다.

▁캐 나
▁캐 리
미술 관(
미술 전람
이어 는
▁짓 는다.

▁휘 하에
▁공연 했다.

▁기후 에
▁억 누
▁소련 에서
▁안정 과
▁전달 되는
▁해외 에
▁해외 에서
▁배경 에
▁분명 하고
▁수립 한
▁사망 하였다.

▁개칭 했다.

▁털 을
▁안전 관리
▁괴 테는
▁184 4년
▁184 9년
▁183 6년
1년( 세종
ri e
▁설계 했다.

▁이익 의
▁혁명 과
▁혁명 적인
▁액 슬
조판 서로
▁2년 제
▁제출 해야
▁정상 적으로
▁여겨 지고
은행 과
am e
정치 에
▁빨 치
▁2개 로
▁끊 고
▁소개 했다.

전문 학교로
▁높아 지는
▁재판 의
7년( 정조
▁위원 회의
▁대립 되는
고( 倉庫
▁저술 을
▁의식 적으로
▁유대 관계를
▁달라 붙
▁떠나 지
▁맹 자의
▁필사 본으로
▁통과 시켰다.

▁다스 린다.

▁율 곡
▁생명 체가
▁수요 와
▁제국 과
▁남서 부에
▁회사 에서는
▁화가 들은
▁실천 에
▁승려 의
▁재위 기간
▁180 3년
▁고분 군
▁고분 군은
▁발간 했다.

▁자치 권을
▁계급 에
▁계급 은
▁방식 대로
▁왔 는데,
▁수집 한
▁봉안 하였다.

▁제7 호에
▁한반 도에서
▁항공 법
▁쪽 을
▁양반 의
▁교환 하는
▁동남 쪽
▁의해서 만
▁조합 을
▁스타 니
▁평야 의
▁이집트 와
▁기온 의
▁합의 에
▁합의 한
▁이념 적
▁제10 6
▁개화 기
▁181 7년
(鄭 澈
▁관장 하였다.

▁빼앗 겼다.

ha ,
▁베네 치아의
확인 서는
▁남녀 가
▁화폐 를
▁가야 금
▁어디 서나
▁주관 적
▁인천 광역시
▁동원 해
▁대체 적으로
▁석유 화학
▁팀 은
▁던 진
▁예방 하기
▁도모 하고
▁일으키 기도
▁카를 로스
▁생애 와
분야 의
▁국왕 과
▁St ud
▁명령 했다.

▁바르 샤바
▁탄압 으로
국제 공항
바닥 에
▁똑 바로
▁개성 적인
▁민요 는
▁민요 의
▁따뜻 하고
업체 인
▁도달 한
▁줄어 든
▁완공 된
▁멋 진
▁당선 된
▁지불 하는
▁띄 지
▁구역 으로
▁삼국시대 에는
▁모순 이
▁소실 되었다.

▁센 트
▁희망 하는
명세 서

▁호르몬 의
▁항복 한
▁햇 빛이
▁채색 .
▁건의 하였다.

▁전화 번호,
작은 술,
▁선사 시대의
▁데이터 베이스
▁이르렀 고,
▁바이러 스를
▁베를린 에서
▁안채 의
▁놀이 이다.

▁산림 은
함. ▶
▁보상 금
▁부착 되어
▁등급 을
▁모임 인
▁루터 는
▁마르크 스는
▁쾌 적한
▁속담 이
▁신석기 시대의
▁서문이 ,
▁턱 이
왕후 는
▁고고 학적
▁우아 하고
▁발라 드
▁응시 할
▁캔 버
▁석가모 니가
▁가옥 의
▁빈번 하게
▁히틀러 의
▁이이 첨
▁타당 성을
전투 에서
법칙 을
▁꽃받침 은
▁앞장 섰다.

해왔 던
▁편안 하게
▁Con t
▁쇄 국
▁이남 의
▁시상 식
▁불균 형
부상 서
▁필라 멘
▁Ar t
▁휩 싸
▁권유 로
·배 추
▁확고 하게
▁꿰 어
▁합법 적인
·대사 헌
원자 력
▁엿보 인다.

▁가닥 의
▁퐁 파
품질 관리
▁점진 적으로
▁퀴 즈
▁드럼 

▁신랄 하게
▁베버 는
▁행장· 묘갈명
▁키케 로는
▁강대 국
▁몸무 게는
ww w
▁경직 된
후한 서
▁재앙 을
▁권8 에
▁세시 풍
▁만드 는데,
국립중앙 도서관
▁댓잎피침 형
습니까 ?”
▁인( 仁
▁토스카 나
▁대( 對)
▁과감 하게
▁변증 법적
류해 일)
▁결가부 좌
con om
▁비정상 적으로
(a q
▁에워 싸
▁못지않 게
▁노릇 을
·프랑 스·
▁무례 한
▁구개 음
▁주자( 朱子
▁하노 버
.k r
▁수수께 끼
▁어쩌 면
▁석전(釋奠 )을
早稻 田
~익 년
▁나이애가 라
▁[환경 부령
▁1413년( 태종
" (19
- 18
2 )에
2 km2,
6 ).
C on
D T
L O
S C
g (2
o ch
o und
” (
▁ )
▁ β
▁ 公
▁ 則
▁ 靑
▁ 낀
▁ 벙
▁ 잿
▁ 쿨
▁ 탔
▁ am
〔 石
一 )의
修 身
劇 )
司 諫
員 )
四 書
國 )이
墓 )
墓 誌
太 守
察 訪
將 )이
山 東
山 ),
州 :
式 )의
御 製
拾 遺
時 調
木 槨
東 齋
神 道
禮 儀
自 然
遺 事
郡 名
錄 )』·『
가 며
각 색의
감 염
강 남
개 량
건 물을
경 기를
계 

공 격을
공 신에
공 간으로
관 에게
광 은
규 (李
기 법을
김 원
널 드
노 아
노 선을
눈 이
는 지,
니 티
대 회의
동 사(
동 1가
등 산
레 르
련 한
륜 당
름 다운
리 사
리 처
묵 은
물 도
바 늘
변 화에
별 을
부 유
부 인은
비 오
빔 밥
사 노
산 만
산 에는
삼 각
삼 아
삼 은
상 감
서 쪽
서 원이
선 이나
선 상에
세 력으로
수 단의
순 ,
스 '
스 텐
슨 ,
신 서
실 무
씨 ,
암 사(
양 식으로
언 덕
영 화를
오 [
오 면서
올 리언
요 가
용 수
우 체
워 지고
윽 고
익 (李
입 법
자 마자
장 려
장 식이
저 당
전 라도
점 유
접 시
정 화
제 트
제 도로
조 사의
좌 도
중 서
지 문
지 었다.

지 다가
직 도
직 (金宗
총 과
총 회를
축 의
친 의
탄 한
테 니스
포 항
프 에서
하 임
하 다면
행 위는
허 가를
현 감을
호 남
호 이다.

호 (金
환 국으로
황 금
휴 (
▁그 토록
▁사 지(
▁사 설은
▁수 미
▁수 정이
▁수 량이
▁수 공예
▁대 는
▁지 층
▁지 원이
▁지 평(持平
▁등 )을
▁기 공
▁기 복
▁기 지
▁기 간의
▁기 생을
▁한 소
▁한 참
▁한 문을
▁제 위에
▁제 75
▁시 ·도
▁시 련을
▁정 력
▁정 면을
▁19 00년에
▁자 이
▁자 들이
▁중 고
▁중 학
▁2 품
▁주 부
▁주 앙
▁보 람
▁아 궁
▁경 로
▁경 내의
▁다 육
▁다 리와
▁다 리로
▁유 료
▁유 적이다.

▁관 문
▁조 난
▁조 수
▁나 지막
▁부 름
▁부 작용이
▁고 리가
▁의 흥
▁공 매
▁공 장,
▁동 부에서
▁동 식물
▁동 아리
▁서 귀
▁서 인이
▁비 닐
▁구 가
▁구 세
▁구 월
▁구 절이
▁상 에
▁상 해로
▁원 핵
▁원 자를
▁소 묘
▁소 문
▁소 산
▁소 성
▁소 문을
▁소 량의
▁하 도
▁하 려
▁하 마
▁하 기에
▁하 드리아
▁모 르게
▁연 료로
▁발 문에
)· 반
)· 종
)· 차
)· 향
▁신 년
▁신 창
▁신 채
▁신 주를
▁3 국
▁3 층의
▁3 등에
▁개 는
▁개 성의
▁세 라
▁세 비
▁문 은
▁문 필
▁국 산
▁여 주인
▁내 며
▁내 면적
▁도 구로
▁성 읍
▁성 조
▁성 지
▁영 은
▁영 조는
▁해 는
▁교 조
▁교 단의
▁교 역의
▁작 물을
▁만 국
▁만 리
▁마 차
▁마 틴
▁장 시간
▁않 겠다는
▁오 카
▁무 방
▁강 탈
▁미 디
▁미 숙
▁선 어말
▁선 캄브리아
▁특 색이
▁방 에
▁불 안을
▁분 개
▁분 만
▁4 ∼5
▁우 량
▁후 배
▁후 기로
▁말 한다
들이 고
▁실 무를
▁반 월
▁현 의
▁계 발
▁5 세기에
▁산 등성이
(1 69
▁재 령
▁재 산과
▁〈 라
▁〈 상
▁〈 초
▁결 렬
▁노 트
▁종 착
▁설 형
▁당 진
▁단 국대학교
▁양 국은
▁진 주(
▁물 자를
▁명 상
▁명 왕
▁‘ 소
▁‘ 제
▁두 부
▁사람 (
▁사람 으로,
▁예 수를
▁안 면
▁안 방
▁안 토
▁역 관
▁행 해진
)에 ,
▁6 세기에
▁6 00여
▁화 성의
▁' 세
▁함 평
▁것이 지
▁왕 가
▁파 장이
)이 다.
)을 ,
▁매 스
▁출 시
▁표 류
▁표 정을
▁표 (表
▁군 사가
▁권 위가
▁간 ,
▁간 에는
▁포 에
▁속 인
▁속 도와
▁점 판
▁학 자인
▁근 간으로
▁회 원의
▁외 양
▁저 주
▁편 견
▁편 저
▁편 지는
▁조선 초
▁농 협
▁금 의
▁확 률이
▁집 자리
▁집 집마다
▁광 상
▁광 전
▁태 도와
▁삼 위
▁청 하여
▁청 일전쟁
▁피 란
▁피 상속
▁9 만
▁돌 과
▁아니 었
▁심 근
▁심 방
▁할 지
▁「 우
▁「 천
▁천 수
▁못 하다가
▁못 한다는
▁백 신을
부분 과
▁죽 었
기에 ,
▁치 세
▁치 솟
▁치 하
▁항 전
▁항 체가
▁철 과
▁철 을
▁면 목
▁병 용
▁병 의
▁병 원에서
▁충 무
▁충 신
▁타 운
▁황 새
)과 ,
▁쓰 이던
▁판 독
▁판 별
▁판 석을
▁판 본은
▁197 6년에
▁절 정
▁절 친
▁순 전히
▁지방 에는
▁완 도
▁완 충
▁승 천
▁승 하
er )
▁풍 물
▁카 슈
▁현재 )이다.

▁환 멸
▁환 산
▁미국 과의
▁향 상과
▁베 리
▁베 틀
▁형태 나
▁경제 에
▁경제 협력
km /s
▁192 5
(金 銅
▁이어 ,
▁다양 성
성이 란
▁대표 가
▁제2 7
▁극 장을
▁글 에서
▁폐 지를
▁질 량이
▁이것 의
▁생각 으로
대학 은
▁형성 되고
)’ 이란
▁생활 상을
▁별 자리
▁능 은
▁송 유
▁송 정
▁송 준
▁섬 에는
▁노동 자가
▁노동 력이
▁작성 하고,
▁지식 은
▁코 를
▁코 펜하
▁시행 하여
▁전체 에서
▁독립 하여
▁A F
he m
▁먹 이가
es ,
▁평가 하고
▁필요 하며,
or s
연구 소의
▁애 용
▁존재 하며,
▁버 리
▁버 리지
산( 大
▁악 마
▁네 스토
▁실시 를
▁야 별
▁연결 해
▁얼 어
▁견 습
레이 드
▁색 인
▁유지 되는
▁맡 기도
▁정보 ,
is )
▁이야 기도
▁건설 할
▁자료 나
▁이해 하지
▁수행 에
.5 %
▁3월 부터
▁팔 관
▁팔 공산
▁구분 을
▁구분 되며,
▁곡 선이
▁인정 하여
시켜 ,
▁노래 했다.

▁5월 부터
하자 마자
▁조각 수
▁잠 복
관( 史
▁아들 로,
▁발표 했는데,
▁넣 을
▁긴 장을
▁땅 으로
▁학교 ,
▁정신 은
▁정신 적·
▁개인 전을
▁군사 적인
▁나무 ,
▁수록 했다.

▁갑 인
▁갑 자
▁설명 해
▁세워 졌고,
▁진행 을
▁진행 하고
▁결국 ,
▁풀 기
▁풀 이한
▁숙 명
▁숙 성
▁출판 의
▁덕 은
▁습 관,
▁제품 명,
▁내려 다
▁훈 민정음
re en
▁t h
경제 학
▁갖추 어진
▁핵 을
▁발행 하여
▁파악 한
▁외국 환
▁겨 루
▁해안 평야
▁하였 다

▁확대 와
▁아이 러
▁아이 들은
(大 學
▁지구 로
▁건물 ,
▁건물 들이
▁벼 를
▁적용 되었다.

▁편집 을
▁결혼 식
▁분석 하고
▁동쪽 을
▁체계 ,
▁체계 는
▁N O
▁둔 한
▁경영 의
현( 崔
▁흰 색으로
▁추진 되었다.

▁수출 을
소설 (
▁과학 적으로
ing 〉(19
▁년 을
▁출토 되는
ur y
▁시설 은
▁관찰 한
명( 郡名
▁정착 이
▁정착 해
예술 적
▁《 사기(史記)
▁읽 은
▁수용 하고
▁공간 은
▁시민 들이
▁28 0
▁관광 지로
6년( 명종
▁얼굴 ,
▁번역 했다.

▁책임 은
▁안정 성을
▁185 1년
~6 5
▁슬 기
▁밝혀 냈다.

▁편입 된
▁저항 은
▁계승 했다.

▁인식 할
보살 과
보살 은
보살 좌
▁모여 들
▁경계 선
ed er
▁떨어 지고
▁백제 와
▁백제 시대
2년( 숙종
8년( 정조
▁3. 6
▁상품 과
▁갈등 ,
▁결성 

▁결성 한
▁결성 하여
▁종사 한다.

〉( 3
▁선택 하여
▁기울 어져
조참 의에
▁중심지 이며
▁중심지 이기도
▁필사 한
▁절차 와
▁고향 에서
▁맥 스
제품 ,
제품 이
▁워 커
▁스페인 에서
▁수술 로
▁욕 구나
▁근본 을
▁침략 으로
▁문헌 을
▁쇼 군
▁출발 했다.

▁1만 여
▁고객 에게
▁부처 님
▁부처 를
▁나가 고
▁벗어나 는
▁재위 )는
▁고분 이
▁선언 하였다.

▁확장 했다.

사무 아
세계 대전
▁정복 하고
▁제9 회
▁무늬 는
받아 야
▁입학 하였다.

▁보장 하기
▁해양 성
▁수집 된
▁부동 산을
▁횡 포를
.9 %,
▁이제 까지
▁지냈 고
▁출생 한
▁올려 놓은
▁1/ 10
▁갔 던
▁중시 한
▁아카 데
▁필리 프는
반응 은
▁제8 회
(200 3
자연 의
▁성균 관에
▁남한 강
▁지표 로
▁뛰어 들어
▁출현 한
▁두루 마리
▁저지 른
▁현황 ]
▁추천 을
▁복합 적으로
해( 公廨
▁나뉘 는데,
▁쇠퇴 했다.

▁피아 니스트
작업 에
▁패배 를
▁쟁 의
각주[ 3]
물질 로
▁생존 을
▁이행 하지
승( 形勝
▁중추 원의
▁통상 적으로
▁득 세
▁자손 에게
▁가축 사육
사유 ,
▁줄어 들어
▁처형 되었다.

▁이황 은
▁이루어졌 는데,
▁뾰족 하다.

▁띄 게
▁아미타 불의
▁추상 적
▁세속 적
법」 에
공립 보통학교로
▁예외 적인
▁노동조합 의
바이 러스
▁2013 .12.3
▁농산 물을
▁자루 가
▁틈 이
▁무관 심
▁말미 에
▁모집 하여
▁놀라 게
)·성 씨(姓氏
▁꺼 내
▁낱 말을
▁의지 하지
▁투르크 의
▁국내외 의
▁설탕 을
▁축적 된
▁진흥 왕
▁옳 다고
세력 인
수요 가
▁느껴 지는
▁느껴 진다.

▁찬양 하는
▁권5 ·6
▁과학적 이고
▁겸임 하였다.

▁저녁 에
▁고인돌 은
▁들어오 면서
▁스펙트럼 을
▁빈번 한
▁배웠 으며,
▁튼튼 히
▁뚜껑 을
▁신중 하게
▁압도 적인
▁평평 하게
▁부적 합
▁흘러내 리는
▁재발 급
▁밀집 해
▁나뭇 잎
▁마라 타
▁권6 은
▁오를 레앙
▁싹 이
▁고조선 의
▁사우스 캐롤라이나
▁유니 버
▁하원의 원으로
▁신임 사
CO 3
호선 ),
▁비로자나 불
▁바뀐 다.

)·인 물(人物
▁광합 성
▁광합 성을
▁테두 리
▁돌연 변이
▁엑 스
▁콘텐츠 를
▁장엄 한
三國 史
▁결여 되어
▁책록 되었다.

▁뉘 른베르크
)·역 원(驛院
▁랴오 둥
▁죽이 려
▁릴 레이
▁페니 실
견적 서,
▁내려오 면서
▁도미니 쿠스
▁동위원 소
▁내걸 고
▁2014.1 .1]
▁라디 칼
▁깜 짝
▁피츠 버그
▁제( 齊
군사관 학교
▁세네 갈
▁후지와 라
▁예카테 리나
▁초자연 적인
..... .

▁전적· 노비
▁데카 르트
▁트란 스
▁히데 요

▁게을 리
▁바르셀 로나
▁신디 케이트
▁[특징 ]
▁1725 년(영조
직(金宗 直
' 

( 수
( 약
( 20
) 각주[1]
- T
1 m)·
7 %),
H 3
U N
V A
] 에는
a j
a 〉(18
o ut
u k
· 메
· 16
’ 이며,
∼ 17
▁ 〉
▁ 孔
▁ 明
▁ 法
▁ 킴
▁ 픽
▁ 헥
▁ ar
▁ ac
▁ (15
一 )
京 畿
侯 )
光 明
內 外
兵 部
喪 禮
城 )·
堂 ),
天 )
女 眞
子 )는
字 )
寶 珠
府 )가
座 )
式 )으로
弘 文館
形 止
後 )
德 )의
戶 口
文 )과
會 )·
柱 )
柳 致
株 式
業 )을
正 )이
漢 )의
禮 部
節 度
螺 髮
說 話
軍 )의
閔 泳
題 詠
강 좌
개 소
거 에
거 니와
겨 서
격 에
경 화
경 기가
계 수
고 원
곡 리에
과 일
관 리의
광 물
광 의
구 인
궤 도
균 을
기 .
기 억
기 면서
나 지
내 고,
냈 는데,
노 인
논 리
논 리적
농 업이
높 이는
놓 는다.

능 력은
다 닌
달 걀
당 했으며,
대 보
던 지
데 다
데 시
데 의
데 스의
도 설
동 화
동 물이
동 회가
떡 잎
람 쥐
로 메
률 (
르 (
릉 에
링 턴
만 도
매 듭
명 /
목 포
문 체
바 스티
받 이
발 레
방 안을
백 서
법 령
베 네
베 트
보 국
봉 에서
부 장을
부 인을
블 럭
비 밀
빈 도
빙 스턴
사 관
사 료
사 라고
살 의
서 로서
석 도
세 도
섹 스
셨 다.

속 ,
수 급
슬 리
시 공
시 리
식 간에
신 뢰
심 성
심 리학
안 정을
알 라
애 는
어 족에
언 으로
요 로
요 소가
욱 )
운 전
웨 어
위 안
유 일
으 러
음 성
음 운
이 겨
이 든
익 의
인 류
인 구가
일 에는
장 관에
재 도
전 선을
조 사에
종 이다.

죄 (
줄 은
증 

질 소
짓 기
차 선
참 의
척 으로
체 제(
쳤 을
축 문(
출 하여
취 와
치 거나
케 는
크 레
키 스
타 임
타 이드
터 스
테 아
테 인
토 레
토 기·
티 코
판 .
폰 네
프 린
플 링
피 테
합 작
해 졌으며,
했 는지
혈 (
희 망
▁이 슈
▁이 타
▁이 성을
▁있 다면,
▁있 답니다.

▁1 mm
▁1 세(
▁그 물을
▁사 생
▁사 적으로
▁사 기를
▁사 명을
▁사 면에
▁사 당을
▁사 연을
▁사 방에
▁수 문
▁수 하
▁수 나라
▁수 명을
▁수 치를
▁수 중에
▁수 차례
▁대 남
▁대 도
▁대 야
▁대 어
▁대 위
▁대 포
▁지 맥
▁지 의
▁지 대로
▁지 원에
▁지 하에
▁기 법에
▁기 량을
▁전 무
▁전 집
▁전 부를
▁한 약
▁한 용
▁제 례
▁제 물
▁제 60
▁시 몽
▁시 안
▁시 천
▁시 인들의
▁정 릉
▁정 우
▁정 점에
▁자 인
▁자 문을
▁자 세가
▁일 해야
▁일 요일
▁중 생이
▁중 이던
▁2 가
▁2 10
▁2 점,
▁주 미
▁주 연
▁주 유
▁주 나라
▁주 었으며,
▁주 연을
▁아 담
▁아 리
▁아 메
▁아 킬
▁경 세
▁경 축
▁경 흥
▁경 력이
▁경 내에는
▁다 락
▁다 목적
▁다 큐멘
▁유 감
▁유 유
▁위 기가
▁관 다
▁관 수
▁조 력
▁조 소
▁조 사(
▁조 화의
▁조 밀한
▁조 언을
▁조 제프
▁인 하
▁인 화
▁인 후
▁인 기는
▁나 이트
▁부 대의
▁부 인을
▁고 리를
▁의 탁
▁의 사와
▁공 여
▁공 훈
▁공 적을
▁동 (
▁동 학교
▁서 린
▁서 버
▁서 재
▁비 만
▁비 웃
▁비 친
▁비 탈
▁상 면에는
▁원 내
▁원 한
▁원 정에
▁원 삼국
▁소 말
▁소 박하고
▁하 되
▁하 회
▁모 사
▁모 퉁
▁모 르몬
▁발 돋
)· 비
)· 승
)· 철
▁신 변
▁신 안
▁개 성에
▁문 하에
▁국 소
▁국 적
▁여 자들이
▁여 론이
▁내 게
▁내 에서의
▁도 학
▁도 구와
▁성 수
▁성 체
▁성 서에
▁영 도
▁영 속
▁영 문으로
▁교 (
▁교 실
▁교 수의
▁작 지만
▁만 년
▁만 델
▁어 빙
▁어 워즈
▁통 리
▁마 리아의
▁장 강
▁장 산
▁장 거리
▁장 르의
▁남 반
▁오 도
▁오 면서
▁무 단
▁무 도
▁무 열
▁무 위
▁강 장
▁미 워
▁미 치게
▁방 수
▁방 의
▁방 면에
▁불 상과
▁분 다.

▁분 비를
▁4 번
▁우 국
▁우 유를
▁후 삼국
▁말 하여
▁실 태를
▁현 명
▁계 를
▁계 수
▁산 청
(1 78
▁재 조직
▁재 산이
▁〈 북
▁〈 안
▁〈 역
▁〈 해
▁결 성을
▁결 의를
▁노 (
▁노 인의
▁노 인이
▁종 양이
▁당 에
▁양 면에
▁양 성에
▁진 시
▁‘ 부
▁‘ 원
▁알 프
▁행 랑
학교 수
▁화 사
▁' 전
▁' 자유
▁평 화와
▁평 신도
▁함 길
▁것이 요,
▁배 기
▁배 신
▁사용 으로
▁사용 해야
▁적 정한
▁최 석
▁차 운
▁매 를
▁표 정
▁표 기를
▁등이 ,
▁간 직한
▁독 성이
▁스 님
▁스 카
▁스 핀
▁스 콜라
▁민 유
▁법 흥
▁법 에서
▁감 마
▁감 사를
▁7 권
▁근 절
▁회 원은
▁외 로
▁목 성
▁직 급
▁직 조
▁저 온
▁본 질은
▁달 하고
▁호 포
▁데 카르
▁금 고
▁광 물이
▁삼 게
▁청 각
(19 7
▁9 .
▁사회 로
▁사회 교육
▁돌 널
▁돌 방
▁돌 기둥
▁토 대
▁토 리
▁토 양의
▁토 네이
▁심 은
사( 佛
▁참 작
▁살 았으며,
▁「 연
▁「 영
▁체 임
▁12 .
▁용 담
▁용 병
▁용 왕
▁구성 원의
▁항 소
▁면 으로
▁타 일
▁타 당한
▁석 관
▁한국 인이
▁황 소
▁책 (
▁199 5
▁199 0년대에
▁판 문
▁생산 성
▁생산 자
▁담 보로
▁절 에서
▁절 대로
▁198 6년에
▁198 9년에
▁곳 이라
▁국가 지정문화재
▁갖 은
▁취 학
▁취 락이
▁11 .
▁번 개
▁대부분 이며,
▁이르 지
▁향 상에
▁끝 맺
▁드 레스
▁베 른
▁베 푼
▁발전 되어
▁줄 무늬
▁192 8년에
▁192 5년에
▁195 3년에
▁193 5년에
▁온 도에
나무 에
▁방법 

▁프랑스 -
▁프랑스 어를
▁극 에
▁극 장의
▁글 자로
▁급 기
▁행정 부의
▁질 문에
▁질 그릇
▁표현 하여
▁생각 했기
▁발생 시키는
이었 다가
▁리 어
▁리 오
▁리 틀
▁침 례
▁누 정은
▁축 제를
▁영국 국
▁능 선이
▁만들 며
▁송 조
▁둘 렀
들에게 서
▁꽃 꽂
인이 자
▁힘 들어
▁막 돌
▁자유 ,
▁자유 민주당
▁몸 돌
▁시행 되고
▁라 우
▁라 지
▁독립 성을
▁측 은
▁먹 여
▁수도 회의
▁범 주로
▁평가 했다.

▁나타나 고,
▁기능 ,
▁애 벌레
▁버 리는
▁버 린다.

▁모습 에
▁악 을
▁실시 되고
▁국민 들에게
▁야 영
▁거쳐 야
▁견 딘
문학 ,
▁유지 한다.

▁염 증을
▁루 이는
▁페 어
▁P art
▁낮 추어
▁낮 추는
is che
▁증가 를
▁증가 하면
▁건설 하고
▁브 로드
▁떠 돌
.5 %를
▁기업 들이
▁4월 부터
▁I P
▁팔 리
▁팔 레스트
▁패 퇴
▁밑 부분이
▁건축 물의
▁나누 어진
▁뉴 턴의
▁커 질
▁초기 철기
▁일어나 면서
▁사건 이었다.

▁불교 에서는
▁조각 에서
▁조각 하였다.

▁월 등
▁8월 부터
▁7월 부터
기술 은
▁응 징
▁서식 이
▁레 바논
지방 은
▁자리 한
▁규모 도
▁등장 하기
▁세포 에서
▁테 살
▁덕 분
▁학생 과
▁현대 화
▁현대 에는
▁내려 가는
▁삶 이
▁미술 에
▁인도 양
▁가르 치기
▁휴 가를
▁휴 스턴
▁어린 아이
▁출신 이
it or
▁법령 에
▁외국 인의
▁전기 에는
▁이탈리아 ,
▁클 라우
▁성격 도
계약 이란
▁터 에
▁분류 하는
▁F a
▁확대 하고
▁밖 에는
규모 의
▁잔 털이
▁놀 란
▁근무 했다.

▁남북 의
▁작업 의
▁작업 하는
▁상징 이
▁분석 해
▁체계 로
▁N o
▁칠 곡
▁동물 성
▁동물 들은
▁제4 8
▁도로 이다.

▁대중 가요

▁그뒤 에
▁연주 할
의( 法
▁수출 이
특별 시
▁첨 의
▁처리 했다.

음악 에
▁자주 독립
회사 에서
노동 당
▁바뀌 었으며,
구( 鄭
ur es
▁끼 치는
▁관찰 을
▁공부 했으며
▁성립 된다.

예술 을
▁해석 은
▁해석 이
il le
▁쌍 의
▁선거 가
▁선거 권을
▁읽 는다.

.3 cm
▁제도 에서
▁흘러 들
▁푸 르
▁공간 적
과정 ,
▁휘 어
un e
보고 서는
▁옮겨 져
종( 禪
▁정리 하는
▁무덤 으로
00년 경에
4년( 태종
▁수립 했다.

▁집중 력
▁프로그램 에
0년( 고종
▁사상 가
▁184 1년
▁체결 하였다.

▁신설 하고
1년( 영조
1년( 성종
▁채택 하였다.

▁죄 수
▁보존 하는
▁니 코
▁공공 의
상태 의
▁짐 을
▁만나 지
▁융 자
▁결성 하고
▁높아 지면서
공( 進貢
7년( 영조
▁위원 장이
▁대립 하는
▁부정 하고
▁저술 은
〉( 조선
▁선택 을
▁선택 하는
▁서양 식
▁서양 에서는
▁만큼 의
▁실현 되지
▁달라 서
▁달라 진
5년( 선조
5년( 세조
▁추구 한
▁의무 의
▁절차 는
▁흡수 되었다.

▁유행 하였다.

▁좋아 하며
▁다스 려
▁공화 국을
령( 掌令
▁꼬 마
▁맥 이
▁수요 에
▁회복 하는
▁여행 했다.

재( 東齋
▁콩 팥
▁뽑 혀
▁연극 에
▁측정 한다.

▁쇼 와
▁2014 .12
▁부처 나
▁단계 적으로
▁160 4년
·중 국
▁명시 해야
▁윗 부분에
자본 으로
▁조약 이
▁제9 81
▁광주 군
▁평화 조약
▁정기 여객
▁문서 로서,
▁한글 을
▁소득 세
▁수집 ,
▁쓸 쓸
▁수학 적인
▁나타내 었다.

▁잡저 에는
▁취임 하였으며,
▁182 7년
▁답 사
▁공작 을
▁대응 하기
te in
▁평야 는
만큼 이나
▁프리 즘
▁4, 5
▁세웠 다는
▁181 5년
▁갔 으나
▁보살 상
▁구축 하고
ha 의
▁제8 호와
▁(1 0
▁일시 적
▁단편 적인
▁1960년대 에는
▁무너 뜨
▁기대 된다.

▁이온 이
▁선수 들이
▁카르 텔
▁지켜 지지
▁복원 하였다.

▁우수 하다.

▁설득 해
▁전사 한
▁감각 이
▁다음해 인
▁구입 할
▁택 하여
▁석탄 을
▁편성 하였다.

▁흐름 과
▁흐름 은
▁대장 군
▁받아들이 고,
▁중엽 부터
▁차별 이
▁국왕 에게
▁이룩 했다.

▁뜨 는
▁낮아 져
▁쌓아 올
▁진보 적
·상 업
▁돕 고
▁준공 했다.

▁성행 하였다.

▁6·25전쟁 이
▁본질 적
▁누구 에게
▁멋 이
▁청구 하는
▁그릇 을
해주 기
ow n
▁성균관 전
스러 움을
▁솜 씨가
▁축소 되었다.

▁댐 이
·미 국
에너 지를
▁불러일으 키는
발( 螺髮
▁프레 데
▁생겼 을
▁국립중앙도서관 과
▁김일 성의
▁선구 적
▁기다 리는
▁신축 하여
받았 고
▁아우구 스투스
▁돌출 된
▁의지 하여
▁허락 하지
▁범위 에서
▁루터 의
▁e x
▁연락 처
▁전면 적인
▁파라 과이
▁걷 어
▁예언 자
▁도전 하는
▁태백 산맥
▁권5 는
▁프란 시스코
▁○ ○
▁만성 적인
▁Re p
강수 량
▁명백 한
▁손상 된
▁이산화탄 소
▁유목 민
▁갇 혔
▁조용 한
▁스티 어링
▁94 0년(태조
▁망원 경
▁꽂 아
▁기용 되어
▁2014.8 .6
▁오목 한
▁분홍 색
▁파생 된
▁지탱 하는
▁공고 히
▁유니 언
▁분동 되었다.

조한 욱)
▁수에 즈
▁살아남 은
▁성실 하게
출장 소
▁4· 9
▁소용 돌
▁이화 여자대학교
▁프린 스턴
국조 오
꽃차례 를
▁빽빽 이
)·교 량(橋梁
▁비스마르크 는
▁파시 스트
▁가부장 적
▁질서정 연한
▁계단 식
▁템 플
▁시원 한
▁억울 한
▁바라보 며
▁풋 고추
▁선명 하게
▁개발도상 국
▁입적 하였다.

▁Or gan
▁김시 습
▁매끄럽 고
議政 府
▁이색 (李穡
▁정몽 주(鄭夢周
▁조선왕조 실록
▁매력 적인
▁카롤 링거
▁체코 슬로바키아
구(金 九
▁복리 후생
▁파격 적인
▁광한 루
▁태즈메이 니아
▁아닙 니다.

플루엔 자
▁사우( 祠宇
▁구스타 프
움직 임
▁클레오파 트라
▁천연기념 물로
▁경주( 慶
▁한소 끔
' 이라고도
( l
( 조
- H
- s
- 영
9 km2,
A n
I 는
O .
P A
P E
a )는
e an
f orm
m 를
r é
~ AD
· 곡
· 독
· 망
· 야
· 출
· 항
· 러시아
▁ ᄉ
▁ 何
▁ 긋
▁ 끔
▁ 맬
▁ 뫼
▁ 믹
▁ 쾰
▁ 홋
》 에는
」 로
京 城
侍 講
公 ),
制 )의
古 今
史 )』
和 )의
善 )의
圓 覺
土 壙
城 )에
夢 遊
太 祖
家 禮
嶺 南
德 )이
本 )을
正 )을
歷 代
派 )
王 ,
百 濟
監 察
精 舍
縣 監
衣 )
諸 葛
長 生
關 係
[...]
